{
  "version": "1.0",
  "truncation": null,
  "padding": null,
  "added_tokens": [
    {
      "id": 0,
      "content": "[UNK]",
      "single_word": false,
      "lstrip": false,
      "rstrip": false,
      "normalized": false,
      "special": true
    },
    {
      "id": 1,
      "content": "[PAD]",
      "single_word": false,
      "lstrip": false,
      "rstrip": false,
      "normalized": false,
      "special": true
    },
    {
      "id": 2,
      "content": "[EOS]",
      "single_word": false,
      "lstrip": false,
      "rstrip": false,
      "normalized": false,
      "special": true
    },
    {
      "id": 3,
      "content": "[BOS]",
      "single_word": false,
      "lstrip": false,
      "rstrip": false,
      "normalized": false,
      "special": true
    }
  ],
  "normalizer": {
    "type": "NFKD"
  },
  "pre_tokenizer": {
    "type": "Sequence",
    "pretokenizers": [
      {
        "type": "Whitespace"
      },
      {
        "type": "Digits",
        "individual_digits": false
      }
    ]
  },
  "post_processor": null,
  "decoder": {
    "type": "ByteLevel",
    "add_prefix_space": true,
    "trim_offsets": true,
    "use_regex": true
  },
  "model": {
    "type": "Unigram",
    "unk_id": 0,
    "vocab": [
      [
        "[UNK]",
        0.0
      ],
      [
        "[PAD]",
        0.0
      ],
      [
        "[EOS]",
        0.0
      ],
      [
        "[BOS]",
        0.0
      ],
      [
        "s",
        -3.0868944937586527
      ],
      [
        "e",
        -3.252781226745311
      ],
      [
        "a",
        -3.3856170328516146
      ],
      [
        "i",
        -3.3902525664339063
      ],
      [
        "o",
        -3.4755615417522776
      ],
      [
        "t",
        -3.5777685796245944
      ],
      [
        "m",
        -3.8400007559610643
      ],
      [
        "in",
        -3.9059137353986824
      ],
      [
        "et",
        -4.152621414453227
      ],
      [
        "u",
        -4.22631903795652
      ],
      [
        "us",
        -4.282323930282939
      ],
      [
        "c",
        -4.2834136074656275
      ],
      [
        "qui",
        -4.571163308365202
      ],
      [
        "is",
        -4.595560792153272
      ],
      [
        "p",
        -4.684380605025277
      ],
      [
        "de",
        -4.697034194058023
      ],
      [
        "que",
        -4.744489108001632
      ],
      [
        "r",
        -4.774139208804426
      ],
      [
        "re",
        -4.774760186404944
      ],
      [
        "um",
        -4.854555798947217
      ],
      [
        "sum",
        -4.87914544599645
      ],
      [
        "at",
        -4.980285454008616
      ],
      [
        "n",
        -5.027346558573013
      ],
      [
        "non",
        -5.038845602393785
      ],
      [
        "ad",
        -5.063139328389886
      ],
      [
        "ex",
        -5.136747519522238
      ],
      [
        "tu",
        -5.14073440627908
      ],
      [
        "ut",
        -5.158000169833251
      ],
      [
        "g",
        -5.1787852736917195
      ],
      [
        "per",
        -5.223852703085404
      ],
      [
        "f",
        -5.248987889331913
      ],
      [
        "cum",
        -5.373074866815422
      ],
      [
        "ne",
        -5.425444257356391
      ],
      [
        "di",
        -5.427007771405327
      ],
      [
        "ab",
        -5.471210311635135
      ],
      [
        "界que",
        -5.474655243040157
      ],
      [
        "con",
        -5.48372135977308
      ],
      [
        "or",
        -5.4855307567768055
      ],
      [
        "quam",
        -5.53809149073393
      ],
      [
        "si",
        -5.576007884955212
      ],
      [
        "pro",
        -5.603803565470502
      ],
      [
        "d",
        -5.604587137651835
      ],
      [
        "hic",
        -5.641056936702595
      ],
      [
        "ac",
        -5.6585170243785665
      ],
      [
        "b",
        -5.664790650003814
      ],
      [
        "li",
        -5.6848015210417895
      ],
      [
        "an",
        -5.708456951302782
      ],
      [
        "est",
        -5.711419164206353
      ],
      [
        "do",
        -5.719478021855805
      ],
      [
        "h",
        -5.803051744377052
      ],
      [
        "tum",
        -5.814905678466468
      ],
      [
        "sed",
        -5.838201811061589
      ],
      [
        "ego",
        -5.852714589921579
      ],
      [
        "l",
        -5.890454430341624
      ],
      [
        "ille",
        -5.923639375202711
      ],
      [
        "am",
        -5.945749947368302
      ],
      [
        "quis",
        -5.972563609262245
      ],
      [
        "ita",
        -6.085946353420361
      ],
      [
        "res",
        -6.086114360510875
      ],
      [
        "quod",
        -6.110737892104154
      ],
      [
        "ar",
        -6.120899140101814
      ],
      [
        "nec",
        -6.1629107409088295
      ],
      [
        "C",
        -6.183436598663823
      ],
      [
        "rum",
        -6.188732287146021
      ],
      [
        "ui",
        -6.2134647094009825
      ],
      [
        "ius",
        -6.223196263303217
      ],
      [
        "aut",
        -6.266799364838418
      ],
      [
        "no",
        -6.2928401050496845
      ],
      [
        "la",
        -6.306332224135609
      ],
      [
        "er",
        -6.311482154736966
      ],
      [
        "omnis",
        -6.334242567723933
      ],
      [
        "P",
        -6.33932849420991
      ],
      [
        "iam",
        -6.354633989440501
      ],
      [
        "sui",
        -6.415941637918975
      ],
      [
        "inter",
        -6.4165093052553495
      ],
      [
        "A",
        -6.425338413679299
      ],
      [
        "quae",
        -6.436780171004763
      ],
      [
        "ter",
        -6.4454402719270085
      ],
      [
        "x",
        -6.450713457425161
      ],
      [
        "ipse",
        -6.4565405202306305
      ],
      [
        "S",
        -6.466589314098659
      ],
      [
        "enim",
        -6.466734199923938
      ],
      [
        "on",
        -6.4953052592423255
      ],
      [
        "M",
        -6.495870729861121
      ],
      [
        "tur",
        -6.506081636285867
      ],
      [
        "ibus",
        -6.5258313585777294
      ],
      [
        "uit",
        -6.5371602738650765
      ],
      [
        "ob",
        -6.539606674807363
      ],
      [
        "al",
        -6.540846571545359
      ],
      [
        "possum",
        -6.542790725291502
      ],
      [
        "quo",
        -6.555124186861651
      ],
      [
        "tor",
        -6.5765440916214395
      ],
      [
        "nt",
        -6.596802663280112
      ],
      [
        "dico",
        -6.606044479010384
      ],
      [
        "le",
        -6.613963526372968
      ],
      [
        "etiam",
        -6.622150857792329
      ],
      [
        "tam",
        -6.643143529966565
      ],
      [
        "prae",
        -6.647822225867801
      ],
      [
        "com",
        -6.670097629600695
      ],
      [
        "facio",
        -6.687241281803958
      ],
      [
        "qua",
        -6.693758124103216
      ],
      [
        "unt",
        -6.707910739208549
      ],
      [
        "uis",
        -6.710818616895105
      ],
      [
        "fer",
        -6.713011330147097
      ],
      [
        "y",
        -6.718961182964641
      ],
      [
        "co",
        -6.722607311366737
      ],
      [
        "tamen",
        -6.728125617749274
      ],
      [
        "ra",
        -6.738687455171005
      ],
      [
        "par",
        -6.754423348650462
      ],
      [
        "H",
        -6.761791538427277
      ],
      [
        "uideo",
        -6.771114132689016
      ],
      [
        "ere",
        -6.7711352642216145
      ],
      [
        "ur",
        -6.780615000721349
      ],
      [
        "neque",
        -6.791378921610821
      ],
      [
        "nos",
        -6.793934700572391
      ],
      [
        "id",
        -6.796553249136133
      ],
      [
        "dis",
        -6.812360050071124
      ],
      [
        "nus",
        -6.817583635689591
      ],
      [
        "suus",
        -6.819578550744849
      ],
      [
        "sub",
        -6.8349839743494645
      ],
      [
        "orum",
        -6.838611299158426
      ],
      [
        "nam",
        -6.849641031727733
      ],
      [
        "num",
        -6.854481039037097
      ],
      [
        "nihil",
        -6.869615647073651
      ],
      [
        "esse",
        -6.870775886919622
      ],
      [
        "ant",
        -6.874667658376264
      ],
      [
        "fero",
        -6.879991724996675
      ],
      [
        "quidem",
        -6.881473951139627
      ],
      [
        "ens",
        -6.8962931172219
      ],
      [
        "ent",
        -6.906672757399823
      ],
      [
        "quid",
        -6.908888710298255
      ],
      [
        "ubi",
        -6.91960151306173
      ],
      [
        "lu",
        -6.920617843477325
      ],
      [
        "sol",
        -6.920951597120503
      ],
      [
        "causa",
        -6.922040210710039
      ],
      [
        "cur",
        -6.924059865105216
      ],
      [
        "ante",
        -6.928372022494814
      ],
      [
        "cus",
        -6.931749389895126
      ],
      [
        "mitto",
        -6.942609753994512
      ],
      [
        "I",
        -6.94268109511537
      ],
      [
        "rem",
        -6.943116757401283
      ],
      [
        "bus",
        -6.945761349371608
      ],
      [
        "lo",
        -6.961981283340906
      ],
      [
        "magnus",
        -6.970081412457262
      ],
      [
        "T",
        -6.970392259244756
      ],
      [
        "idem",
        -6.97757194785212
      ],
      [
        "dic",
        -6.990251767757345
      ],
      [
        "F",
        -6.990809382366313
      ],
      [
        "E",
        -6.998483643887287
      ],
      [
        "ag",
        -7.000506833226236
      ],
      [
        "nunc",
        -7.0018281773028
      ],
      [
        "ali",
        -7.015911525061798
      ],
      [
        "tem",
        -7.020491740889433
      ],
      [
        "uir",
        -7.027535024311533
      ],
      [
        "L",
        -7.039775173517562
      ],
      [
        "habeo",
        -7.05478912839707
      ],
      [
        "ris",
        -7.065818082616854
      ],
      [
        "cor",
        -7.071753250755188
      ],
      [
        "uos",
        -7.089652648111137
      ],
      [
        "hoc",
        -7.105142197696342
      ],
      [
        "meus",
        -7.119763952720948
      ],
      [
        "uel",
        -7.129185054410154
      ],
      [
        "dum",
        -7.132488463008883
      ],
      [
        "col",
        -7.13371740922932
      ],
      [
        "uen",
        -7.156941506247756
      ],
      [
        "uer",
        -7.159804329431351
      ],
      [
        "In",
        -7.170634147670981
      ],
      [
        "tuus",
        -7.174806163784654
      ],
      [
        "erat",
        -7.176119598235607
      ],
      [
        "nis",
        -7.1802976343742735
      ],
      [
        "homo",
        -7.190919047277447
      ],
      [
        "sci",
        -7.191203572252995
      ],
      [
        "multus",
        -7.193165749312506
      ],
      [
        "fi",
        -7.195194455896786
      ],
      [
        "modo",
        -7.203758043423267
      ],
      [
        "ari",
        -7.203845175241494
      ],
      [
        "unus",
        -7.2122435117171655
      ],
      [
        "U",
        -7.213211424304433
      ],
      [
        "diu",
        -7.215564673778061
      ],
      [
        "sit",
        -7.217976681544446
      ],
      [
        "consul",
        -7.217989915015362
      ],
      [
        "Caesar",
        -7.218735167265578
      ],
      [
        "magis",
        -7.220759257476198
      ],
      [
        "post",
        -7.2265135187592335
      ],
      [
        "alius",
        -7.228867020669208
      ],
      [
        "uide",
        -7.231981576834235
      ],
      [
        "liber",
        -7.242876931377031
      ],
      [
        "erit",
        -7.244150658350925
      ],
      [
        "animus",
        -7.251924666153485
      ],
      [
        "uita",
        -7.27089852508724
      ],
      [
        "tra",
        -7.272408377863989
      ],
      [
        "uenio",
        -7.274067374850855
      ],
      [
        "illa",
        -7.289947993872307
      ],
      [
        "iste",
        -7.292367535615774
      ],
      [
        "atio",
        -7.297709472496294
      ],
      [
        "quoque",
        -7.3149896539763954
      ],
      [
        "cer",
        -7.322644550823114
      ],
      [
        "uolo",
        -7.326187117958931
      ],
      [
        "ic",
        -7.328128306195154
      ],
      [
        "pl",
        -7.341522094210072
      ],
      [
        "nisi",
        -7.3446744166551685
      ],
      [
        "sic",
        -7.346147458864442
      ],
      [
        "cit",
        -7.359692690902678
      ],
      [
        "mihi",
        -7.372325068039611
      ],
      [
        "D",
        -7.385484272240401
      ],
      [
        "for",
        -7.389522489358246
      ],
      [
        "super",
        -7.389943055552276
      ],
      [
        "autem",
        -7.403664922660077
      ],
      [
        "duc",
        -7.406184974176375
      ],
      [
        "tibi",
        -7.407014414126376
      ],
      [
        "pa",
        -7.427422516737259
      ],
      [
        "pul",
        -7.4295380208081365
      ],
      [
        "dies",
        -7.441997482449981
      ],
      [
        "B",
        -7.44855997609892
      ],
      [
        "tri",
        -7.44922652590248
      ],
      [
        "pe",
        -7.450883146855322
      ],
      [
        "sine",
        -7.461407994132015
      ],
      [
        "uic",
        -7.461721147194718
      ],
      [
        "uni",
        -7.473380142444633
      ],
      [
        "arma",
        -7.4734099487370695
      ],
      [
        "nullus",
        -7.476306085391599
      ],
      [
        "locus",
        -7.483017739041729
      ],
      [
        "duco",
        -7.485102566860197
      ],
      [
        "lis",
        -7.485200095027686
      ],
      [
        "bi",
        -7.488353356407446
      ],
      [
        "idus",
        -7.493340646599663
      ],
      [
        "po",
        -7.4953382861216244
      ],
      [
        "pono",
        -7.501224261538429
      ],
      [
        "pater",
        -7.506497290108236
      ],
      [
        "pot",
        -7.510585460509889
      ],
      [
        "tot",
        -7.516972430926787
      ],
      [
        "alter",
        -7.517172982356579
      ],
      [
        "Et",
        -7.517365172332772
      ],
      [
        "tempus",
        -7.5176351478288
      ],
      [
        "sua",
        -7.527141623989566
      ],
      [
        "tim",
        -7.528345678433643
      ],
      [
        "hi",
        -7.543766590752568
      ],
      [
        "simul",
        -7.544364036744319
      ],
      [
        "fici",
        -7.547250832139653
      ],
      [
        "ago",
        -7.552193683590065
      ],
      [
        "manus",
        -7.557791164473107
      ],
      [
        "atur",
        -7.558570956102848
      ],
      [
        "Qui",
        -7.560581664747984
      ],
      [
        "miser",
        -7.566722752123802
      ],
      [
        "uero",
        -7.575524069279858
      ],
      [
        "men",
        -7.580590390361396
      ],
      [
        "ergo",
        -7.581590467320375
      ],
      [
        "pars",
        -7.583665235468207
      ],
      [
        "isti",
        -7.585445319544755
      ],
      [
        "fu",
        -7.585706017685524
      ],
      [
        "car",
        -7.586548851580877
      ],
      [
        "bellum",
        -7.5902722899321535
      ],
      [
        "rat",
        -7.591884125266081
      ],
      [
        "cio",
        -7.595240450227672
      ],
      [
        "enti",
        -7.596100275615351
      ],
      [
        "noster",
        -7.610393715522627
      ],
      [
        "cre",
        -7.618750106862788
      ],
      [
        "cae",
        -7.629325761643828
      ],
      [
        "terra",
        -7.635427497755495
      ],
      [
        "pos",
        -7.643877012045936
      ],
      [
        "labor",
        -7.650298029410655
      ],
      [
        "nomen",
        -7.650676520325515
      ],
      [
        "tro",
        -7.655625442420785
      ],
      [
        "iter",
        -7.657745434977139
      ],
      [
        "N",
        -7.660721957037957
      ],
      [
        "De",
        -7.6609360142546725
      ],
      [
        "anus",
        -7.6625310310322305
      ],
      [
        "bonus",
        -7.667030259808043
      ],
      [
        "mus",
        -7.6702432053487675
      ],
      [
        "licet",
        -7.670942633409629
      ],
      [
        "aliquis",
        -7.684438495941466
      ],
      [
        "populus",
        -7.685266171082669
      ],
      [
        "natura",
        -7.685901517961374
      ],
      [
        "rus",
        -7.686050786012084
      ],
      [
        "gitur",
        -7.688741314524243
      ],
      [
        "atus",
        -7.689142341866368
      ],
      [
        "haec",
        -7.692332301169442
      ],
      [
        "sunt",
        -7.693875492183281
      ],
      [
        "illi",
        -7.696925994353661
      ],
      [
        "apud",
        -7.697931104501924
      ],
      [
        "fortuna",
        -7.6980528043935035
      ],
      [
        "cul",
        -7.701724471906671
      ],
      [
        "uol",
        -7.714007776862114
      ],
      [
        "pio",
        -7.719877813971932
      ],
      [
        "eius",
        -7.720359741566677
      ],
      [
        "sequor",
        -7.720821608690564
      ],
      [
        "eri",
        -7.7235051131685175
      ],
      [
        "cess",
        -7.727366342817345
      ],
      [
        "corpus",
        -7.729368932944784
      ],
      [
        "contra",
        -7.733378588158822
      ],
      [
        "fac",
        -7.734327945585689
      ],
      [
        "gra",
        -7.734437606066838
      ],
      [
        "bo",
        -7.734548688415057
      ],
      [
        "mili",
        -7.744246118483962
      ],
      [
        "Ar",
        -7.7513411077056045
      ],
      [
        "itur",
        -7.754130341768757
      ],
      [
        "ratio",
        -7.757970872605261
      ],
      [
        "Non",
        -7.761322604565985
      ],
      [
        "sto",
        -7.764069405436696
      ],
      [
        "tantum",
        -7.767214620407204
      ],
      [
        "mentum",
        -7.76733807095827
      ],
      [
        "lli",
        -7.7673921845806815
      ],
      [
        "Si",
        -7.76808971415173
      ],
      [
        "Re",
        -7.7747272540381696
      ],
      [
        "rex",
        -7.7761215740379805
      ],
      [
        "Romanus",
        -7.776262834016138
      ],
      [
        "At",
        -7.777223927945685
      ],
      [
        "mens",
        -7.778361378823196
      ],
      [
        "uere",
        -7.780450485511271
      ],
      [
        "saepe",
        -7.78732344306615
      ],
      [
        "peto",
        -7.790521911489504
      ],
      [
        "are",
        -7.79238445922496
      ],
      [
        "rit",
        -7.796397304892065
      ],
      [
        "bit",
        -7.797726776778047
      ],
      [
        "imus",
        -7.798627020159589
      ],
      [
        "cedo",
        -7.8017712160508825
      ],
      [
        "ulus",
        -7.805480233749257
      ],
      [
        "senatus",
        -7.80702681026691
      ],
      [
        "semper",
        -7.810503125292272
      ],
      [
        "lex",
        -7.815883471666082
      ],
      [
        "puto",
        -7.816989190882907
      ],
      [
        "Quid",
        -7.818388027375856
      ],
      [
        "nemo",
        -7.827130759997335
      ],
      [
        "duo",
        -7.831499017397296
      ],
      [
        "leg",
        -7.832789202649712
      ],
      [
        "circum",
        -7.841411639179846
      ],
      [
        "Di",
        -7.849490185269363
      ],
      [
        "bene",
        -7.85128005850806
      ],
      [
        "G",
        -7.86220952460174
      ],
      [
        "endi",
        -7.862278348342126
      ],
      [
        "regi",
        -7.862930921000171
      ],
      [
        "dam",
        -7.865318183678687
      ],
      [
        "op",
        -7.870741133774087
      ],
      [
        "pecunia",
        -7.874017193402578
      ],
      [
        "satis",
        -7.882388468193271
      ],
      [
        "domus",
        -7.887024071334549
      ],
      [
        "respublica",
        -7.905575220616379
      ],
      [
        "quibus",
        -7.906984263089088
      ],
      [
        "erunt",
        -7.911494960648377
      ],
      [
        "hostis",
        -7.9139077298186855
      ],
      [
        "Me",
        -7.917339640035876
      ],
      [
        "pr",
        -7.923128998781242
      ],
      [
        "posse",
        -7.923455294262941
      ],
      [
        "culum",
        -7.925628372153456
      ],
      [
        "trans",
        -7.936057024472314
      ],
      [
        "ebat",
        -7.939272975938807
      ],
      [
        "ula",
        -7.943231069067784
      ],
      [
        "ero",
        -7.943581507432507
      ],
      [
        "deinde",
        -7.951758251978523
      ],
      [
        "uti",
        -7.951809917531564
      ],
      [
        "primum",
        -7.952004584757031
      ],
      [
        "mos",
        -7.952952132283801
      ],
      [
        "bat",
        -7.954431089811526
      ],
      [
        "honor",
        -7.955186874782735
      ],
      [
        "tribu",
        -7.958181766972028
      ],
      [
        "quidam",
        -7.958304052381965
      ],
      [
        "pes",
        -7.959660735628585
      ],
      [
        "lus",
        -7.961988847438299
      ],
      [
        "entia",
        -7.963793172158429
      ],
      [
        "pen",
        -7.964391272566893
      ],
      [
        "por",
        -7.966312851093473
      ],
      [
        "O",
        -7.966421103536509
      ],
      [
        "fuit",
        -7.967268722451219
      ],
      [
        "huc",
        -7.983095969603212
      ],
      [
        "nimi",
        -7.991040706542353
      ],
      [
        "legio",
        -7.993176343384963
      ],
      [
        "uirtus",
        -7.993185011743094
      ],
      [
        "3",
        -7.997953820919678
      ],
      [
        "ger",
        -7.999010096588724
      ],
      [
        "pici",
        -8.000604894962187
      ],
      [
        "erant",
        -8.002545955320068
      ],
      [
        "totus",
        -8.00298794215567
      ],
      [
        "prouincia",
        -8.00309753671602
      ],
      [
        "uolu",
        -8.005952110911466
      ],
      [
        "undi",
        -8.009348879841333
      ],
      [
        "acer",
        -8.014298274115394
      ],
      [
        "deus",
        -8.014732978068142
      ],
      [
        "mea",
        -8.015275076933534
      ],
      [
        "miles",
        -8.016924158211705
      ],
      [
        "Ne",
        -8.021473043785427
      ],
      [
        "credo",
        -8.022164074798244
      ],
      [
        "eff",
        -8.023251235508333
      ],
      [
        "An",
        -8.02532919463224
      ],
      [
        "omnia",
        -8.025514413809102
      ],
      [
        "tantus",
        -8.026632654269722
      ],
      [
        "quisque",
        -8.032261319120163
      ],
      [
        "audi",
        -8.035859695774112
      ],
      [
        "cura",
        -8.044657846687887
      ],
      [
        "iudicium",
        -8.048925028893896
      ],
      [
        "sibi",
        -8.04900528390228
      ],
      [
        "numquam",
        -8.049297188937688
      ],
      [
        "genus",
        -8.05145816092611
      ],
      [
        "unc",
        -8.053246332807927
      ],
      [
        "ueni",
        -8.059992273495189
      ],
      [
        "urbs",
        -8.060092412130405
      ],
      [
        "castra",
        -8.063421489842789
      ],
      [
        "illo",
        -8.063801092270921
      ],
      [
        "consilium",
        -8.065020412152043
      ],
      [
        "laud",
        -8.069215277666279
      ],
      [
        "propter",
        -8.073213011483595
      ],
      [
        "quin",
        -8.073714656314639
      ],
      [
        "cen",
        -8.076905512031907
      ],
      [
        "iubeo",
        -8.078754561580364
      ],
      [
        "opus",
        -8.080520685263894
      ],
      [
        "Con",
        -8.08268746788653
      ],
      [
        "Sed",
        -8.082959872490113
      ],
      [
        "superus",
        -8.085826298807255
      ],
      [
        "cog",
        -8.086459475908281
      ],
      [
        "Ad",
        -8.087524448434056
      ],
      [
        "quantum",
        -8.088541094901915
      ],
      [
        "audio",
        -8.089291670290258
      ],
      [
        "ira",
        -8.09191635819904
      ],
      [
        "retur",
        -8.093043322930072
      ],
      [
        "uoco",
        -8.093740943547058
      ],
      [
        "Tu",
        -8.09563219341845
      ],
      [
        "cel",
        -8.097738195598223
      ],
      [
        "cla",
        -8.097998224791642
      ],
      [
        "quaero",
        -8.099137109617093
      ],
      [
        "salu",
        -8.099739663117544
      ],
      [
        "debeo",
        -8.102969253410352
      ],
      [
        "quos",
        -8.103041261683234
      ],
      [
        "Ac",
        -8.106849991325666
      ],
      [
        "fio",
        -8.114358977118535
      ],
      [
        "Al",
        -8.115170400411955
      ],
      [
        "primus",
        -8.118831427346072
      ],
      [
        "Per",
        -8.11890449146254
      ],
      [
        "Ui",
        -8.123420264431362
      ],
      [
        "ndum",
        -8.12359414394098
      ],
      [
        "bonum",
        -8.128441020305603
      ],
      [
        "moueo",
        -8.133030541588495
      ],
      [
        "mors",
        -8.135062776663553
      ],
      [
        "parum",
        -8.137088121929672
      ],
      [
        "firm",
        -8.14487310231783
      ],
      [
        "atione",
        -8.144882714998976
      ],
      [
        "untur",
        -8.14728888430897
      ],
      [
        "enda",
        -8.148254590059306
      ],
      [
        "tempor",
        -8.152015064760866
      ],
      [
        "mur",
        -8.155957654771164
      ],
      [
        "uerum",
        -8.158348692868216
      ],
      [
        "gratia",
        -8.159839588881947
      ],
      [
        "exercitus",
        -8.161507529247988
      ],
      [
        "secu",
        -8.162914168406836
      ],
      [
        "accipio",
        -8.163750546810046
      ],
      [
        "praetor",
        -8.169075827140347
      ],
      [
        "nda",
        -8.171398180751144
      ],
      [
        "multi",
        -8.172566125224865
      ],
      [
        "Se",
        -8.179430650130294
      ],
      [
        "cui",
        -8.180492398241668
      ],
      [
        "mini",
        -8.182405099143633
      ],
      [
        "ciuitas",
        -8.184843608234452
      ],
      [
        "dolor",
        -8.188054990393859
      ],
      [
        "unde",
        -8.190840261015811
      ],
      [
        "amor",
        -8.196620004659131
      ],
      [
        "isse",
        -8.198782086260431
      ],
      [
        "batur",
        -8.199235075714158
      ],
      [
        "uro",
        -8.20009098403687
      ],
      [
        "urus",
        -8.200818749900979
      ],
      [
        "praeter",
        -8.201659604085087
      ],
      [
        "cas",
        -8.204299523706123
      ],
      [
        "pol",
        -8.204580598803151
      ],
      [
        "fru",
        -8.205027298579203
      ],
      [
        "nius",
        -8.205627125597992
      ],
      [
        "eni",
        -8.20800728829785
      ],
      [
        "dat",
        -8.209753351449939
      ],
      [
        "dux",
        -8.210325566245888
      ],
      [
        "Su",
        -8.21046199171376
      ],
      [
        "uia",
        -8.212265497323259
      ],
      [
        "cap",
        -8.214792273667303
      ],
      [
        "entis",
        -8.21703556463241
      ],
      [
        "ho",
        -8.218267954621137
      ],
      [
        "scio",
        -8.218840771395524
      ],
      [
        "priu",
        -8.220638806607017
      ],
      [
        "arius",
        -8.22904304935685
      ],
      [
        "entem",
        -8.231067190661157
      ],
      [
        "scribo",
        -8.234144443324167
      ],
      [
        "aequ",
        -8.234772801801665
      ],
      [
        "statu",
        -8.235826509895745
      ],
      [
        "puer",
        -8.239966955354582
      ],
      [
        "nau",
        -8.24132666946397
      ],
      [
        "Ex",
        -8.241513693271749
      ],
      [
        "copia",
        -8.242248227698
      ],
      [
        "mina",
        -8.243677091327704
      ],
      [
        "uisse",
        -8.24595467864417
      ],
      [
        "seruo",
        -8.246074337326203
      ],
      [
        "nox",
        -8.246114656849759
      ],
      [
        "pugna",
        -8.24802837918908
      ],
      [
        "Pro",
        -8.257906136384264
      ],
      [
        "solum",
        -8.258951517272294
      ],
      [
        "his",
        -8.25954026050996
      ],
      [
        "uerit",
        -8.261811321375687
      ],
      [
        "alia",
        -8.262117695234478
      ],
      [
        "iniuria",
        -8.262772163798944
      ],
      [
        "ectus",
        -8.263299344201902
      ],
      [
        "natus",
        -8.263712159320857
      ],
      [
        "ullus",
        -8.263874140010955
      ],
      [
        "cal",
        -8.265016538086034
      ],
      [
        "omni",
        -8.266564563189931
      ],
      [
        "tatem",
        -8.266940928692904
      ],
      [
        "quisquam",
        -8.26806148265233
      ],
      [
        "beneficium",
        -8.268096826645294
      ],
      [
        "ipsa",
        -8.269550411090583
      ],
      [
        "amicus",
        -8.271550326717309
      ],
      [
        "caput",
        -8.272678514313546
      ],
      [
        "gere",
        -8.273253497211536
      ],
      [
        "ibi",
        -8.273403617928277
      ],
      [
        "Au",
        -8.273950509637295
      ],
      [
        "cito",
        -8.276973962437632
      ],
      [
        "rium",
        -8.277131301766003
      ],
      [
        "multa",
        -8.279627698678567
      ],
      [
        "ros",
        -8.281987954849537
      ],
      [
        "rep",
        -8.283605033493249
      ],
      [
        "imperium",
        -8.28589007938755
      ],
      [
        "mater",
        -8.286188611294921
      ],
      [
        "hin",
        -8.286290863954981
      ],
      [
        "ignis",
        -8.287506790755668
      ],
      [
        "uas",
        -8.289157461295371
      ],
      [
        "amic",
        -8.289499901698772
      ],
      [
        "rius",
        -8.291192152347582
      ],
      [
        "malum",
        -8.291883456666625
      ],
      [
        "minus",
        -8.291906155805375
      ],
      [
        "uerto",
        -8.293138338878945
      ],
      [
        "cau",
        -8.293504492180777
      ],
      [
        "gem",
        -8.297319604527107
      ],
      [
        "cere",
        -8.301137066824172
      ],
      [
        "modi",
        -8.30259898952961
      ],
      [
        "periculum",
        -8.303337556100297
      ],
      [
        "animo",
        -8.304895415118047
      ],
      [
        "Ill",
        -8.307906010484878
      ],
      [
        "puta",
        -8.30852548511146
      ],
      [
        "pati",
        -8.310627089435961
      ],
      [
        "quasi",
        -8.311961486574159
      ],
      [
        "ipsi",
        -8.313609652832431
      ],
      [
        "praes",
        -8.314572192948729
      ],
      [
        "gloria",
        -8.314809950479724
      ],
      [
        "potest",
        -8.317594799314897
      ],
      [
        "loco",
        -8.31770753522703
      ],
      [
        "unda",
        -8.31862575380567
      ],
      [
        "modus",
        -8.319112568445416
      ],
      [
        "mare",
        -8.319289931404352
      ],
      [
        "rig",
        -8.321407052980994
      ],
      [
        "fides",
        -8.325341421881092
      ],
      [
        "sententia",
        -8.326042861901481
      ],
      [
        "ria",
        -8.329082747998317
      ],
      [
        "Qua",
        -8.331010236201877
      ],
      [
        "rent",
        -8.331540462373738
      ],
      [
        "cula",
        -8.331721269253261
      ],
      [
        "una",
        -8.335336076809583
      ],
      [
        "uerbum",
        -8.33663999258307
      ],
      [
        "antur",
        -8.337720582229032
      ],
      [
        "ciuis",
        -8.338096728990378
      ],
      [
        "uinco",
        -8.338399860970311
      ],
      [
        "teneo",
        -8.344243142500504
      ],
      [
        "ente",
        -8.344323654750095
      ],
      [
        "crimen",
        -8.347259364728284
      ],
      [
        "Roma",
        -8.347385738011408
      ],
      [
        "omnibus",
        -8.347542522610777
      ],
      [
        "uesti",
        -8.347841926040461
      ],
      [
        "tatis",
        -8.34805367234243
      ],
      [
        "stru",
        -8.348192143092035
      ],
      [
        "inde",
        -8.348240602581516
      ],
      [
        "mortali",
        -8.3488087063003
      ],
      [
        "primo",
        -8.350931072770898
      ],
      [
        "gero",
        -8.35100229827703
      ],
      [
        "erro",
        -8.351101837422753
      ],
      [
        "adeo",
        -8.351143826706883
      ],
      [
        "ndus",
        -8.352740135474658
      ],
      [
        "metu",
        -8.353951385435757
      ],
      [
        "cuius",
        -8.359583916468338
      ],
      [
        "capio",
        -8.360858622856881
      ],
      [
        "relinquo",
        -8.361701337583051
      ],
      [
        "Quod",
        -8.363291262580013
      ],
      [
        "lla",
        -8.364479051640085
      ],
      [
        "grauis",
        -8.36791487698398
      ],
      [
        "fama",
        -8.369062893155348
      ],
      [
        "multum",
        -8.3702477807217
      ],
      [
        "inquio",
        -8.370471212927836
      ],
      [
        "Co",
        -8.376540573915431
      ],
      [
        "multo",
        -8.379199119814192
      ],
      [
        "omnes",
        -8.38057851644214
      ],
      [
        "illum",
        -8.381130929111631
      ],
      [
        "nostri",
        -8.382119519410448
      ],
      [
        "eques",
        -8.384557011550767
      ],
      [
        "gener",
        -8.387417566935744
      ],
      [
        "alis",
        -8.390488536245673
      ],
      [
        "orem",
        -8.391592149957875
      ],
      [
        "magna",
        -8.392130781323228
      ],
      [
        "fur",
        -8.394412837982243
      ],
      [
        "iudex",
        -8.395059633089858
      ],
      [
        "Te",
        -8.395316517503403
      ],
      [
        "R",
        -8.396353801840782
      ],
      [
        "Nam",
        -8.39782704693718
      ],
      [
        "Ut",
        -8.40074967777718
      ],
      [
        "male",
        -8.401921824299567
      ],
      [
        "uix",
        -8.403107536997204
      ],
      [
        "bant",
        -8.405475062077564
      ],
      [
        "annus",
        -8.405700857341024
      ],
      [
        "cu",
        -8.406636854053033
      ],
      [
        "ora",
        -8.408075953338159
      ],
      [
        "gens",
        -8.41003353371114
      ],
      [
        "fun",
        -8.412616117257965
      ],
      [
        "quoniam",
        -8.413280779815913
      ],
      [
        "lum",
        -8.415095457679453
      ],
      [
        "ferre",
        -8.416503658206114
      ],
      [
        "haud",
        -8.419371477673696
      ],
      [
        "No",
        -8.4206152087344
      ],
      [
        "uetus",
        -8.42118577758046
      ],
      [
        "orti",
        -8.425485099948016
      ],
      [
        "Quo",
        -8.427142043341664
      ],
      [
        "potius",
        -8.427343512997846
      ],
      [
        "Mar",
        -8.427732351689121
      ],
      [
        "specta",
        -8.428846382527844
      ],
      [
        "certus",
        -8.429293207881834
      ],
      [
        "boni",
        -8.432191693534241
      ],
      [
        "bantur",
        -8.43422092672126
      ],
      [
        "poena",
        -8.434782819243349
      ],
      [
        "hort",
        -8.437349417679206
      ],
      [
        "nobis",
        -8.43807624541931
      ],
      [
        "siue",
        -8.43941645827244
      ],
      [
        "hos",
        -8.440247596328486
      ],
      [
        "auri",
        -8.442089698212847
      ],
      [
        "pello",
        -8.442687101954743
      ],
      [
        "Par",
        -8.442866150340308
      ],
      [
        "debe",
        -8.450275034761855
      ],
      [
        "lae",
        -8.450975569040466
      ],
      [
        "ulo",
        -8.452800252620165
      ],
      [
        "Ita",
        -8.452846183087043
      ],
      [
        "fuga",
        -8.454270759604631
      ],
      [
        "uentus",
        -8.45452414675978
      ],
      [
        "geni",
        -8.45765731134124
      ],
      [
        "parte",
        -8.458461260777188
      ],
      [
        "princeps",
        -8.458645686233814
      ],
      [
        "ideo",
        -8.462541236555296
      ],
      [
        "serui",
        -8.463611445230285
      ],
      [
        "nouus",
        -8.463801905541974
      ],
      [
        "patria",
        -8.464729873769588
      ],
      [
        "界ne",
        -8.465464342942049
      ],
      [
        "nulla",
        -8.467577546011052
      ],
      [
        "esco",
        -8.470792957990994
      ],
      [
        "deni",
        -8.474357792379234
      ],
      [
        "tionem",
        -8.477500313603688
      ],
      [
        "fuisse",
        -8.478853289180346
      ],
      [
        "endum",
        -8.47935613601383
      ],
      [
        "filius",
        -8.47978836766554
      ],
      [
        "fugio",
        -8.481186677459666
      ],
      [
        "scelus",
        -8.483187397395508
      ],
      [
        "uester",
        -8.483719205972033
      ],
      [
        "spes",
        -8.484907241592712
      ],
      [
        "uox",
        -8.485148004920596
      ],
      [
        "traho",
        -8.489265784976958
      ],
      [
        "pect",
        -8.497050379563209
      ],
      [
        "hac",
        -8.49816941319764
      ],
      [
        "talis",
        -8.501037317356666
      ],
      [
        "mons",
        -8.501475046355832
      ],
      [
        "uiuo",
        -8.501491808080885
      ],
      [
        "Romani",
        -8.502495889569252
      ],
      [
        "isset",
        -8.503641049898768
      ],
      [
        "nibus",
        -8.505100172754705
      ],
      [
        "qu",
        -8.505827939929539
      ],
      [
        "icus",
        -8.50758852451548
      ],
      [
        "dicere",
        -8.511962547033068
      ],
      [
        "late",
        -8.514723630268772
      ],
      [
        "imperator",
        -8.514896330017553
      ],
      [
        "turba",
        -8.51608679992782
      ],
      [
        "uersus",
        -8.516096767794862
      ],
      [
        "summa",
        -8.516608080406574
      ],
      [
        "eris",
        -8.517865912276314
      ],
      [
        "uoca",
        -8.519323481749769
      ],
      [
        "littera",
        -8.523325691150378
      ],
      [
        "edit",
        -8.524899457929049
      ],
      [
        "lib",
        -8.525001539910622
      ],
      [
        "bilis",
        -8.525363082571992
      ],
      [
        "1",
        -8.526637042067174
      ],
      [
        "fugi",
        -8.530831771050188
      ],
      [
        "menta",
        -8.5328452906444
      ],
      [
        "omnium",
        -8.533206866587214
      ],
      [
        "patri",
        -8.533692288882822
      ],
      [
        "paruus",
        -8.536494071931745
      ],
      [
        "rup",
        -8.538151824043627
      ],
      [
        "uert",
        -8.541024462258637
      ],
      [
        "Quae",
        -8.541641616607262
      ],
      [
        "angu",
        -8.542214844105274
      ],
      [
        "ntur",
        -8.545206276964922
      ],
      [
        "mari",
        -8.547277238284472
      ],
      [
        "esset",
        -8.547618450511035
      ],
      [
        "ager",
        -8.547828595691817
      ],
      [
        "ista",
        -8.550503799012656
      ],
      [
        "parti",
        -8.551252864248678
      ],
      [
        "La",
        -8.5513311514337
      ],
      [
        "ulti",
        -8.551639944874855
      ],
      [
        "fortis",
        -8.556012099589402
      ],
      [
        "caelum",
        -8.556080415826225
      ],
      [
        "ceteru",
        -8.557349024964976
      ],
      [
        "nunti",
        -8.559906288272984
      ],
      [
        "domi",
        -8.560817708486749
      ],
      [
        "tene",
        -8.566212920152264
      ],
      [
        "uenit",
        -8.566368734694294
      ],
      [
        "forte",
        -8.568848494926055
      ],
      [
        "uari",
        -8.56904725441598
      ],
      [
        "rebus",
        -8.56982847504555
      ],
      [
        "pectus",
        -8.570026277518185
      ],
      [
        "ndam",
        -8.576000780634615
      ],
      [
        "ulla",
        -8.576998328887537
      ],
      [
        "exter",
        -8.577158925417987
      ],
      [
        "urbe",
        -8.577209836972333
      ],
      [
        "loquor",
        -8.577445263339616
      ],
      [
        "communi",
        -8.577805824531058
      ],
      [
        "umquam",
        -8.579846298649672
      ],
      [
        "ilius",
        -8.583104247673571
      ],
      [
        "frater",
        -8.583214067877778
      ],
      [
        "pell",
        -8.584661274520371
      ],
      [
        "entes",
        -8.587157720199016
      ],
      [
        "facie",
        -8.587569361618726
      ],
      [
        "Cum",
        -8.592150314137525
      ],
      [
        "facere",
        -8.59265602435128
      ],
      [
        "uiri",
        -8.59536184182668
      ],
      [
        "aetas",
        -8.595469310693161
      ],
      [
        "maior",
        -8.59568087875518
      ],
      [
        "tollo",
        -8.59591844409914
      ],
      [
        "cumque",
        -8.596649997311644
      ],
      [
        "sentio",
        -8.596815022668618
      ],
      [
        "pler",
        -8.597529838166528
      ],
      [
        "usque",
        -8.600123134537053
      ],
      [
        "genti",
        -8.601654083720915
      ],
      [
        "mul",
        -8.602230457843202
      ],
      [
        "Nec",
        -8.602465079016593
      ],
      [
        "ras",
        -8.602655506428299
      ],
      [
        "ulum",
        -8.603191995429668
      ],
      [
        "equus",
        -8.603388590263297
      ],
      [
        "Ti",
        -8.60485584002933
      ],
      [
        "uerunt",
        -8.60536613549423
      ],
      [
        "reddo",
        -8.605735554873085
      ],
      [
        "oculus",
        -8.605901902091842
      ],
      [
        "refero",
        -8.605986031833528
      ],
      [
        "soleo",
        -8.60828648404608
      ],
      [
        "Uer",
        -8.608361832730981
      ],
      [
        "Tr",
        -8.608414798129054
      ],
      [
        "mora",
        -8.608894387967496
      ],
      [
        "dignus",
        -8.609025082158066
      ],
      [
        "ssent",
        -8.609099748275053
      ],
      [
        "ebant",
        -8.610445309911626
      ],
      [
        "prope",
        -8.611763332424283
      ],
      [
        "memoria",
        -8.61329839000651
      ],
      [
        "auctor",
        -8.613310094200191
      ],
      [
        "ges",
        -8.614992991899367
      ],
      [
        "aduersus",
        -8.616017047446455
      ],
      [
        "uterque",
        -8.616194785067803
      ],
      [
        "imperi",
        -8.620478162269915
      ],
      [
        "amicitia",
        -8.62484358703302
      ],
      [
        "ilium",
        -8.62513029896926
      ],
      [
        "dens",
        -8.62526787089034
      ],
      [
        "ceteri",
        -8.625448090171169
      ],
      [
        "ntibus",
        -8.627474011584479
      ],
      [
        "menti",
        -8.62891821519498
      ],
      [
        "lege",
        -8.629299704444318
      ],
      [
        "rogo",
        -8.629319416866526
      ],
      [
        "uxor",
        -8.630901073000889
      ],
      [
        "ribus",
        -8.633633902658403
      ],
      [
        "uersa",
        -8.634315700123286
      ],
      [
        "tenu",
        -8.634320708091053
      ],
      [
        "manu",
        -8.634806100412309
      ],
      [
        "nostra",
        -8.635974266421629
      ],
      [
        "credi",
        -8.636443532043629
      ],
      [
        "flu",
        -8.639944416733698
      ],
      [
        "illud",
        -8.640194533594967
      ],
      [
        "facile",
        -8.640218722793573
      ],
      [
        "aqua",
        -8.641076157797174
      ],
      [
        "metus",
        -8.644342235419273
      ],
      [
        "latus",
        -8.646329238476891
      ],
      [
        "issima",
        -8.649737872224412
      ],
      [
        "factum",
        -8.65184238060473
      ],
      [
        "ale",
        -8.66040282891138
      ],
      [
        "portet",
        -8.66177720476285
      ],
      [
        "ratione",
        -8.663048784921662
      ],
      [
        "fide",
        -8.66309102485554
      ],
      [
        "gredior",
        -8.665182405994138
      ],
      [
        "dixi",
        -8.666013280718925
      ],
      [
        "iudici",
        -8.666569010491454
      ],
      [
        "cognosco",
        -8.667069019722893
      ],
      [
        "bile",
        -8.66842420133387
      ],
      [
        "solus",
        -8.668787052786573
      ],
      [
        "animi",
        -8.66929686740551
      ],
      [
        "graui",
        -8.670027169184827
      ],
      [
        "belli",
        -8.67060470138237
      ],
      [
        "soluo",
        -8.671312486320529
      ],
      [
        "clam",
        -8.67414927103059
      ],
      [
        "certe",
        -8.676672287740345
      ],
      [
        "rentur",
        -8.67941445110954
      ],
      [
        "regnum",
        -8.681611237295668
      ],
      [
        "umque",
        -8.686167175178928
      ],
      [
        "longe",
        -8.686321946490914
      ],
      [
        "exercit",
        -8.692070693013838
      ],
      [
        "tulit",
        -8.693931788833902
      ],
      [
        "laudo",
        -8.695226015665387
      ],
      [
        "Gaius",
        -8.695600489245876
      ],
      [
        "rap",
        -8.696478750173299
      ],
      [
        "Gr",
        -8.698002455766623
      ],
      [
        "hanc",
        -8.698306587029318
      ],
      [
        "consili",
        -8.699589664243646
      ],
      [
        "utor",
        -8.700152758544263
      ],
      [
        "pond",
        -8.70083003343499
      ],
      [
        "lux",
        -8.700834391006104
      ],
      [
        "portu",
        -8.701541929430952
      ],
      [
        "publica",
        -8.702899428560325
      ],
      [
        "finis",
        -8.704779113603719
      ],
      [
        "studium",
        -8.705708916447524
      ],
      [
        "entibus",
        -8.706460146688297
      ],
      [
        "sermo",
        -8.706478212761015
      ],
      [
        "arum",
        -8.70671197560978
      ],
      [
        "sceler",
        -8.707215586029635
      ],
      [
        "rumpo",
        -8.70792200285691
      ],
      [
        "gratus",
        -8.709856808586823
      ],
      [
        "lice",
        -8.711169388276883
      ],
      [
        "patior",
        -8.713507775017078
      ],
      [
        "laus",
        -8.716569797280851
      ],
      [
        "occid",
        -8.716918295245023
      ],
      [
        "religio",
        -8.71697521322634
      ],
      [
        "inquit",
        -8.719368769457752
      ],
      [
        "fundo",
        -8.721529988646301
      ],
      [
        "Germani",
        -8.722172967060507
      ],
      [
        "signum",
        -8.725516542826526
      ],
      [
        "exit",
        -8.726346243533811
      ],
      [
        "nauis",
        -8.729916857854363
      ],
      [
        "auit",
        -8.731044222252738
      ],
      [
        "habere",
        -8.73131769223556
      ],
      [
        "circ",
        -8.733119429145354
      ],
      [
        "erent",
        -8.734452573312687
      ],
      [
        "sisto",
        -8.734594026342116
      ],
      [
        "audeo",
        -8.735901856542734
      ],
      [
        "puella",
        -8.735973673423173
      ],
      [
        "habet",
        -8.736320429729462
      ],
      [
        "hunc",
        -8.736526501582553
      ],
      [
        "llus",
        -8.737769622981936
      ],
      [
        "const",
        -8.738558708781348
      ],
      [
        "iudico",
        -8.740382653674027
      ],
      [
        "timeo",
        -8.744943723952897
      ],
      [
        "improb",
        -8.748533583530019
      ],
      [
        "Est",
        -8.74917912115879
      ],
      [
        "hae",
        -8.750124887178849
      ],
      [
        "ting",
        -8.753191542292758
      ],
      [
        "rerum",
        -8.75513673432945
      ],
      [
        "similis",
        -8.757758380855545
      ],
      [
        "uerat",
        -8.75784124069267
      ],
      [
        "uber",
        -8.75821446266967
      ],
      [
        "oppidum",
        -8.758290905023836
      ],
      [
        "ox",
        -8.760042679144501
      ],
      [
        "longus",
        -8.760460550307268
      ],
      [
        "serua",
        -8.762229834990583
      ],
      [
        "anima",
        -8.764045508124298
      ],
      [
        "Italia",
        -8.764082830607975
      ],
      [
        "necesse",
        -8.764261707509979
      ],
      [
        "qualis",
        -8.765909438813285
      ],
      [
        "opera",
        -8.766059855876335
      ],
      [
        "paen",
        -8.766205645760946
      ],
      [
        "memor",
        -8.767802353150532
      ],
      [
        "tunc",
        -8.770267996905929
      ],
      [
        "cessit",
        -8.773896795444504
      ],
      [
        "liquid",
        -8.774470654156993
      ],
      [
        "gul",
        -8.774530316866688
      ],
      [
        "fle",
        -8.774939565660796
      ],
      [
        "uall",
        -8.77664158441824
      ],
      [
        "aris",
        -8.776796891708518
      ],
      [
        "ntem",
        -8.777468503811903
      ],
      [
        "Iuppiter",
        -8.777951454322348
      ],
      [
        "lle",
        -8.77844966147905
      ],
      [
        "agit",
        -8.778966661063365
      ],
      [
        "entur",
        -8.779286466105994
      ],
      [
        "uictor",
        -8.779943889870385
      ],
      [
        "litus",
        -8.780033849863857
      ],
      [
        "assum",
        -8.782556576717793
      ],
      [
        "quorum",
        -8.784065856614752
      ],
      [
        "omne",
        -8.78407798653142
      ],
      [
        "pedi",
        -8.784439632431354
      ],
      [
        "forma",
        -8.786214500226968
      ],
      [
        "illis",
        -8.790887335228177
      ],
      [
        "ictus",
        -8.793021324443163
      ],
      [
        "malus",
        -8.797405416048388
      ],
      [
        "ingens",
        -8.797987090444307
      ],
      [
        "ram",
        -8.802728197033527
      ],
      [
        "fall",
        -8.803488064714573
      ],
      [
        "accus",
        -8.803563552245574
      ],
      [
        "molli",
        -8.8035745537126
      ],
      [
        "Pompeius",
        -8.803734886543854
      ],
      [
        "coepio",
        -8.803845952391594
      ],
      [
        "iube",
        -8.804202591110425
      ],
      [
        "Quam",
        -8.805202130959032
      ],
      [
        "cogo",
        -8.807103642092457
      ],
      [
        "uidi",
        -8.81055121643038
      ],
      [
        "Num",
        -8.811279015773867
      ],
      [
        "acta",
        -8.811490958390115
      ],
      [
        "legatus",
        -8.811969210088215
      ],
      [
        "postea",
        -8.812341645334456
      ],
      [
        "tanta",
        -8.814919116682887
      ],
      [
        "niti",
        -8.815436031867023
      ],
      [
        "prehend",
        -8.819643626193773
      ],
      [
        "praeterea",
        -8.82109468352711
      ],
      [
        "moue",
        -8.821958149926346
      ],
      [
        "acies",
        -8.822085542190072
      ],
      [
        "seruus",
        -8.823973815838496
      ],
      [
        "tract",
        -8.824324460750844
      ],
      [
        "deser",
        -8.824941396425846
      ],
      [
        "populi",
        -8.827868440262897
      ],
      [
        "Gall",
        -8.82800120101642
      ],
      [
        "ludo",
        -8.829767717471457
      ],
      [
        "leuis",
        -8.830800703328155
      ],
      [
        "The",
        -8.831212542148517
      ],
      [
        "extra",
        -8.831227940542348
      ],
      [
        "praeda",
        -8.831436357121735
      ],
      [
        "itium",
        -8.831462155130986
      ],
      [
        "arbitr",
        -8.832164202877102
      ],
      [
        "ingenium",
        -8.832599003910277
      ],
      [
        "ensis",
        -8.836291826162451
      ],
      [
        "ipso",
        -8.836384299471742
      ],
      [
        "magni",
        -8.836803988896897
      ],
      [
        "dictum",
        -8.837617636672526
      ],
      [
        "malo",
        -8.837642479355985
      ],
      [
        "cerno",
        -8.838274248496656
      ],
      [
        "homini",
        -8.839603132926676
      ],
      [
        "pax",
        -8.840321189458022
      ],
      [
        "hominum",
        -8.841729359141631
      ],
      [
        "retine",
        -8.842143268125039
      ],
      [
        "felix",
        -8.844080036694663
      ],
      [
        "abilis",
        -8.844464831890164
      ],
      [
        "numerus",
        -8.845628072883216
      ],
      [
        "quemadmodum",
        -8.846433089364275
      ],
      [
        "Uen",
        -8.846835391550034
      ],
      [
        "fau",
        -8.846979849398885
      ],
      [
        "quando",
        -8.848267754323999
      ],
      [
        "lati",
        -8.848611958160705
      ],
      [
        "disse",
        -8.848869301381043
      ],
      [
        "officium",
        -8.849077599907424
      ],
      [
        "ordo",
        -8.849773209041516
      ],
      [
        "homines",
        -8.852358742310269
      ],
      [
        "altus",
        -8.855873874602596
      ],
      [
        "acto",
        -8.857236486032942
      ],
      [
        "acri",
        -8.859215863370316
      ],
      [
        "pluri",
        -8.859662192669951
      ],
      [
        "ruo",
        -8.860978585202828
      ],
      [
        "uitium",
        -8.861741584743985
      ],
      [
        "medius",
        -8.862520676617969
      ],
      [
        "ops",
        -8.863883771678243
      ],
      [
        "proelium",
        -8.865543250959673
      ],
      [
        "unum",
        -8.865602747372504
      ],
      [
        "Cor",
        -8.869905380932904
      ],
      [
        "auctoritas",
        -8.870479170712475
      ],
      [
        "nosco",
        -8.870552309246541
      ],
      [
        "lecto",
        -8.871243139489422
      ],
      [
        "fera",
        -8.872351216344942
      ],
      [
        "defendo",
        -8.872377932122333
      ],
      [
        "mille",
        -8.873177581525528
      ],
      [
        "senatu",
        -8.87386257605369
      ],
      [
        "dedit",
        -8.874565287627064
      ],
      [
        "nescio",
        -8.875020139499956
      ],
      [
        "familia",
        -8.876583459535091
      ],
      [
        "Hoc",
        -8.878649123153387
      ],
      [
        "parens",
        -8.879223681412004
      ],
      [
        "uulg",
        -8.880097214463625
      ],
      [
        "breui",
        -8.881384664818803
      ],
      [
        "salus",
        -8.883026109079918
      ],
      [
        "intelligo",
        -8.88374105947252
      ],
      [
        "pauci",
        -8.884544863571538
      ],
      [
        "mand",
        -8.887195987568818
      ],
      [
        "luct",
        -8.887653785032382
      ],
      [
        "oratio",
        -8.88810935057596
      ],
      [
        "igne",
        -8.888135274434154
      ],
      [
        "ualeo",
        -8.890630069750813
      ],
      [
        "constit",
        -8.89236960043337
      ],
      [
        "onem",
        -8.892466527362512
      ],
      [
        "tendo",
        -8.895596333639784
      ],
      [
        "rog",
        -8.89600653154838
      ],
      [
        "sapiens",
        -8.899814069639916
      ],
      [
        "more",
        -8.900397170755912
      ],
      [
        "reipublicae",
        -8.901071085385665
      ],
      [
        "principi",
        -8.901450870596612
      ],
      [
        "ipsum",
        -8.902686963834345
      ],
      [
        "curro",
        -8.90320914691183
      ],
      [
        "bis",
        -8.904698096974922
      ],
      [
        "ordin",
        -8.90509489535476
      ],
      [
        "aurum",
        -8.905500418195949
      ],
      [
        "utrum",
        -8.907140470843323
      ],
      [
        "suum",
        -8.907247299009581
      ],
      [
        "quantus",
        -8.907567580607527
      ],
      [
        "antiqu",
        -8.907593191952241
      ],
      [
        "bili",
        -8.907977833653808
      ],
      [
        "optim",
        -8.909395791203519
      ],
      [
        "pate",
        -8.913742960950199
      ],
      [
        "surg",
        -8.915438014807098
      ],
      [
        "occul",
        -8.916055152705475
      ],
      [
        "prior",
        -8.916498905758274
      ],
      [
        "flamma",
        -8.917422115282674
      ],
      [
        "huius",
        -8.917577854232587
      ],
      [
        "lacrima",
        -8.917697781444584
      ],
      [
        "iudices",
        -8.91868520202585
      ],
      [
        "porta",
        -8.919206503333974
      ],
      [
        "Gallia",
        -8.919321280060853
      ],
      [
        "issimo",
        -8.920283001793985
      ],
      [
        "sapienti",
        -8.921306058550865
      ],
      [
        "sanguis",
        -8.921995042618292
      ],
      [
        "statim",
        -8.922716749445183
      ],
      [
        "Prae",
        -8.922745237394324
      ],
      [
        "telum",
        -8.926891479076176
      ],
      [
        "tanti",
        -8.928026730382587
      ],
      [
        "uobis",
        -8.933985278314669
      ],
      [
        "ced",
        -8.934820393660964
      ],
      [
        "Pl",
        -8.935283817109184
      ],
      [
        "fecer",
        -8.93724350478966
      ],
      [
        "recipio",
        -8.939104661857577
      ],
      [
        "praesidium",
        -8.939212654951834
      ],
      [
        "existimo",
        -8.939230331891835
      ],
      [
        "Lucius",
        -8.94026023639228
      ],
      [
        "uictoria",
        -8.944504137721248
      ],
      [
        "rix",
        -8.945610049031043
      ],
      [
        "Or",
        -8.946405753007337
      ],
      [
        "interim",
        -8.94686049606874
      ],
      [
        "socius",
        -8.947876782298582
      ],
      [
        "iudica",
        -8.948811331042918
      ],
      [
        "uoce",
        -8.949174777843155
      ],
      [
        "immo",
        -8.949452654725263
      ],
      [
        "impl",
        -8.949813069758385
      ],
      [
        "impedi",
        -8.950565371892116
      ],
      [
        "uoluptas",
        -8.950940959343743
      ],
      [
        "uelut",
        -8.953886026005701
      ],
      [
        "natio",
        -8.95536500555269
      ],
      [
        "procul",
        -8.956176231024852
      ],
      [
        "aliquando",
        -8.957377901823412
      ],
      [
        "Oc",
        -8.958487449597666
      ],
      [
        "tandem",
        -8.958991034596973
      ],
      [
        "contine",
        -8.959066043432474
      ],
      [
        "flumen",
        -8.959586112456535
      ],
      [
        "pertine",
        -8.960609033762468
      ],
      [
        "argu",
        -8.962276850386878
      ],
      [
        "nego",
        -8.964558900858318
      ],
      [
        "magno",
        -8.965006987157983
      ],
      [
        "ones",
        -8.96653884117504
      ],
      [
        "sup",
        -8.968526147581718
      ],
      [
        "inuidia",
        -8.969685615114717
      ],
      [
        "aure",
        -8.969947875506668
      ],
      [
        "nota",
        -8.970097151755915
      ],
      [
        "cursus",
        -8.972006968504616
      ],
      [
        "rursus",
        -8.973545324448693
      ],
      [
        "quare",
        -8.974181598168173
      ],
      [
        "maiores",
        -8.974710356467245
      ],
      [
        "issimum",
        -8.974828355348258
      ],
      [
        "merc",
        -8.975267743715225
      ],
      [
        "uirtute",
        -8.975538078293795
      ],
      [
        "Ru",
        -8.975746877247808
      ],
      [
        "potestas",
        -8.977783245378802
      ],
      [
        "numero",
        -8.978536681177317
      ],
      [
        "actus",
        -8.979294001601026
      ],
      [
        "facta",
        -8.980365901488181
      ],
      [
        "decim",
        -8.981654835732156
      ],
      [
        "casus",
        -8.98220646461862
      ],
      [
        "cetera",
        -8.984804183083147
      ],
      [
        "ilia",
        -8.989534339034215
      ],
      [
        "morte",
        -8.990991855234988
      ],
      [
        "Ser",
        -8.99174564507452
      ],
      [
        "eadem",
        -8.992015028538944
      ],
      [
        "Haec",
        -8.993975028491107
      ],
      [
        "propior",
        -8.994337016771562
      ],
      [
        "certa",
        -8.996241626971596
      ],
      [
        "uultus",
        -8.997741296691203
      ],
      [
        "tento",
        -8.99796893700916
      ],
      [
        "nascor",
        -8.999374859678866
      ],
      [
        "asse",
        -8.99994350191232
      ],
      [
        "aeque",
        -9.000487300471683
      ],
      [
        "ferrum",
        -9.0010772224955
      ],
      [
        "seru",
        -9.002034913873242
      ],
      [
        "bello",
        -9.002088293935326
      ],
      [
        "uelle",
        -9.002465074282458
      ],
      [
        "nobilis",
        -9.003005458853208
      ],
      [
        "lego",
        -9.003939410329886
      ],
      [
        "maneo",
        -9.003963315162999
      ],
      [
        "meo",
        -9.006352213688249
      ],
      [
        "mane",
        -9.007315953720056
      ],
      [
        "placeo",
        -9.00739746997052
      ],
      [
        "silua",
        -9.009820164852034
      ],
      [
        "Luc",
        -9.010560170235738
      ],
      [
        "rigo",
        -9.013479836841055
      ],
      [
        "uale",
        -9.013536956802264
      ],
      [
        "dignitas",
        -9.014561128988152
      ],
      [
        "missi",
        -9.014867318954082
      ],
      [
        "moles",
        -9.01594349577811
      ],
      [
        "Tiberi",
        -9.015970040808511
      ],
      [
        "cupid",
        -9.017995666398473
      ],
      [
        "auxilium",
        -9.018144736983514
      ],
      [
        "arbitror",
        -9.018403636288053
      ],
      [
        "dare",
        -9.019466203369621
      ],
      [
        "quicumque",
        -9.019991673684126
      ],
      [
        "quanto",
        -9.02072677508156
      ],
      [
        "prima",
        -9.022169505548689
      ],
      [
        "iuue",
        -9.023086990924835
      ],
      [
        "bona",
        -9.023788648280988
      ],
      [
        "iura",
        -9.024275245446724
      ],
      [
        "signa",
        -9.024292335203157
      ],
      [
        "pecu",
        -9.02493949330858
      ],
      [
        "asper",
        -9.025862905839642
      ],
      [
        "simi",
        -9.026146895345592
      ],
      [
        "quomodo",
        -9.0262389014087
      ],
      [
        "accid",
        -9.026438400935465
      ],
      [
        "ntium",
        -9.030540759364325
      ],
      [
        "motus",
        -9.030848361066488
      ],
      [
        "fen",
        -9.031054492408764
      ],
      [
        "gust",
        -9.031322581921696
      ],
      [
        "testis",
        -9.031771331922815
      ],
      [
        "pudor",
        -9.0320176200232
      ],
      [
        "defend",
        -9.033606591966752
      ],
      [
        "fieri",
        -9.035379228377028
      ],
      [
        "Marcus",
        -9.036534513453564
      ],
      [
        "crimin",
        -9.037300736724362
      ],
      [
        "muto",
        -9.038450283654178
      ],
      [
        "arti",
        -9.039198081248276
      ],
      [
        "umbra",
        -9.040977041341108
      ],
      [
        "uigil",
        -9.04102293740213
      ],
      [
        "libertas",
        -9.04172570449826
      ],
      [
        "publicus",
        -9.042911451393188
      ],
      [
        "incipi",
        -9.044629740499186
      ],
      [
        "clarus",
        -9.044757599695775
      ],
      [
        "auge",
        -9.045202554444526
      ],
      [
        "dominus",
        -9.048019925903507
      ],
      [
        "urbi",
        -9.048289231642041
      ],
      [
        "reliqui",
        -9.048864889094183
      ],
      [
        "senex",
        -9.050792134351356
      ],
      [
        "Id",
        -9.051104109261953
      ],
      [
        "nolo",
        -9.054427127344034
      ],
      [
        "alienus",
        -9.054888515381622
      ],
      [
        "aura",
        -9.055150833368996
      ],
      [
        "possit",
        -9.055550131217963
      ],
      [
        "mulier",
        -9.0582413352099
      ],
      [
        "uerus",
        -9.060230122446386
      ],
      [
        "honestus",
        -9.060321212850695
      ],
      [
        "populo",
        -9.065130829297477
      ],
      [
        "pugno",
        -9.065560088154108
      ],
      [
        "existima",
        -9.06597672905128
      ],
      [
        "affero",
        -9.067809156283394
      ],
      [
        "sint",
        -9.068996803912171
      ],
      [
        "prohibe",
        -9.06915557113943
      ],
      [
        "bella",
        -9.06924840011236
      ],
      [
        "timor",
        -9.070472274870806
      ],
      [
        "plan",
        -9.070487916655868
      ],
      [
        "formi",
        -9.071438368189881
      ],
      [
        "morior",
        -9.071896838463186
      ],
      [
        "cogito",
        -9.072166559817674
      ],
      [
        "Sicilia",
        -9.072226383527736
      ],
      [
        "probo",
        -9.072252568342993
      ],
      [
        "mira",
        -9.072270840781838
      ],
      [
        "maxime",
        -9.073571033851348
      ],
      [
        "illic",
        -9.075848180976745
      ],
      [
        "Cur",
        -9.076391124623065
      ],
      [
        "agmen",
        -9.076653010872448
      ],
      [
        "paulo",
        -9.077898571948761
      ],
      [
        "constituo",
        -9.078568695937857
      ],
      [
        "fecit",
        -9.08068763524787
      ],
      [
        "quipp",
        -9.086542090895442
      ],
      [
        "animum",
        -9.089662238202234
      ],
      [
        "nostro",
        -9.091637098465771
      ],
      [
        "tabula",
        -9.093505243309584
      ],
      [
        "clamor",
        -9.094305128327392
      ],
      [
        "mori",
        -9.09565640134462
      ],
      [
        "redeo",
        -9.097034856857437
      ],
      [
        "exemplum",
        -9.10062006338033
      ],
      [
        "soror",
        -9.100761583046147
      ],
      [
        "ilitas",
        -9.10204477794507
      ],
      [
        "Romano",
        -9.1030561798982
      ],
      [
        "celer",
        -9.10329587876518
      ],
      [
        "odium",
        -9.104343837539226
      ],
      [
        "tanto",
        -9.106151610209091
      ],
      [
        "facit",
        -9.107695933713341
      ],
      [
        "inimicus",
        -9.108416468163531
      ],
      [
        "roga",
        -9.109147437998502
      ],
      [
        "igni",
        -9.10920992897011
      ],
      [
        "Nero",
        -9.109745845578237
      ],
      [
        "familiari",
        -9.111178342277071
      ],
      [
        "Post",
        -9.11363408178102
      ],
      [
        "trado",
        -9.114748145570339
      ],
      [
        "sicut",
        -9.117525033429796
      ],
      [
        "comple",
        -9.118192328019603
      ],
      [
        "sensus",
        -9.119163067036567
      ],
      [
        "nocte",
        -9.120554583922281
      ],
      [
        "incend",
        -9.121508520418786
      ],
      [
        "intelleg",
        -9.122179236667922
      ],
      [
        "uersi",
        -9.122397615026014
      ],
      [
        "eodem",
        -9.125892018114131
      ],
      [
        "tener",
        -9.126828819266386
      ],
      [
        "hosti",
        -9.128798035878576
      ],
      [
        "offici",
        -9.131989771000926
      ],
      [
        "anni",
        -9.133527353063108
      ],
      [
        "iuuenis",
        -9.135771222131648
      ],
      [
        "capit",
        -9.13797111385733
      ],
      [
        "benefici",
        -9.138082314048866
      ],
      [
        "Pompei",
        -9.139327847890204
      ],
      [
        "ntes",
        -9.140404087060709
      ],
      [
        "custodi",
        -9.141090318379334
      ],
      [
        "Asia",
        -9.141711443476614
      ],
      [
        "pereo",
        -9.147046051684221
      ],
      [
        "femina",
        -9.147064820142427
      ],
      [
        "suspicio",
        -9.147777963921328
      ],
      [
        "iuuo",
        -9.148502839323303
      ],
      [
        "artus",
        -9.151920891694838
      ],
      [
        "nub",
        -9.152457742623739
      ],
      [
        "cub",
        -9.154099085700139
      ],
      [
        "iungo",
        -9.155294111564398
      ],
      [
        "sustine",
        -9.156356836966758
      ],
      [
        "acced",
        -9.156932587955357
      ],
      [
        "aliter",
        -9.158738686080046
      ],
      [
        "orbis",
        -9.15888940467066
      ],
      [
        "Iam",
        -9.159161531230609
      ],
      [
        "condicio",
        -9.16218810414534
      ],
      [
        "mittere",
        -9.162841295913331
      ],
      [
        "uinci",
        -9.163320488457543
      ],
      [
        "pauper",
        -9.164172177472718
      ],
      [
        "界sum",
        -9.164612796174435
      ],
      [
        "ulta",
        -9.164660448023382
      ],
      [
        "memini",
        -9.165364057320446
      ],
      [
        "missa",
        -9.16834632190273
      ],
      [
        "luce",
        -9.168442040779524
      ],
      [
        "iaceo",
        -9.169931230603304
      ],
      [
        "arbor",
        -9.170782156933523
      ],
      [
        "hodie",
        -9.171052950130562
      ],
      [
        "nata",
        -9.17115949704666
      ],
      [
        "Ips",
        -9.174013272214165
      ],
      [
        "ueho",
        -9.17413180380963
      ],
      [
        "imit",
        -9.176708746754802
      ],
      [
        "occupa",
        -9.177198872107539
      ],
      [
        "miror",
        -9.178441654127479
      ],
      [
        "armis",
        -9.179212358139996
      ],
      [
        "cado",
        -9.182234717828706
      ],
      [
        "minor",
        -9.183268158807113
      ],
      [
        "tristis",
        -9.183853872402354
      ],
      [
        "proba",
        -9.183985503612217
      ],
      [
        "ciuitate",
        -9.184873914202115
      ],
      [
        "noua",
        -9.187672328241867
      ],
      [
        "Antonius",
        -9.190191053288679
      ],
      [
        "tuler",
        -9.195804262499259
      ],
      [
        "aestu",
        -9.196161919061899
      ],
      [
        "doceo",
        -9.197000566918181
      ],
      [
        "loca",
        -9.198182769598091
      ],
      [
        "paucus",
        -9.199975307599257
      ],
      [
        "praesto",
        -9.201261572621895
      ],
      [
        "contemn",
        -9.201951793768252
      ],
      [
        "cunctus",
        -9.203220212407988
      ],
      [
        "erint",
        -9.203310266548293
      ],
      [
        "supra",
        -9.203557857761524
      ],
      [
        "specto",
        -9.205249758239914
      ],
      [
        "issime",
        -9.205271061504302
      ],
      [
        "appello",
        -9.20555731373777
      ],
      [
        "medium",
        -9.206175440124085
      ],
      [
        "moneo",
        -9.20624638368874
      ],
      [
        "eripio",
        -9.20645180092573
      ],
      [
        "undo",
        -9.207057084627053
      ],
      [
        "cuncta",
        -9.20774341497783
      ],
      [
        "uerba",
        -9.20913527353489
      ],
      [
        "primi",
        -9.210441037334467
      ],
      [
        "Omni",
        -9.210758507518875
      ],
      [
        "loqu",
        -9.211594960509988
      ],
      [
        "uulnus",
        -9.213376285471577
      ],
      [
        "templum",
        -9.21343662629158
      ],
      [
        "longi",
        -9.213691143372392
      ],
      [
        "fatum",
        -9.214467505615904
      ],
      [
        "Publius",
        -9.21507627440028
      ],
      [
        "furor",
        -9.215739595359228
      ],
      [
        "disce",
        -9.216284626419007
      ],
      [
        "ualid",
        -9.218765537695809
      ],
      [
        "aliud",
        -9.219049817737034
      ],
      [
        "compar",
        -9.219259070025872
      ],
      [
        "haben",
        -9.223076609642323
      ],
      [
        "laetus",
        -9.223275890388198
      ],
      [
        "Africa",
        -9.223652774849464
      ],
      [
        "gaude",
        -9.22391100233152
      ],
      [
        "precor",
        -9.224524524498376
      ],
      [
        "tribunus",
        -9.22783090464938
      ],
      [
        "uoluntas",
        -9.228850845605816
      ],
      [
        "multitudo",
        -9.232366429798201
      ],
      [
        "horre",
        -9.233085486966154
      ],
      [
        "occurr",
        -9.233993630170726
      ],
      [
        "testimoni",
        -9.234042360154632
      ],
      [
        "dubito",
        -9.234080700328269
      ],
      [
        "spatium",
        -9.23501461173982
      ],
      [
        "crudeli",
        -9.23581706011166
      ],
      [
        "lata",
        -9.236178661816899
      ],
      [
        "lumen",
        -9.236345362363497
      ],
      [
        "consulatu",
        -9.237345895267628
      ],
      [
        "proxim",
        -9.237790339282753
      ],
      [
        "Rh",
        -9.240912293876764
      ],
      [
        "cohors",
        -9.241041264913534
      ],
      [
        "scientia",
        -9.242393589250236
      ],
      [
        "gran",
        -9.243138981289679
      ],
      [
        "nega",
        -9.24470071397597
      ],
      [
        "stult",
        -9.244935153865676
      ],
      [
        "z",
        -9.246301652484071
      ],
      [
        "misceo",
        -9.248108520529573
      ],
      [
        "ostendo",
        -9.250155912835806
      ],
      [
        "appar",
        -9.250498638468896
      ],
      [
        "Macedon",
        -9.251621332553501
      ],
      [
        "subito",
        -9.252402722708723
      ],
      [
        "modum",
        -9.252488589609536
      ],
      [
        "iure",
        -9.25253932409981
      ],
      [
        "quotiens",
        -9.253503865856423
      ],
      [
        "certo",
        -9.256144755487995
      ],
      [
        "equitatu",
        -9.256306749860858
      ],
      [
        "nomine",
        -9.257456727704916
      ],
      [
        "trepid",
        -9.258376553898682
      ],
      [
        "Inter",
        -9.2602934231336
      ],
      [
        "Cer",
        -9.261664376878938
      ],
      [
        "continu",
        -9.26327769477714
      ],
      [
        "rege",
        -9.264030990475103
      ],
      [
        "humanus",
        -9.26446453778044
      ],
      [
        "obsid",
        -9.264493312045392
      ],
      [
        "hora",
        -9.264969385529486
      ],
      [
        "Cal",
        -9.265471271326053
      ],
      [
        "periculo",
        -9.265957180503548
      ],
      [
        "caedes",
        -9.266336921767374
      ],
      [
        "senator",
        -9.268150844842308
      ],
      [
        "filia",
        -9.269881865669547
      ],
      [
        "leni",
        -9.271869543624849
      ],
      [
        "olim",
        -9.272027602475411
      ],
      [
        "eligo",
        -9.273740013778209
      ],
      [
        "doct",
        -9.274744803792462
      ],
      [
        "Scipio",
        -9.274904111105261
      ],
      [
        "orior",
        -9.275079881795216
      ],
      [
        "Alexand",
        -9.275334036887093
      ],
      [
        "potens",
        -9.279305185911483
      ],
      [
        "tueor",
        -9.280751626250355
      ],
      [
        "exspecto",
        -9.283149640055901
      ],
      [
        "classis",
        -9.284119733131373
      ],
      [
        "uenire",
        -9.284311015413033
      ],
      [
        "pretium",
        -9.285868742796843
      ],
      [
        "stip",
        -9.286149728949393
      ],
      [
        "cogita",
        -9.286596697279503
      ],
      [
        "pariter",
        -9.287278235472385
      ],
      [
        "animal",
        -9.287352811120218
      ],
      [
        "otium",
        -9.28866845599718
      ],
      [
        "domum",
        -9.288869438158713
      ],
      [
        "domo",
        -9.290785949727729
      ],
      [
        "reliquus",
        -9.291355265628123
      ],
      [
        "dole",
        -9.29138113454167
      ],
      [
        "incid",
        -9.293874261460665
      ],
      [
        "uinum",
        -9.297378115784959
      ],
      [
        "frumentum",
        -9.298177569112829
      ],
      [
        "tionis",
        -9.299761177976038
      ],
      [
        "ultus",
        -9.301106385072076
      ],
      [
        "enses",
        -9.30319976482414
      ],
      [
        "nauig",
        -9.303211067794972
      ],
      [
        "opto",
        -9.305566151387048
      ],
      [
        "ample",
        -9.305662453976769
      ],
      [
        "queror",
        -9.305997290928573
      ],
      [
        "quadr",
        -9.306268581443632
      ],
      [
        "carmen",
        -9.307366029057526
      ],
      [
        "culpa",
        -9.308757303898991
      ],
      [
        "domina",
        -9.308971213897077
      ],
      [
        "asti",
        -9.309682433580239
      ],
      [
        "iucund",
        -9.310130635288619
      ],
      [
        "aufero",
        -9.311861699649818
      ],
      [
        "rapio",
        -9.312564500696155
      ],
      [
        "tela",
        -9.313109602538667
      ],
      [
        "frang",
        -9.315695169651121
      ],
      [
        "posteri",
        -9.315873709974923
      ],
      [
        "pedes",
        -9.316876237164912
      ],
      [
        "contio",
        -9.317073911218863
      ],
      [
        "Graeci",
        -9.317503277414131
      ],
      [
        "disco",
        -9.319182925902636
      ],
      [
        "restitu",
        -9.321861784003904
      ],
      [
        "terreo",
        -9.322318289805214
      ],
      [
        "aequor",
        -9.323427308019165
      ],
      [
        "cedere",
        -9.324964801592426
      ],
      [
        "habeb",
        -9.325715884420184
      ],
      [
        "capti",
        -9.326557393589404
      ],
      [
        "yri",
        -9.326716059060356
      ],
      [
        "singulus",
        -9.327054412548904
      ],
      [
        "Ego",
        -9.32888574038842
      ],
      [
        "ertim",
        -9.328985140717341
      ],
      [
        "plures",
        -9.331390574016378
      ],
      [
        "premo",
        -9.3319431000895
      ],
      [
        "opta",
        -9.332823028470058
      ],
      [
        "ampli",
        -9.333183027390552
      ],
      [
        "muta",
        -9.33371348963368
      ],
      [
        "tende",
        -9.334352909989462
      ],
      [
        "triumph",
        -9.336622259387301
      ],
      [
        "accusator",
        -9.337156160294214
      ],
      [
        "spons",
        -9.338298361727052
      ],
      [
        "species",
        -9.339988798498618
      ],
      [
        "semel",
        -9.340511477036607
      ],
      [
        "senectu",
        -9.34155864154114
      ],
      [
        "opinio",
        -9.343590473795121
      ],
      [
        "supplic",
        -9.346041851331407
      ],
      [
        "ruct",
        -9.347363211910713
      ],
      [
        "place",
        -9.352575753808622
      ],
      [
        "insidia",
        -9.352899900476453
      ],
      [
        "durus",
        -9.353055207438018
      ],
      [
        "didit",
        -9.353763788970895
      ],
      [
        "facinus",
        -9.353923230548506
      ],
      [
        "egregi",
        -9.354450004777906
      ],
      [
        "contend",
        -9.355255981212963
      ],
      [
        "impero",
        -9.355551642022856
      ],
      [
        "philosoph",
        -9.356077154620404
      ],
      [
        "fortass",
        -9.356741011105411
      ],
      [
        "posco",
        -9.357225922540598
      ],
      [
        "exerce",
        -9.359500748533788
      ],
      [
        "lecta",
        -9.359685776379585
      ],
      [
        "palam",
        -9.36102167670304
      ],
      [
        "stern",
        -9.361630052514798
      ],
      [
        "sacra",
        -9.364045626725517
      ],
      [
        "mala",
        -9.365361130910781
      ],
      [
        "barba",
        -9.365621498254345
      ],
      [
        "lingua",
        -9.365962137231389
      ],
      [
        "utilis",
        -9.366461511352473
      ],
      [
        "legati",
        -9.367816741421612
      ],
      [
        "tellus",
        -9.368243748780127
      ],
      [
        "Troia",
        -9.368618518317021
      ],
      [
        "Q",
        -9.371134882542444
      ],
      [
        "nitor",
        -9.371763408400255
      ],
      [
        "sanguine",
        -9.372031465016898
      ],
      [
        "dulci",
        -9.372269076153277
      ],
      [
        "lecti",
        -9.372658511969215
      ],
      [
        "dicta",
        -9.373383440336445
      ],
      [
        "magistratus",
        -9.373941803285106
      ],
      [
        "uestra",
        -9.37397316844789
      ],
      [
        "cornu",
        -9.374731547344226
      ],
      [
        "nomina",
        -9.375496651668323
      ],
      [
        "ciuitati",
        -9.376067399725503
      ],
      [
        "nati",
        -9.37739584743892
      ],
      [
        "corpore",
        -9.378189139372385
      ],
      [
        "erga",
        -9.378214156884173
      ],
      [
        "singula",
        -9.386990983244278
      ],
      [
        "nullo",
        -9.387850548189162
      ],
      [
        "scripti",
        -9.390083161023387
      ],
      [
        "centurio",
        -9.390283965084347
      ],
      [
        "pall",
        -9.39030860248641
      ],
      [
        "Cato",
        -9.39215241021564
      ],
      [
        "censeo",
        -9.395069212824655
      ],
      [
        "plenus",
        -9.396719957676618
      ],
      [
        "Lati",
        -9.397200092812295
      ],
      [
        "gesta",
        -9.397508204637244
      ],
      [
        "foedus",
        -9.39825603437269
      ],
      [
        "Nunc",
        -9.400043917187297
      ],
      [
        "mento",
        -9.400868214352046
      ],
      [
        "icta",
        -9.401213563912773
      ],
      [
        "postulo",
        -9.402408446554222
      ],
      [
        "flagit",
        -9.4028852306763
      ],
      [
        "rempublicam",
        -9.404475284376995
      ],
      [
        "ultro",
        -9.405668921413273
      ],
      [
        "herba",
        -9.40860332045835
      ],
      [
        "adolescen",
        -9.4086400593757
      ],
      [
        "interficio",
        -9.408903460757594
      ],
      [
        "urge",
        -9.409319541369399
      ],
      [
        "actio",
        -9.41024136754907
      ],
      [
        "ciuili",
        -9.412987957529701
      ],
      [
        "uerber",
        -9.413323819453293
      ],
      [
        "empta",
        -9.414076419591689
      ],
      [
        "ultra",
        -9.415153537577348
      ],
      [
        "bland",
        -9.41599260128957
      ],
      [
        "humani",
        -9.418600232563994
      ],
      [
        "Piso",
        -9.419965378509996
      ],
      [
        "materia",
        -9.420827757400446
      ],
      [
        "nuper",
        -9.420858350930539
      ],
      [
        "nulli",
        -9.421584397460453
      ],
      [
        "arce",
        -9.422180530651541
      ],
      [
        "recte",
        -9.423157127555584
      ],
      [
        "cupi",
        -9.423252339780857
      ],
      [
        "supplicium",
        -9.425571184200397
      ],
      [
        "impera",
        -9.426134873571993
      ],
      [
        "proficiscor",
        -9.42731788298186
      ],
      [
        "toler",
        -9.430555821609364
      ],
      [
        "uulner",
        -9.433749919807905
      ],
      [
        "bono",
        -9.433876607077327
      ],
      [
        "Domiti",
        -9.435883570882048
      ],
      [
        "plebs",
        -9.435944191199935
      ],
      [
        "facilis",
        -9.44457933340398
      ],
      [
        "castris",
        -9.444629228104832
      ],
      [
        "priuatus",
        -9.446401207751753
      ],
      [
        "sidera",
        -9.446668425136966
      ],
      [
        "saxum",
        -9.448987210280551
      ],
      [
        "positum",
        -9.449682678872847
      ],
      [
        "repente",
        -9.452441708872257
      ],
      [
        "praesens",
        -9.452833242836773
      ],
      [
        "eicio",
        -9.45309751209169
      ],
      [
        "reperio",
        -9.45591267734122
      ],
      [
        "Fl",
        -9.457019763659442
      ],
      [
        "praemium",
        -9.457499332514562
      ],
      [
        "potentia",
        -9.458042314377579
      ],
      [
        "mitte",
        -9.458081397870586
      ],
      [
        "accipi",
        -9.459335251786143
      ],
      [
        "misit",
        -9.4610103031733
      ],
      [
        "spice",
        -9.461185653151997
      ],
      [
        "argentum",
        -9.46176714476143
      ],
      [
        "libido",
        -9.462291272731736
      ],
      [
        "uenisse",
        -9.462684395882935
      ],
      [
        "Sol",
        -9.462723392137573
      ],
      [
        "magnitudo",
        -9.463994035758319
      ],
      [
        "tertius",
        -9.466730578847809
      ],
      [
        "praeclar",
        -9.467222475337298
      ],
      [
        "turpi",
        -9.468482657421193
      ],
      [
        "profecto",
        -9.470547169816044
      ],
      [
        "nato",
        -9.47085509214122
      ],
      [
        "signo",
        -9.473632800391037
      ],
      [
        "genu",
        -9.480720728163337
      ],
      [
        "habitu",
        -9.484615030938393
      ],
      [
        "coniux",
        -9.486144204777235
      ],
      [
        "impono",
        -9.486828372615118
      ],
      [
        "arator",
        -9.487263537420986
      ],
      [
        "moenia",
        -9.488428076343123
      ],
      [
        "stare",
        -9.488667321471954
      ],
      [
        "tacit",
        -9.489563955646311
      ],
      [
        "auaritia",
        -9.490626111832
      ],
      [
        "adulescen",
        -9.495105113253327
      ],
      [
        "transeo",
        -9.496225553270273
      ],
      [
        "differ",
        -9.497078655938292
      ],
      [
        "numen",
        -9.498504157905781
      ],
      [
        "dubita",
        -9.49886084845564
      ],
      [
        "fateor",
        -9.499724087257846
      ],
      [
        "frustra",
        -9.500160716892427
      ],
      [
        "Hercule",
        -9.506466221620242
      ],
      [
        "moror",
        -9.507706723257932
      ],
      [
        "spiritu",
        -9.508779080413976
      ],
      [
        "cida",
        -9.509851562879081
      ],
      [
        "exigu",
        -9.514399465548516
      ],
      [
        "negoti",
        -9.51661284806168
      ],
      [
        "notus",
        -9.51729126256792
      ],
      [
        "dextera",
        -9.518378202114004
      ],
      [
        "speci",
        -9.52064176319902
      ],
      [
        "ectis",
        -9.520903931021698
      ],
      [
        "principe",
        -9.52259520238324
      ],
      [
        "uult",
        -9.522865042468823
      ],
      [
        "somnus",
        -9.523207416209763
      ],
      [
        "auxili",
        -9.523637461569475
      ],
      [
        "tionibus",
        -9.524787725844448
      ],
      [
        "gressus",
        -9.527391739188069
      ],
      [
        "rudi",
        -9.529564813133796
      ],
      [
        "pernici",
        -9.529874499839167
      ],
      [
        "studio",
        -9.531205610808271
      ],
      [
        "frons",
        -9.531976312360845
      ],
      [
        "campus",
        -9.53435692152754
      ],
      [
        "cupiditas",
        -9.53445519425307
      ],
      [
        "hiem",
        -9.53458658883525
      ],
      [
        "apta",
        -9.535716581466538
      ],
      [
        "exigo",
        -9.53710418954206
      ],
      [
        "Uol",
        -9.539731865502132
      ],
      [
        "Catilina",
        -9.543722706914401
      ],
      [
        "positi",
        -9.545358362313952
      ],
      [
        "defensio",
        -9.546122625267516
      ],
      [
        "saeuus",
        -9.546264963478873
      ],
      [
        "oculos",
        -9.546465672006846
      ],
      [
        "tectum",
        -9.549149106119927
      ],
      [
        "condemn",
        -9.549457395569679
      ],
      [
        "Iuli",
        -9.551582666265002
      ],
      [
        "aduentu",
        -9.551642018432487
      ],
      [
        "cidit",
        -9.552776246967767
      ],
      [
        "auctoritate",
        -9.553765840520123
      ],
      [
        "commodum",
        -9.555036674646825
      ],
      [
        "maxima",
        -9.555656530568085
      ],
      [
        "occupo",
        -9.555658022313349
      ],
      [
        "Gnaeu",
        -9.555669917873729
      ],
      [
        "festi",
        -9.560666848537423
      ],
      [
        "larg",
        -9.56147545261128
      ],
      [
        "magnum",
        -9.56326213834649
      ],
      [
        "oppugn",
        -9.563804167400978
      ],
      [
        "appella",
        -9.565337806849717
      ],
      [
        "ripa",
        -9.566610367840635
      ],
      [
        "Nihil",
        -9.567733951141983
      ],
      [
        "milites",
        -9.568022428570288
      ],
      [
        "heu",
        -9.569832864624967
      ],
      [
        "iugum",
        -9.570606145785199
      ],
      [
        "porro",
        -9.571734210460967
      ],
      [
        "digna",
        -9.574190846662423
      ],
      [
        "conspectu",
        -9.574370352595981
      ],
      [
        "gredi",
        -9.574410462436926
      ],
      [
        "porto",
        -9.574601266290761
      ],
      [
        "frequent",
        -9.577585098834398
      ],
      [
        "ambitio",
        -9.579137894898775
      ],
      [
        "Quirite",
        -9.580086799516998
      ],
      [
        "ponere",
        -9.580348517348106
      ],
      [
        "dixer",
        -9.581822032909827
      ],
      [
        "Esse",
        -9.58477206919747
      ],
      [
        "insula",
        -9.585055727667424
      ],
      [
        "consuetudo",
        -9.587365850956232
      ],
      [
        "Quem",
        -9.587380471123925
      ],
      [
        "decem",
        -9.587697930430405
      ],
      [
        "consist",
        -9.58955224572453
      ],
      [
        "figo",
        -9.589659766053831
      ],
      [
        "nocens",
        -9.59063560429368
      ],
      [
        "fecisse",
        -9.592369506207984
      ],
      [
        "Lib",
        -9.592619882103431
      ],
      [
        "lentus",
        -9.593727820277188
      ],
      [
        "Bel",
        -9.594648875649863
      ],
      [
        "uirgo",
        -9.597147965028945
      ],
      [
        "Quintus",
        -9.597518884753041
      ],
      [
        "ecce",
        -9.598129564266463
      ],
      [
        "flore",
        -9.602325455258887
      ],
      [
        "secundus",
        -9.603361758128381
      ],
      [
        "opprim",
        -9.605092489617814
      ],
      [
        "integer",
        -9.607505148617772
      ],
      [
        "oculis",
        -9.610627860109407
      ],
      [
        "ungu",
        -9.611771899984621
      ],
      [
        "descend",
        -9.613025875796119
      ],
      [
        "tendit",
        -9.614072545371698
      ],
      [
        "honesta",
        -9.61535410462433
      ],
      [
        "agro",
        -9.61981180865466
      ],
      [
        "barbarus",
        -9.620880965131178
      ],
      [
        "constantia",
        -9.622737038509047
      ],
      [
        "aspicio",
        -9.622918254663517
      ],
      [
        "agri",
        -9.62415418881616
      ],
      [
        "longa",
        -9.62529250540473
      ],
      [
        "consid",
        -9.625788002040224
      ],
      [
        "contentus",
        -9.627853378036836
      ],
      [
        "recens",
        -9.628262641580646
      ],
      [
        "Cassi",
        -9.628360948901465
      ],
      [
        "flumin",
        -9.630220224830584
      ],
      [
        "obici",
        -9.630581422847815
      ],
      [
        "censu",
        -9.632346592842653
      ],
      [
        "irasc",
        -9.636539723082663
      ],
      [
        "contumelia",
        -9.638204364354282
      ],
      [
        "custos",
        -9.639032541729804
      ],
      [
        "pulcher",
        -9.640237658930012
      ],
      [
        "adhibe",
        -9.643482665701018
      ],
      [
        "passu",
        -9.643924897313077
      ],
      [
        "diligentia",
        -9.646058950057547
      ],
      [
        "mundus",
        -9.657761076576246
      ],
      [
        "muner",
        -9.663877464030602
      ],
      [
        "Pha",
        -9.664524448824354
      ],
      [
        "quaestor",
        -9.664561525566873
      ],
      [
        "Otho",
        -9.664748199187503
      ],
      [
        "numera",
        -9.664871865488731
      ],
      [
        "melior",
        -9.667236583577345
      ],
      [
        "medio",
        -9.66845914887038
      ],
      [
        "tergum",
        -9.668502210670017
      ],
      [
        "adulter",
        -9.670001745580034
      ],
      [
        "cognosc",
        -9.670542274236372
      ],
      [
        "munitio",
        -9.672250094538766
      ],
      [
        "contingo",
        -9.67303664847866
      ],
      [
        "uitelli",
        -9.67309949124905
      ],
      [
        "tulisse",
        -9.673726178828158
      ],
      [
        "uideri",
        -9.677137711445663
      ],
      [
        "publice",
        -9.678103040176463
      ],
      [
        "regna",
        -9.679095871013356
      ],
      [
        "noceo",
        -9.681332949214154
      ],
      [
        "securi",
        -9.682306098861675
      ],
      [
        "benign",
        -9.683572095144454
      ],
      [
        "sacerdo",
        -9.684024789235902
      ],
      [
        "Syracus",
        -9.686276004604853
      ],
      [
        "membrum",
        -9.686278008708715
      ],
      [
        "seditio",
        -9.686357672462186
      ],
      [
        "Antoni",
        -9.688354061846812
      ],
      [
        "celeriter",
        -9.689990846262955
      ],
      [
        "cresco",
        -9.69099531724067
      ],
      [
        "ponit",
        -9.692595924754414
      ],
      [
        "haereo",
        -9.695297433940208
      ],
      [
        "incolumi",
        -9.695573069902583
      ],
      [
        "uetera",
        -9.69617601736923
      ],
      [
        "Augustu",
        -9.703025118289393
      ],
      [
        "Britanni",
        -9.705614004378184
      ],
      [
        "fingo",
        -9.706412244970913
      ],
      [
        "ignosc",
        -9.713517394429996
      ],
      [
        "cotidie",
        -9.71402239836261
      ],
      [
        "felicita",
        -9.71683529308854
      ],
      [
        "gaudium",
        -9.717083574320794
      ],
      [
        "media",
        -9.717853663258488
      ],
      [
        "fluctus",
        -9.719866243912975
      ],
      [
        "habui",
        -9.720911168501399
      ],
      [
        "expedit",
        -9.72149639874523
      ],
      [
        "ueneri",
        -9.721587673199302
      ],
      [
        "perfect",
        -9.729036801156699
      ],
      [
        "superior",
        -9.729076765736721
      ],
      [
        "Phil",
        -9.729317695503276
      ],
      [
        "pietas",
        -9.731169762323809
      ],
      [
        "aptus",
        -9.731742905678662
      ],
      [
        "morbus",
        -9.732669610270793
      ],
      [
        "colonia",
        -9.734162007165477
      ],
      [
        "tango",
        -9.734229774412913
      ],
      [
        "conficio",
        -9.735093405545662
      ],
      [
        "sagitta",
        -9.7364597230304
      ],
      [
        "diligenter",
        -9.739659372383253
      ],
      [
        "prudentia",
        -9.739659536496475
      ],
      [
        "commend",
        -9.742080407557474
      ],
      [
        "uehe",
        -9.742184052360045
      ],
      [
        "uehementer",
        -9.74255047374061
      ],
      [
        "potestate",
        -9.743857344153941
      ],
      [
        "crebr",
        -9.748295429498942
      ],
      [
        "manifest",
        -9.74835876233384
      ],
      [
        "tempestas",
        -9.751271519820982
      ],
      [
        "paul",
        -9.751997717918085
      ],
      [
        "beatus",
        -9.752584209929472
      ],
      [
        "mitta",
        -9.753000559013778
      ],
      [
        "uirtuti",
        -9.753739730347643
      ],
      [
        "legiones",
        -9.755467814802989
      ],
      [
        "experior",
        -9.757209192895967
      ],
      [
        "falsus",
        -9.7572161773958
      ],
      [
        "coepit",
        -9.760077570167674
      ],
      [
        "libenter",
        -9.760085332078017
      ],
      [
        "militia",
        -9.761776746667262
      ],
      [
        "futurum",
        -9.76331019398299
      ],
      [
        "equites",
        -9.763348217722296
      ],
      [
        "demonstr",
        -9.763707314504524
      ],
      [
        "ponte",
        -9.765231586383297
      ],
      [
        "itiner",
        -9.768879096703799
      ],
      [
        "necessarius",
        -9.76895524274292
      ],
      [
        "impetr",
        -9.769178881960558
      ],
      [
        "Uitelliu",
        -9.77192101809348
      ],
      [
        "municip",
        -9.774909534151593
      ],
      [
        "amplu",
        -9.775881435431293
      ],
      [
        "trahe",
        -9.777634775969666
      ],
      [
        "possessio",
        -9.778288465530363
      ],
      [
        "quaestio",
        -9.780263858901643
      ],
      [
        "itudinem",
        -9.78191214445183
      ],
      [
        "corona",
        -9.782326258410917
      ],
      [
        "posterus",
        -9.784769681210935
      ],
      [
        "quanta",
        -9.787879332615063
      ],
      [
        "modera",
        -9.791624285193452
      ],
      [
        "animaduert",
        -9.79305935860327
      ],
      [
        "ciuium",
        -9.793168198063498
      ],
      [
        "aether",
        -9.793321791931453
      ],
      [
        "fatig",
        -9.79620028118995
      ],
      [
        "melius",
        -9.796900704834663
      ],
      [
        "cogitatio",
        -9.798291531835007
      ],
      [
        "clari",
        -9.798973554772457
      ],
      [
        "uestri",
        -9.800140641807207
      ],
      [
        "sestertiu",
        -9.800338975984872
      ],
      [
        "praeceps",
        -9.80218476139623
      ],
      [
        "Fortuna",
        -9.802189489077485
      ],
      [
        "effugi",
        -9.802379789533859
      ],
      [
        "protinus",
        -9.802799485955646
      ],
      [
        "necessitas",
        -9.80836746629392
      ],
      [
        "paulatim",
        -9.817689816838609
      ],
      [
        "nudus",
        -9.817798644196678
      ],
      [
        "litate",
        -9.823857716033642
      ],
      [
        "responde",
        -9.824032558852803
      ],
      [
        "fulge",
        -9.824930128592953
      ],
      [
        "otiens",
        -9.828493574647375
      ],
      [
        "ego界cum",
        -9.830232610406824
      ],
      [
        "Syria",
        -9.830391496756631
      ],
      [
        "Iuno",
        -9.833410193815975
      ],
      [
        "pulchr",
        -9.833427819337292
      ],
      [
        "impetu",
        -9.83396673082584
      ],
      [
        "praecipit",
        -9.836561661589306
      ],
      [
        "界",
        -9.839120455958241
      ],
      [
        "Iugurtha",
        -9.839742747232737
      ],
      [
        "eloquentia",
        -9.842966682226447
      ],
      [
        "dignitate",
        -9.842980631859916
      ],
      [
        "offend",
        -9.843058331519966
      ],
      [
        "iustitia",
        -9.84937041954751
      ],
      [
        "sanctus",
        -9.849414957383086
      ],
      [
        "ruina",
        -9.852441647406565
      ],
      [
        "Erg",
        -9.853404670090125
      ],
      [
        "fratre",
        -9.855154853799451
      ],
      [
        "societas",
        -9.855820555939031
      ],
      [
        "preca",
        -9.858473944147
      ],
      [
        "luxuria",
        -9.859121360337587
      ],
      [
        "uenenum",
        -9.859760176979318
      ],
      [
        "perturb",
        -9.860181899331705
      ],
      [
        "disciplina",
        -9.8623244099655
      ],
      [
        "Capitoli",
        -9.86559230743729
      ],
      [
        "minister",
        -9.867947477250882
      ],
      [
        "Brutus",
        -9.868879766891283
      ],
      [
        "Mihi",
        -9.86949611372155
      ],
      [
        "licentia",
        -9.872647263020024
      ],
      [
        "occasio",
        -9.875487931292568
      ],
      [
        "Sylla",
        -9.878780720442963
      ],
      [
        "ssimum",
        -9.880949539401684
      ],
      [
        "pretio",
        -9.882290349852251
      ],
      [
        "confid",
        -9.883350107454051
      ],
      [
        "scribe",
        -9.885452237796864
      ],
      [
        "tu界cum",
        -9.885459458993711
      ],
      [
        "indulge",
        -9.885521991202115
      ],
      [
        "immani",
        -9.890667678888516
      ],
      [
        "ullo",
        -9.891368976193743
      ],
      [
        "comiti",
        -9.89221564832068
      ],
      [
        "illuc",
        -9.892220327634138
      ],
      [
        "fessus",
        -9.892245678353296
      ],
      [
        "contentio",
        -9.89579389174196
      ],
      [
        "uectigal",
        -9.89887325151602
      ],
      [
        "sui界cum",
        -9.898882209741625
      ],
      [
        "sordid",
        -9.899789102334882
      ],
      [
        "fraud",
        -9.89984440148816
      ],
      [
        "aliena",
        -9.901186578571583
      ],
      [
        "Saturn",
        -9.906318178091055
      ],
      [
        "misericordia",
        -9.90907747575303
      ],
      [
        "Hispania",
        -9.909077512123153
      ],
      [
        "Caecina",
        -9.912502875492077
      ],
      [
        "Corneli",
        -9.912556262103301
      ],
      [
        "penitus",
        -9.912706922850676
      ],
      [
        "iuuentu",
        -9.916967238407935
      ],
      [
        "disput",
        -9.918367914297209
      ],
      [
        "proelio",
        -9.920739219961153
      ],
      [
        "desidero",
        -9.922854868195605
      ],
      [
        "fiducia",
        -9.922987273842573
      ],
      [
        "accend",
        -9.927275517477334
      ],
      [
        "diuitiae",
        -9.929810547096697
      ],
      [
        "praefectus",
        -9.933336217287128
      ],
      [
        "humana",
        -9.933422302058837
      ],
      [
        "aestima",
        -9.935411230702123
      ],
      [
        "clementia",
        -9.93681610223078
      ],
      [
        "Oppianic",
        -9.94032992018538
      ],
      [
        "frequens",
        -9.940332487700486
      ],
      [
        "ualetud",
        -9.945287312003497
      ],
      [
        "ecundum",
        -9.954986590961127
      ],
      [
        "epistola",
        -9.958124285975135
      ],
      [
        "facultas",
        -9.958171009895
      ],
      [
        "auspic",
        -9.960536369419167
      ],
      [
        "Philipp",
        -9.961731164234902
      ],
      [
        "honesti",
        -9.964124016500367
      ],
      [
        "Dareu",
        -9.965180955494457
      ],
      [
        "Phryg",
        -9.965331196227575
      ],
      [
        "membra",
        -9.965333478456362
      ],
      [
        "possideo",
        -9.965456525021091
      ],
      [
        "Thra",
        -9.965545448620981
      ],
      [
        "honestum",
        -9.972628318899783
      ],
      [
        "uoluntate",
        -9.972807594585436
      ],
      [
        "Galba",
        -9.97624232239983
      ],
      [
        "rustic",
        -9.980244059148163
      ],
      [
        "explor",
        -9.980710842270584
      ],
      [
        "iniquus",
        -9.983622495661301
      ],
      [
        "exsul",
        -9.985641836227838
      ],
      [
        "Apollo",
        -9.987281406686828
      ],
      [
        "mehercule",
        -9.988491284454998
      ],
      [
        "Phoebus",
        -9.990974122212357
      ],
      [
        "suffrag",
        -9.994691045671727
      ],
      [
        "Chrys",
        -9.998423469449413
      ],
      [
        "libertate",
        -10.001327783704252
      ],
      [
        "gladiator",
        -10.00592741603149
      ],
      [
        "industria",
        -10.00593388072324
      ],
      [
        "commune",
        -10.005968799199657
      ],
      [
        "neminem",
        -10.005971865330448
      ],
      [
        "instituo",
        -10.00970434637168
      ],
      [
        "laetitia",
        -10.009707435243566
      ],
      [
        "suffici",
        -10.009741607965992
      ],
      [
        "ignarus",
        -10.013489925543915
      ],
      [
        "silentium",
        -10.013511671952962
      ],
      [
        "fastidi",
        -10.013550629324317
      ],
      [
        "spargo",
        -10.013701066597058
      ],
      [
        "prudens",
        -10.017317948264232
      ],
      [
        "monumentum",
        -10.021116562717598
      ],
      [
        "flagr",
        -10.022958556255418
      ],
      [
        "ullum",
        -10.023507920110305
      ],
      [
        "hercules",
        -10.023672445142331
      ],
      [
        "hospiti",
        -10.025416357130684
      ],
      [
        "tranquill",
        -10.028794010870493
      ],
      [
        "Rosciu",
        -10.028853443856061
      ],
      [
        "bellu",
        -10.03262265247233
      ],
      [
        "indicium",
        -10.032772202764972
      ],
      [
        "mortale",
        -10.032801375753753
      ],
      [
        "gladius",
        -10.036553797954564
      ],
      [
        "Cicero",
        -10.036814844758858
      ],
      [
        "augur",
        -10.04073533440916
      ],
      [
        "ignora",
        -10.044090032795499
      ],
      [
        "figura",
        -10.044334982382203
      ],
      [
        "cepisse",
        -10.044666809122791
      ],
      [
        "reddit",
        -10.045321391620728
      ],
      [
        "copiis",
        -10.056319009530007
      ],
      [
        "adfect",
        -10.057602038522896
      ],
      [
        "signific",
        -10.060103501932641
      ],
      [
        "Cael",
        -10.064112832261719
      ],
      [
        "periculi",
        -10.064451579914582
      ],
      [
        "tenebrae",
        -10.068083866406774
      ],
      [
        "confiteor",
        -10.072099424630064
      ],
      [
        "popularis",
        -10.072101972553648
      ],
      [
        "publicum",
        -10.080180031736123
      ],
      [
        "calamitas",
        -10.080182207812483
      ],
      [
        "discordia",
        -10.080190550105321
      ],
      [
        "sapiente",
        -10.080243545207455
      ],
      [
        "aestimo",
        -10.08026185918608
      ],
      [
        "segni",
        -10.09258595919473
      ],
      [
        "liberalita",
        -10.094365760798777
      ],
      [
        "Enim",
        -10.096640705822331
      ],
      [
        "stitit",
        -10.100018413151428
      ],
      [
        "litteris",
        -10.100733544315206
      ],
      [
        "Teucr",
        -10.100753818154132
      ],
      [
        "theatr",
        -10.100788060957587
      ],
      [
        "Paul",
        -10.103238379883422
      ],
      [
        "multitudine",
        -10.109143288867376
      ],
      [
        "foeder",
        -10.11334991154828
      ],
      [
        "extremum",
        -10.117412536062542
      ],
      [
        "praesidio",
        -10.117442794542603
      ],
      [
        "abstine",
        -10.120477168602417
      ],
      [
        "nobilitas",
        -10.12163861181822
      ],
      [
        "afficio",
        -10.130159960363102
      ],
      [
        "Agrippina",
        -10.134359689902071
      ],
      [
        "saeuitia",
        -10.135013685596494
      ],
      [
        "oportere",
        -10.138768029965323
      ],
      [
        "Dolabella",
        -10.142961988345888
      ],
      [
        "praeceptum",
        -10.142962408916814
      ],
      [
        "magnitudine",
        -10.142966464531632
      ],
      [
        "oppida",
        -10.14301946503992
      ],
      [
        "obliuiscor",
        -10.147291073199444
      ],
      [
        "atrimonium",
        -10.14729376353716
      ],
      [
        "impend",
        -10.148957918931695
      ],
      [
        "succed",
        -10.151064748206228
      ],
      [
        "ignoro",
        -10.151645051043904
      ],
      [
        "diligo",
        -10.151707770669134
      ],
      [
        "audax",
        -10.15600789783672
      ],
      [
        "dicend",
        -10.156573288163575
      ],
      [
        "polliceor",
        -10.160396798678754
      ],
      [
        "ulcisc",
        -10.160415598439815
      ],
      [
        "difficult",
        -10.164796957691458
      ],
      [
        "exempla",
        -10.16481244726994
      ],
      [
        "Primu",
        -10.166035916126633
      ],
      [
        "exstinguo",
        -10.173666502571951
      ],
      [
        "modestia",
        -10.173762051760523
      ],
      [
        "candida",
        -10.173941094018485
      ],
      [
        "recipi",
        -10.174122612840915
      ],
      [
        "excutio",
        -10.178168133154667
      ],
      [
        "Labien",
        -10.182642711000263
      ],
      [
        "dilect",
        -10.186112852661179
      ],
      [
        "proficisc",
        -10.187661014712614
      ],
      [
        "coniuratio",
        -10.190310986476705
      ],
      [
        "mediocri",
        -10.196769488250576
      ],
      [
        "quominu",
        -10.198940655183248
      ],
      [
        "subsidium",
        -10.205351503536955
      ],
      [
        "iuxta",
        -10.205361339564925
      ],
      [
        "defensor",
        -10.210096150935705
      ],
      [
        "coniung",
        -10.210353604394268
      ],
      [
        "epistula",
        -10.214584020929593
      ],
      [
        "concordia",
        -10.214610612786803
      ],
      [
        "glorio",
        -10.220845945619978
      ],
      [
        "praecipue",
        -10.228599701576933
      ],
      [
        "peccat",
        -10.228732854283159
      ],
      [
        "uiolen",
        -10.22962617156211
      ],
      [
        "nupta",
        -10.238163807636486
      ],
      [
        "consuetudine",
        -10.247602532472598
      ],
      [
        "publico",
        -10.247602634252775
      ],
      [
        "Carthag",
        -10.257241235117078
      ],
      [
        "ignominia",
        -10.257241369474983
      ],
      [
        "propinquus",
        -10.276801687679724
      ],
      [
        "Lepid",
        -10.281957763101534
      ],
      [
        "impune",
        -10.286741866436811
      ],
      [
        "infamia",
        -10.291858814847622
      ],
      [
        "profectu",
        -10.294195511281181
      ],
      [
        "fastigi",
        -10.301805560190672
      ],
      [
        "concupisc",
        -10.306927481543816
      ],
      [
        "uiginti",
        -10.317117722080354
      ],
      [
        "taberna",
        -10.322275993311363
      ],
      [
        "hiberna",
        -10.327445324390993
      ],
      [
        "Marcellus",
        -10.327447354494318
      ],
      [
        "largitio",
        -10.338145903532785
      ],
      [
        "pertimesc",
        -10.338403794733082
      ],
      [
        "domesticus",
        -10.353764488090743
      ],
      [
        "celebro",
        -10.359110443618931
      ],
      [
        "candidus",
        -10.359116219699668
      ],
      [
        "corripi",
        -10.35919288662534
      ],
      [
        "fronte",
        -10.359275077323908
      ],
      [
        "negligo",
        -10.364486945436276
      ],
      [
        "celebra",
        -10.365282760574214
      ],
      [
        "controuersia",
        -10.36989220328719
      ],
      [
        "sollicitus",
        -10.369893068030466
      ],
      [
        "caelesti",
        -10.369936546660826
      ],
      [
        "coniunx",
        -10.375327267861103
      ],
      [
        "lacrimis",
        -10.375329838284443
      ],
      [
        "ambigu",
        -10.375350155406787
      ],
      [
        "scriba",
        -10.375397619451004
      ],
      [
        "consuesc",
        -10.403533650887876
      ],
      [
        "praecipuu",
        -10.42561726860525
      ],
      [
        "2",
        -10.431363547666503
      ],
      [
        "obsecro",
        -10.43714421870013
      ],
      [
        "pudicitia",
        -10.442958110447401
      ],
      [
        "Scyth",
        -10.442961636153058
      ],
      [
        "splendor",
        -10.442999413715903
      ],
      [
        "maximi",
        -10.448813091329832
      ],
      [
        "Bacchus",
        -10.454688201386713
      ],
      [
        "publici",
        -10.4546883107693
      ],
      [
        "kalenda",
        -10.466557785227117
      ],
      [
        "coniunctus",
        -10.466558735701284
      ],
      [
        "Haedui",
        -10.466559171422269
      ],
      [
        "dulce",
        -10.47271818492738
      ],
      [
        "fecund",
        -10.478202852566952
      ],
      [
        "locuples",
        -10.47856984168358
      ],
      [
        "scripta",
        -10.47857037676296
      ],
      [
        "temperantia",
        -10.484634661581833
      ],
      [
        "tristitia",
        -10.490729815580181
      ],
      [
        "impudentia",
        -10.496862957217523
      ],
      [
        "castellum",
        -10.503035799636379
      ],
      [
        "Uespasianu",
        -10.515496974121888
      ],
      [
        "pontifex",
        -10.515497037207602
      ],
      [
        "Trimalchio",
        -10.521786279360075
      ],
      [
        "brachium",
        -10.534484853239185
      ],
      [
        "mancipi",
        -10.540896949051287
      ],
      [
        "superuacuu",
        -10.546748185849
      ],
      [
        "imbecill",
        -10.580244507750908
      ],
      [
        "recuperator",
        -10.586955972673218
      ],
      [
        "pontific",
        -10.586958766983528
      ],
      [
        "Olymp",
        -10.593712483418644
      ],
      [
        "principatu",
        -10.607364496483044
      ],
      [
        "uespasian",
        -10.607364537458569
      ],
      [
        "dignitati",
        -10.60742966055998
      ],
      [
        "societate",
        -10.614268234071853
      ],
      [
        "muliebri",
        -10.642333939603677
      ],
      [
        "Gracchu",
        -10.678569016435976
      ],
      [
        "Mithridate",
        -10.685976028931702
      ],
      [
        "sollicitudo",
        -10.69343872275346
      ],
      [
        "X",
        -10.787625445954763
      ],
      [
        "nympha",
        -10.79588996309733
      ],
      [
        "Agrippa",
        -10.804223243293846
      ],
      [
        "Aegyptus",
        -10.83826887804631
      ],
      [
        "Lacedaemon",
        -10.87351458910425
      ],
      [
        "Amphitryon",
        -11.27673589889837
      ],
      [
        "k",
        -12.23758662603473
      ],
      [
        "q",
        -12.665989869007781
      ],
      [
        ".",
        -14.66475819617084
      ],
      [
        "Z",
        -15.16465819617084
      ],
      [
        "0",
        -15.16475819617084
      ],
      [
        "K",
        -15.16475819617084
      ]
    ]
  }
}