{
  "version": "1.0",
  "truncation": null,
  "padding": null,
  "added_tokens": [
    {
      "id": 0,
      "content": "[PAD]",
      "single_word": false,
      "lstrip": false,
      "rstrip": false,
      "normalized": false,
      "special": true
    },
    {
      "id": 1,
      "content": "[EOS]",
      "single_word": false,
      "lstrip": false,
      "rstrip": false,
      "normalized": false,
      "special": true
    },
    {
      "id": 2,
      "content": "[BOS]",
      "single_word": false,
      "lstrip": false,
      "rstrip": false,
      "normalized": false,
      "special": true
    }
  ],
  "normalizer": {
    "type": "Sequence",
    "normalizers": [
      {
        "type": "NFKD"
      },
      {
        "type": "Lowercase"
      }
    ]
  },
  "pre_tokenizer": {
    "type": "Sequence",
    "pretokenizers": [
      {
        "type": "Whitespace"
      },
      {
        "type": "Digits",
        "individual_digits": false
      }
    ]
  },
  "post_processor": null,
  "decoder": {
    "type": "ByteLevel",
    "add_prefix_space": true,
    "trim_offsets": true,
    "use_regex": true
  },
  "model": {
    "type": "Unigram",
    "unk_id": null,
    "vocab": [
      [
        "[PAD]",
        0.0
      ],
      [
        "[EOS]",
        0.0
      ],
      [
        "[BOS]",
        0.0
      ],
      [
        "s",
        -3.2319972995774116
      ],
      [
        "e",
        -3.4450392792354183
      ],
      [
        "a",
        -3.812232646644569
      ],
      [
        "in",
        -3.8739983042358226
      ],
      [
        "o",
        -3.8998450557395063
      ],
      [
        "i",
        -3.902680927805367
      ],
      [
        "et",
        -3.927024383143408
      ],
      [
        "t",
        -3.939366329629431
      ],
      [
        "m",
        -3.9569211741408825
      ],
      [
        "qui",
        -4.427541946041822
      ],
      [
        "que",
        -4.547726091524655
      ],
      [
        "is",
        -4.607809463379196
      ],
      [
        "sum",
        -4.7101127862659204
      ],
      [
        "non",
        -4.741810011633861
      ],
      [
        "c",
        -4.76915498481579
      ],
      [
        "us",
        -4.8181242741214305
      ],
      [
        "de",
        -4.83419304077195
      ],
      [
        "ad",
        -4.892207254382191
      ],
      [
        "at",
        -4.897388379499278
      ],
      [
        "u",
        -4.959733809256839
      ],
      [
        "ut",
        -4.964278385479114
      ],
      [
        "um",
        -5.056729590240163
      ],
      [
        "re",
        -5.062362162048112
      ],
      [
        "ex",
        -5.098102500145686
      ],
      [
        "cum",
        -5.144120348989407
      ],
      [
        "p",
        -5.1727302917696285
      ],
      [
        "tu",
        -5.204473054830471
      ],
      [
        "si",
        -5.235605952826621
      ],
      [
        "界que",
        -5.238179983263571
      ],
      [
        "per",
        -5.332010171691595
      ],
      [
        "quam",
        -5.332733998973792
      ],
      [
        "r",
        -5.368247841677693
      ],
      [
        "hic",
        -5.382186501821897
      ],
      [
        "n",
        -5.39109750449396
      ],
      [
        "ne",
        -5.39654003896686
      ],
      [
        "ab",
        -5.4756113330366585
      ],
      [
        "sed",
        -5.538961901325754
      ],
      [
        "ego",
        -5.589693373891622
      ],
      [
        "est",
        -5.661406309567608
      ],
      [
        "quis",
        -5.672467054399322
      ],
      [
        "ac",
        -5.675487622410902
      ],
      [
        "ille",
        -5.678012682963383
      ],
      [
        "con",
        -5.6861999973145565
      ],
      [
        "pro",
        -5.7279565998199455
      ],
      [
        "quod",
        -5.774291567996874
      ],
      [
        "nec",
        -5.848004842559776
      ],
      [
        "tum",
        -5.945931347545825
      ],
      [
        "aut",
        -5.9673226305254445
      ],
      [
        "ita",
        -5.992129274443622
      ],
      [
        "do",
        -6.006834607345549
      ],
      [
        "g",
        -6.027757337689096
      ],
      [
        "res",
        -6.029035687223189
      ],
      [
        "or",
        -6.037155516676217
      ],
      [
        "an",
        -6.061338297416627
      ],
      [
        "omnis",
        -6.086022467306817
      ],
      [
        "di",
        -6.1476331168473735
      ],
      [
        "quae",
        -6.155433044112323
      ],
      [
        "sui",
        -6.156365501163869
      ],
      [
        "iam",
        -6.195657477645419
      ],
      [
        "ipse",
        -6.198333357055942
      ],
      [
        "rum",
        -6.200538321672537
      ],
      [
        "enim",
        -6.20213413125129
      ],
      [
        "f",
        -6.208502433687899
      ],
      [
        "l",
        -6.238227491600451
      ],
      [
        "d",
        -6.252365664354949
      ],
      [
        "possum",
        -6.2970611373175185
      ],
      [
        "etiam",
        -6.35094106610129
      ],
      [
        "ius",
        -6.359411207126401
      ],
      [
        "b",
        -6.386498713729784
      ],
      [
        "dico",
        -6.392900349276676
      ],
      [
        "am",
        -6.409347172391625
      ],
      [
        "inter",
        -6.4128716369692995
      ],
      [
        "quo",
        -6.413936003650871
      ],
      [
        "quid",
        -6.435570715710108
      ],
      [
        "tam",
        -6.442657110778336
      ],
      [
        "facio",
        -6.450062964313851
      ],
      [
        "neque",
        -6.485548356893897
      ],
      [
        "tamen",
        -6.505888684642397
      ],
      [
        "uideo",
        -6.508572861523787
      ],
      [
        "uis",
        -6.509535355420509
      ],
      [
        "h",
        -6.511193766927322
      ],
      [
        "nam",
        -6.515287829249758
      ],
      [
        "li",
        -6.539648381548281
      ],
      [
        "nihil",
        -6.567968543409185
      ],
      [
        "suus",
        -6.576149095704675
      ],
      [
        "esse",
        -6.620818389335172
      ],
      [
        "quidem",
        -6.622295448348673
      ],
      [
        "ui",
        -6.6348622613012385
      ],
      [
        "ob",
        -6.643288305745735
      ],
      [
        "nos",
        -6.665054132218781
      ],
      [
        "nunc",
        -6.676860222469708
      ],
      [
        "er",
        -6.678526225638098
      ],
      [
        "ar",
        -6.693047952452213
      ],
      [
        "tur",
        -6.697788961691424
      ],
      [
        "hoc",
        -6.70780025279579
      ],
      [
        "magnus",
        -6.722132500852609
      ],
      [
        "unt",
        -6.740234749628922
      ],
      [
        "sub",
        -6.751205187691662
      ],
      [
        "ibus",
        -6.752938372723605
      ],
      [
        "causa",
        -6.755326837946248
      ],
      [
        "co",
        -6.7729336069639565
      ],
      [
        "ubi",
        -6.800927532242964
      ],
      [
        "idem",
        -6.810600191663783
      ],
      [
        "habeo",
        -6.815158199202399
      ],
      [
        "uos",
        -6.832418979237264
      ],
      [
        "qua",
        -6.8352800680104195
      ],
      [
        "uit",
        -6.836704165408516
      ],
      [
        "id",
        -6.837405236520302
      ],
      [
        "ante",
        -6.848034089395625
      ],
      [
        "la",
        -6.849645243232594
      ],
      [
        "meus",
        -6.871510029978957
      ],
      [
        "sic",
        -6.930577891886024
      ],
      [
        "ant",
        -6.933298614879726
      ],
      [
        "homo",
        -6.943070208552555
      ],
      [
        "prae",
        -6.946898186047218
      ],
      [
        "ter",
        -6.947559839755282
      ],
      [
        "le",
        -6.95892453183197
      ],
      [
        "rem",
        -6.965671377021293
      ],
      [
        "tuus",
        -6.965831277746108
      ],
      [
        "alius",
        -6.966508135425784
      ],
      [
        "modo",
        -6.96884965537752
      ],
      [
        "com",
        -6.969814321849293
      ],
      [
        "ere",
        -6.986285822050158
      ],
      [
        "dis",
        -6.987039521717712
      ],
      [
        "dum",
        -6.9880550319216965
      ],
      [
        "post",
        -6.988208164555145
      ],
      [
        "uel",
        -6.998673508111988
      ],
      [
        "multus",
        -6.999297494787347
      ],
      [
        "animus",
        -7.005986243163585
      ],
      [
        "ur",
        -7.011614716218499
      ],
      [
        "erat",
        -7.031369563343258
      ],
      [
        "nisi",
        -7.039730389673675
      ],
      [
        "num",
        -7.043815689463459
      ],
      [
        "quoque",
        -7.049165075526533
      ],
      [
        "uolo",
        -7.055342926746196
      ],
      [
        "mihi",
        -7.056206405237182
      ],
      [
        "tor",
        -7.056713923464777
      ],
      [
        "magis",
        -7.068659347686054
      ],
      [
        "no",
        -7.077284259024076
      ],
      [
        "uir",
        -7.086124126936635
      ],
      [
        "x",
        -7.094358394593993
      ],
      [
        "iste",
        -7.094502384047614
      ],
      [
        "y",
        -7.097755020107822
      ],
      [
        "ent",
        -7.103200153531839
      ],
      [
        "tibi",
        -7.107624108402613
      ],
      [
        "cur",
        -7.108991307847607
      ],
      [
        "on",
        -7.109482493707011
      ],
      [
        "sit",
        -7.11473733398706
      ],
      [
        "par",
        -7.134441098605183
      ],
      [
        "autem",
        -7.137614240833814
      ],
      [
        "fero",
        -7.158332719964818
      ],
      [
        "sine",
        -7.158421204737337
      ],
      [
        "uenio",
        -7.166827598763158
      ],
      [
        "caesar",
        -7.188861490443749
      ],
      [
        "dies",
        -7.19380270323569
      ],
      [
        "unus",
        -7.210675673943173
      ],
      [
        "haec",
        -7.21282588379621
      ],
      [
        "ens",
        -7.217493762243292
      ],
      [
        "al",
        -7.230775400349641
      ],
      [
        "nullus",
        -7.230807819248353
      ],
      [
        "ari",
        -7.2356605281891255
      ],
      [
        "locus",
        -7.23795555442409
      ],
      [
        "nus",
        -7.245023712084182
      ],
      [
        "uita",
        -7.254868916062636
      ],
      [
        "tempus",
        -7.261836978857884
      ],
      [
        "ago",
        -7.27235443171989
      ],
      [
        "ra",
        -7.273898733729679
      ],
      [
        "cus",
        -7.2752204336004755
      ],
      [
        "pars",
        -7.286755568993108
      ],
      [
        "pater",
        -7.294287093869356
      ],
      [
        "manus",
        -7.305701677650042
      ],
      [
        "uero",
        -7.3064925639058735
      ],
      [
        "illa",
        -7.322227919730487
      ],
      [
        "mus",
        -7.334321036941358
      ],
      [
        "bellum",
        -7.3374794717055
      ],
      [
        "ergo",
        -7.342156934832207
      ],
      [
        "mitto",
        -7.342898934108577
      ],
      [
        "fortuna",
        -7.346341955998131
      ],
      [
        "diu",
        -7.359587690501932
      ],
      [
        "nis",
        -7.3621906228060965
      ],
      [
        "noster",
        -7.367841622492298
      ],
      [
        "atio",
        -7.3875540835105795
      ],
      [
        "eius",
        -7.387643499716013
      ],
      [
        "fi",
        -7.391679012272348
      ],
      [
        "miser",
        -7.4047542991716195
      ],
      [
        "arma",
        -7.406109591807032
      ],
      [
        "licet",
        -7.415223256687615
      ],
      [
        "natura",
        -7.415452880516138
      ],
      [
        "apud",
        -7.420391672418853
      ],
      [
        "bonus",
        -7.421852948017494
      ],
      [
        "nomen",
        -7.4331817523908805
      ],
      [
        "consul",
        -7.43458072855067
      ],
      [
        "super",
        -7.435227660369581
      ],
      [
        "aliquis",
        -7.43679008891304
      ],
      [
        "populus",
        -7.437924981170154
      ],
      [
        "bus",
        -7.44373141042758
      ],
      [
        "contra",
        -7.460212709844568
      ],
      [
        "sunt",
        -7.466866838553572
      ],
      [
        "gitur",
        -7.468938471835179
      ],
      [
        "corpus",
        -7.47625102711359
      ],
      [
        "labor",
        -7.488826442259514
      ],
      [
        "bat",
        -7.489768604500159
      ],
      [
        "alter",
        -7.492907009244371
      ],
      [
        "tantum",
        -7.49332065731539
      ],
      [
        "saepe",
        -7.493523384723797
      ],
      [
        "terra",
        -7.496110199456871
      ],
      [
        "nemo",
        -7.510000861673028
      ],
      [
        "senatus",
        -7.5384829357074175
      ],
      [
        "semper",
        -7.539579838222139
      ],
      [
        "romanus",
        -7.539664816828649
      ],
      [
        "quibus",
        -7.543404467845747
      ],
      [
        "simul",
        -7.546023870148611
      ],
      [
        "cor",
        -7.559923923323221
      ],
      [
        "deus",
        -7.5622713708554254
      ],
      [
        "erit",
        -7.562644076812516
      ],
      [
        "puto",
        -7.5681235785368965
      ],
      [
        "atur",
        -7.576602851079198
      ],
      [
        "sequor",
        -7.581617702165832
      ],
      [
        "bene",
        -7.589648750732339
      ],
      [
        "rex",
        -7.589932147004031
      ],
      [
        "fer",
        -7.598208722297878
      ],
      [
        "satis",
        -7.602736041874499
      ],
      [
        "are",
        -7.605559281880848
      ],
      [
        "dic",
        -7.616022018792108
      ],
      [
        "deinde",
        -7.617114603529895
      ],
      [
        "lex",
        -7.620934542596487
      ],
      [
        "domus",
        -7.630206888820724
      ],
      [
        "cedo",
        -7.630224692872285
      ],
      [
        "liber",
        -7.630686692989184
      ],
      [
        "duco",
        -7.637461434238212
      ],
      [
        "illi",
        -7.639445536201956
      ],
      [
        "primum",
        -7.643848971770076
      ],
      [
        "circum",
        -7.647018451286767
      ],
      [
        "omnia",
        -7.653879884908562
      ],
      [
        "hi",
        -7.6548343401329335
      ],
      [
        "hostis",
        -7.65702693439116
      ],
      [
        "fuit",
        -7.660872924069348
      ],
      [
        "respublica",
        -7.66434128551251
      ],
      [
        "tem",
        -7.670419802508461
      ],
      [
        "quia",
        -7.670853882340207
      ],
      [
        "uide",
        -7.672203935995545
      ],
      [
        "ratio",
        -7.6821533208422785
      ],
      [
        "lu",
        -7.68473523414861
      ],
      [
        "pa",
        -7.689385218335741
      ],
      [
        "quidam",
        -7.692113983477367
      ],
      [
        "huc",
        -7.6999673545969785
      ],
      [
        "duo",
        -7.70294655174142
      ],
      [
        "orum",
        -7.70444022622248
      ],
      [
        "sci",
        -7.709754192588139
      ],
      [
        "honor",
        -7.716354254215749
      ],
      [
        "ris",
        -7.721921896784919
      ],
      [
        "pono",
        -7.722242839613233
      ],
      [
        "sol",
        -7.729074859116439
      ],
      [
        "gra",
        -7.731618907514635
      ],
      [
        "uirtus",
        -7.733362463997113
      ],
      [
        "sibi",
        -7.735535925354749
      ],
      [
        "prouincia",
        -7.738592435883804
      ],
      [
        "numquam",
        -7.743697390002907
      ],
      [
        "dam",
        -7.744170682424211
      ],
      [
        "totus",
        -7.744605677219739
      ],
      [
        "sua",
        -7.749049588275795
      ],
      [
        "peto",
        -7.753402837988946
      ],
      [
        "3",
        -7.761546045489828
      ],
      [
        "credo",
        -7.761871695910624
      ],
      [
        "atus",
        -7.76576539236035
      ],
      [
        "quin",
        -7.78285369948997
      ],
      [
        "miles",
        -7.783398770360657
      ],
      [
        "sto",
        -7.784289281394422
      ],
      [
        "tantus",
        -7.786637489883812
      ],
      [
        "genus",
        -7.790643624772892
      ],
      [
        "trans",
        -7.792039277559844
      ],
      [
        "urbs",
        -7.794591741581591
      ],
      [
        "iudicium",
        -7.798466486659146
      ],
      [
        "pecunia",
        -7.799280331925205
      ],
      [
        "castra",
        -7.799382923474111
      ],
      [
        "opus",
        -7.799989569557245
      ],
      [
        "uerum",
        -7.801103759055599
      ],
      [
        "quos",
        -7.806302723101504
      ],
      [
        "consilium",
        -7.814189758725879
      ],
      [
        "tra",
        -7.817172158124106
      ],
      [
        "iter",
        -7.817417029236566
      ],
      [
        "quantum",
        -7.817819573547889
      ],
      [
        "his",
        -7.821313917912145
      ],
      [
        "fio",
        -7.821793294704256
      ],
      [
        "iubeo",
        -7.830170504434298
      ],
      [
        "superus",
        -7.833079608920714
      ],
      [
        "quaero",
        -7.838581763034068
      ],
      [
        "cura",
        -7.839282436698965
      ],
      [
        "audio",
        -7.840504773353207
      ],
      [
        "primus",
        -7.842233076589762
      ],
      [
        "duc",
        -7.8443673922711135
      ],
      [
        "parum",
        -7.847615159947346
      ],
      [
        "debeo",
        -7.847618625981285
      ],
      [
        "mors",
        -7.858667415709948
      ],
      [
        "quisque",
        -7.859310907925606
      ],
      [
        "mos",
        -7.864925027730792
      ],
      [
        "bonum",
        -7.8662640195707345
      ],
      [
        "scio",
        -7.867975390448164
      ],
      [
        "pl",
        -7.86857507956541
      ],
      [
        "amor",
        -7.872807098296649
      ],
      [
        "tot",
        -7.8787227434639915
      ],
      [
        "uia",
        -7.879222749457041
      ],
      [
        "hin",
        -7.889662971942083
      ],
      [
        "mens",
        -7.900371188494634
      ],
      [
        "exercitus",
        -7.90432411266893
      ],
      [
        "itur",
        -7.905171754907164
      ],
      [
        "cui",
        -7.90559931996194
      ],
      [
        "tim",
        -7.911456131032179
      ],
      [
        "multa",
        -7.912377661945766
      ],
      [
        "pul",
        -7.916459396816483
      ],
      [
        "ali",
        -7.9168358739397915
      ],
      [
        "accipio",
        -7.92114239690057
      ],
      [
        "pes",
        -7.930025813045395
      ],
      [
        "ciuitas",
        -7.942923071401582
      ],
      [
        "ipsa",
        -7.949722449912388
      ],
      [
        "scribo",
        -7.964357401898213
      ],
      [
        "op",
        -7.964771225163611
      ],
      [
        "puer",
        -7.964815903975107
      ],
      [
        "propter",
        -7.966821003626123
      ],
      [
        "uer",
        -7.972707627377598
      ],
      [
        "solum",
        -7.97730244660084
      ],
      [
        "men",
        -7.981254419586078
      ],
      [
        "copia",
        -7.9842439091938635
      ],
      [
        "lis",
        -7.984652918215169
      ],
      [
        "iniuria",
        -7.993278235248123
      ],
      [
        "legio",
        -7.994605144601106
      ],
      [
        "bo",
        -7.995411782585752
      ],
      [
        "ira",
        -7.996960355565079
      ],
      [
        "potest",
        -7.9976254869976025
      ],
      [
        "cuius",
        -8.003369964946243
      ],
      [
        "nox",
        -8.004250960518991
      ],
      [
        "beneficium",
        -8.006094530400485
      ],
      [
        "uoco",
        -8.011490340209807
      ],
      [
        "amicus",
        -8.013860489298352
      ],
      [
        "caput",
        -8.016726661794873
      ],
      [
        "unde",
        -8.016993935946317
      ],
      [
        "quasi",
        -8.017393844103784
      ],
      [
        "inde",
        -8.018469171337227
      ],
      [
        "quisquam",
        -8.024777285233194
      ],
      [
        "untur",
        -8.026447946958585
      ],
      [
        "omni",
        -8.028304363002242
      ],
      [
        "ebat",
        -8.029173029737402
      ],
      [
        "imperium",
        -8.030721019512622
      ],
      [
        "mea",
        -8.033227705120229
      ],
      [
        "fides",
        -8.03371902928578
      ],
      [
        "malum",
        -8.035438022988718
      ],
      [
        "tri",
        -8.035478856337514
      ],
      [
        "mare",
        -8.037055267042783
      ],
      [
        "dolor",
        -8.038707037649633
      ],
      [
        "omnes",
        -8.039318106424492
      ],
      [
        "gloria",
        -8.040920766716008
      ],
      [
        "bit",
        -8.043947209884582
      ],
      [
        "omnibus",
        -8.050542002375458
      ],
      [
        "periculum",
        -8.055789079117728
      ],
      [
        "rent",
        -8.05584484063435
      ],
      [
        "rus",
        -8.05672469726513
      ],
      [
        "fu",
        -8.064123547115024
      ],
      [
        "sententia",
        -8.064602025988252
      ],
      [
        "cae",
        -8.06845420940457
      ],
      [
        "erant",
        -8.070021601269179
      ],
      [
        "lo",
        -8.070054378337225
      ],
      [
        "isse",
        -8.074078909918867
      ],
      [
        "fama",
        -8.076077738112135
      ],
      [
        "modus",
        -8.08048902066631
      ],
      [
        "praetor",
        -8.080923875594664
      ],
      [
        "lus",
        -8.084431860048348
      ],
      [
        "gratia",
        -8.08575506366147
      ],
      [
        "teneo",
        -8.08642762444233
      ],
      [
        "illo",
        -8.091068674638592
      ],
      [
        "ciuis",
        -8.093361632792332
      ],
      [
        "uerbum",
        -8.093791635242706
      ],
      [
        "ullus",
        -8.094294678080024
      ],
      [
        "multum",
        -8.096962244389692
      ],
      [
        "luc",
        -8.09771755946446
      ],
      [
        "uinco",
        -8.099083661010692
      ],
      [
        "cere",
        -8.100535396110248
      ],
      [
        "magna",
        -8.101464774820784
      ],
      [
        "cal",
        -8.102930981640379
      ],
      [
        "uen",
        -8.109926686674445
      ],
      [
        "cul",
        -8.112665828313116
      ],
      [
        "gero",
        -8.112823784409951
      ],
      [
        "erunt",
        -8.11332942542134
      ],
      [
        "deni",
        -8.115598104481993
      ],
      [
        "uere",
        -8.118352631859805
      ],
      [
        "pugna",
        -8.121641050594565
      ],
      [
        "haud",
        -8.12200385067753
      ],
      [
        "fa",
        -8.12265310926721
      ],
      [
        "inquio",
        -8.123158957502291
      ],
      [
        "relinquo",
        -8.12398154933516
      ],
      [
        "hac",
        -8.126410138884953
      ],
      [
        "capio",
        -8.127860203407383
      ],
      [
        "the",
        -8.131688832852703
      ],
      [
        "alia",
        -8.13234729867947
      ],
      [
        "ibi",
        -8.134549914641596
      ],
      [
        "col",
        -8.13548708920165
      ],
      [
        "quoniam",
        -8.137787511974203
      ],
      [
        "nobis",
        -8.139305611501086
      ],
      [
        "mater",
        -8.142099704449976
      ],
      [
        "posse",
        -8.150101171010721
      ],
      [
        "annus",
        -8.150352963849102
      ],
      [
        "illum",
        -8.151232156673569
      ],
      [
        "iudex",
        -8.15483113536081
      ],
      [
        "potius",
        -8.155316231508898
      ],
      [
        "siue",
        -8.156566602999343
      ],
      [
        "seruo",
        -8.159510023782556
      ],
      [
        "dux",
        -8.160802740829581
      ],
      [
        "grauis",
        -8.160993229466122
      ],
      [
        "ulus",
        -8.162178240714024
      ],
      [
        "poena",
        -8.166215887052287
      ],
      [
        "uol",
        -8.167074374240551
      ],
      [
        "una",
        -8.168176119570385
      ],
      [
        "uic",
        -8.171509793070136
      ],
      [
        "pr",
        -8.172455563378708
      ],
      [
        "ntur",
        -8.17654936144023
      ],
      [
        "ger",
        -8.179838223773096
      ],
      [
        "adeo",
        -8.182257651976801
      ],
      [
        "spes",
        -8.183587557732718
      ],
      [
        "for",
        -8.186193112897783
      ],
      [
        "endi",
        -8.201830370810889
      ],
      [
        "cre",
        -8.203831004148206
      ],
      [
        "pot",
        -8.204288840366535
      ],
      [
        "summa",
        -8.205561723512513
      ],
      [
        "fuga",
        -8.206483942815588
      ],
      [
        "princeps",
        -8.207912151225543
      ],
      [
        "antur",
        -8.209510118453004
      ],
      [
        "ista",
        -8.213384981176016
      ],
      [
        "loco",
        -8.21653423093412
      ],
      [
        "nouus",
        -8.221631196840725
      ],
      [
        "anus",
        -8.221718537340633
      ],
      [
        "filius",
        -8.222490984217378
      ],
      [
        "uox",
        -8.223535576530223
      ],
      [
        "ignis",
        -8.224491371531595
      ],
      [
        "esset",
        -8.225911422352489
      ],
      [
        "minus",
        -8.227111943479834
      ],
      [
        "scelus",
        -8.227340906674844
      ],
      [
        "界ne",
        -8.228251592818555
      ],
      [
        "ga",
        -8.233602689791974
      ],
      [
        "bant",
        -8.235330255056128
      ],
      [
        "bi",
        -8.235956016705765
      ],
      [
        "rebus",
        -8.236106861272564
      ],
      [
        "modi",
        -8.237484926778176
      ],
      [
        "eques",
        -8.238752230401197
      ],
      [
        "acer",
        -8.239517169855294
      ],
      [
        "primo",
        -8.24109217253118
      ],
      [
        "uti",
        -8.241096580265854
      ],
      [
        "uester",
        -8.24450010034202
      ],
      [
        "omnium",
        -8.245984181362587
      ],
      [
        "dicere",
        -8.246878193895903
      ],
      [
        "uerto",
        -8.248714143308767
      ],
      [
        "fuisse",
        -8.249065271338809
      ],
      [
        "cess",
        -8.249934977408147
      ],
      [
        "uiuo",
        -8.250330670658624
      ],
      [
        "uix",
        -8.251845459517416
      ],
      [
        "audi",
        -8.252270145880118
      ],
      [
        "littera",
        -8.252668249417795
      ],
      [
        "illud",
        -8.25486297796781
      ],
      [
        "usque",
        -8.256019944501595
      ],
      [
        "unda",
        -8.256216161890219
      ],
      [
        "fugio",
        -8.259161161577326
      ],
      [
        "nulla",
        -8.260943923373897
      ],
      [
        "turba",
        -8.261362992073659
      ],
      [
        "romani",
        -8.264941376366043
      ],
      [
        "car",
        -8.265779500271833
      ],
      [
        "ora",
        -8.267611724675103
      ],
      [
        "forte",
        -8.270459893870381
      ],
      [
        "ula",
        -8.28051194879193
      ],
      [
        "gens",
        -8.288181347148722
      ],
      [
        "1",
        -8.290229266637324
      ],
      [
        "natus",
        -8.293084105909713
      ],
      [
        "aqua",
        -8.29387012170354
      ],
      [
        "umquam",
        -8.294285688978537
      ],
      [
        "talis",
        -8.294590931517575
      ],
      [
        "paruus",
        -8.297296667520165
      ],
      [
        "hanc",
        -8.302470513741008
      ],
      [
        "hunc",
        -8.302824707940497
      ],
      [
        "caelum",
        -8.306916506591659
      ],
      [
        "ha",
        -8.310760207323257
      ],
      [
        "multo",
        -8.31304950598156
      ],
      [
        "enda",
        -8.3173591502987
      ],
      [
        "male",
        -8.319762929173844
      ],
      [
        "frater",
        -8.32343257238091
      ],
      [
        "tempor",
        -8.325430932184887
      ],
      [
        "undi",
        -8.328750277341573
      ],
      [
        "nostra",
        -8.330105950385963
      ],
      [
        "loquor",
        -8.332461192869886
      ],
      [
        "animo",
        -8.333359026980453
      ],
      [
        "fac",
        -8.334855133614777
      ],
      [
        "mora",
        -8.335190882018916
      ],
      [
        "moueo",
        -8.335858354761832
      ],
      [
        "crimen",
        -8.336667093368568
      ],
      [
        "aetas",
        -8.34289554566978
      ],
      [
        "aduersus",
        -8.344072879862917
      ],
      [
        "refero",
        -8.346573272114131
      ],
      [
        "facere",
        -8.348274098816713
      ],
      [
        "cen",
        -8.348954198600747
      ],
      [
        "imperator",
        -8.350641095995194
      ],
      [
        "amicitia",
        -8.352231765225518
      ],
      [
        "metus",
        -8.352812305464106
      ],
      [
        "uxor",
        -8.355124807991022
      ],
      [
        "certe",
        -8.36051354714928
      ],
      [
        "eri",
        -8.361038135674121
      ],
      [
        "facile",
        -8.364129393785067
      ],
      [
        "endum",
        -8.365211217238173
      ],
      [
        "ten",
        -8.365853632624965
      ],
      [
        "reddo",
        -8.366083059396587
      ],
      [
        "ager",
        -8.366231374192884
      ],
      [
        "uterque",
        -8.367512929894502
      ],
      [
        "patria",
        -8.368536928848279
      ],
      [
        "unc",
        -8.368963370807066
      ],
      [
        "solus",
        -8.369000202249369
      ],
      [
        "mur",
        -8.36980939705464
      ],
      [
        "erent",
        -8.37048289168289
      ],
      [
        "praeter",
        -8.370991235181316
      ],
      [
        "soleo",
        -8.371804120507171
      ],
      [
        "lib",
        -8.372120911514884
      ],
      [
        "ndam",
        -8.373753441879835
      ],
      [
        "uolu",
        -8.374322377940878
      ],
      [
        "tollo",
        -8.374521334321852
      ],
      [
        "uetus",
        -8.376425815904076
      ],
      [
        "factum",
        -8.378022617106804
      ],
      [
        "multi",
        -8.383360409603812
      ],
      [
        "ferre",
        -8.38414867831083
      ],
      [
        "tunc",
        -8.38731911851427
      ],
      [
        "fera",
        -8.38968239093753
      ],
      [
        "belli",
        -8.390411619985628
      ],
      [
        "oculus",
        -8.390742077694146
      ],
      [
        "nda",
        -8.390945875987526
      ],
      [
        "prope",
        -8.393006899638067
      ],
      [
        "rerum",
        -8.398069918672856
      ],
      [
        "pol",
        -8.401432618341978
      ],
      [
        "cau",
        -8.401636596963238
      ],
      [
        "imus",
        -8.404764520022585
      ],
      [
        "isti",
        -8.404816554094062
      ],
      [
        "utor",
        -8.406649801364189
      ],
      [
        "rep",
        -8.41248725676125
      ],
      [
        "ox",
        -8.413459676595927
      ],
      [
        "sentio",
        -8.413932963725541
      ],
      [
        "cumque",
        -8.41400627516802
      ],
      [
        "eorum",
        -8.415438268095881
      ],
      [
        "habet",
        -8.41613374279922
      ],
      [
        "inquit",
        -8.417909721731585
      ],
      [
        "longe",
        -8.418200202973136
      ],
      [
        "uale",
        -8.420257525222478
      ],
      [
        "praeterea",
        -8.421039790207324
      ],
      [
        "cognosco",
        -8.422002839108732
      ],
      [
        "cel",
        -8.42201716666182
      ],
      [
        "tanta",
        -8.423630508351454
      ],
      [
        "uenit",
        -8.42648770958597
      ],
      [
        "latus",
        -8.427541958760585
      ],
      [
        "regnum",
        -8.429046742462106
      ],
      [
        "spe",
        -8.429854831805283
      ],
      [
        "retur",
        -8.43419372641522
      ],
      [
        "fortis",
        -8.435874428973339
      ],
      [
        "nibus",
        -8.437548523119332
      ],
      [
        "auctor",
        -8.437727576722946
      ],
      [
        "quorum",
        -8.438938626791742
      ],
      [
        "cas",
        -8.43928150897344
      ],
      [
        "por",
        -8.440104733595543
      ],
      [
        "uentus",
        -8.447506163305265
      ],
      [
        "opera",
        -8.454760607681672
      ],
      [
        "studium",
        -8.456019809058837
      ],
      [
        "muni",
        -8.457528172445386
      ],
      [
        "finis",
        -8.458180824400682
      ],
      [
        "certus",
        -8.460793931568553
      ],
      [
        "gaius",
        -8.461812249011388
      ],
      [
        "uni",
        -8.464817622709196
      ],
      [
        "redi",
        -8.46551426929776
      ],
      [
        "patior",
        -8.466127138508657
      ],
      [
        "puella",
        -8.46719320084781
      ],
      [
        "rentur",
        -8.468138780919306
      ],
      [
        "illis",
        -8.474008848977423
      ],
      [
        "qualis",
        -8.474177027312983
      ],
      [
        "nauis",
        -8.474957417416473
      ],
      [
        "quas",
        -8.476782563740219
      ],
      [
        "signum",
        -8.478552785674369
      ],
      [
        "quare",
        -8.482973581192123
      ],
      [
        "unum",
        -8.486790550560396
      ],
      [
        "roma",
        -8.487919971600473
      ],
      [
        "eris",
        -8.489179350389495
      ],
      [
        "liquid",
        -8.490776697180788
      ],
      [
        "necesse",
        -8.492759648066695
      ],
      [
        "amo",
        -8.496683970442994
      ],
      [
        "cula",
        -8.497853169913384
      ],
      [
        "iudico",
        -8.49862105532327
      ],
      [
        "italia",
        -8.50118641336688
      ],
      [
        "praes",
        -8.502351410463504
      ],
      [
        "tribu",
        -8.502585718577807
      ],
      [
        "oppidum",
        -8.502599124719683
      ],
      [
        "timeo",
        -8.502692984399337
      ],
      [
        "laus",
        -8.504453908210866
      ],
      [
        "postea",
        -8.50468421127152
      ],
      [
        "quemadmodum",
        -8.504723855298742
      ],
      [
        "ho",
        -8.506336573503733
      ],
      [
        "mari",
        -8.50684153967981
      ],
      [
        "longus",
        -8.50685215469737
      ],
      [
        "traho",
        -8.508543244942752
      ],
      [
        "forma",
        -8.51041503474294
      ],
      [
        "hort",
        -8.510441048001205
      ],
      [
        "ebant",
        -8.51267907989051
      ],
      [
        "lux",
        -8.514146842696814
      ],
      [
        "cogo",
        -8.517271392510693
      ],
      [
        "sal",
        -8.517858744241124
      ],
      [
        "memoria",
        -8.518312360328615
      ],
      [
        "salus",
        -8.524231312674122
      ],
      [
        "uictor",
        -8.524238950837336
      ],
      [
        "metu",
        -8.525382445817606
      ],
      [
        "nostri",
        -8.527079792723157
      ],
      [
        "populi",
        -8.527675519900733
      ],
      [
        "pati",
        -8.529629312601655
      ],
      [
        "utrum",
        -8.53431802533507
      ],
      [
        "auit",
        -8.537704638282861
      ],
      [
        "assum",
        -8.541476675807402
      ],
      [
        "iuppiter",
        -8.541543684212481
      ],
      [
        "malus",
        -8.548405168221393
      ],
      [
        "malo",
        -8.55097495795884
      ],
      [
        "ingens",
        -8.551039091020325
      ],
      [
        "hominum",
        -8.552640064240059
      ],
      [
        "pio",
        -8.553106174348798
      ],
      [
        "praeda",
        -8.554642743345784
      ],
      [
        "manu",
        -8.556535808978444
      ],
      [
        "cito",
        -8.557362083617981
      ],
      [
        "leuis",
        -8.557838558686761
      ],
      [
        "late",
        -8.558215981676174
      ],
      [
        "pici",
        -8.558414135729992
      ],
      [
        "entem",
        -8.558921957263582
      ],
      [
        "age",
        -8.559407385130816
      ],
      [
        "dat",
        -8.5599055221649
      ],
      [
        "pax",
        -8.560514130510118
      ],
      [
        "pompeius",
        -8.561277630982271
      ],
      [
        "rogo",
        -8.562477852069632
      ],
      [
        "felix",
        -8.562726577698736
      ],
      [
        "rius",
        -8.563449940731804
      ],
      [
        "homines",
        -8.565185635467742
      ],
      [
        "rit",
        -8.566581616588959
      ],
      [
        "mille",
        -8.567707636265926
      ],
      [
        "huius",
        -8.568064246071422
      ],
      [
        "legatus",
        -8.569297588327824
      ],
      [
        "ordo",
        -8.569554385458162
      ],
      [
        "seruus",
        -8.570352919548814
      ],
      [
        "coepio",
        -8.570558467071592
      ],
      [
        "oratio",
        -8.571002591793171
      ],
      [
        "quando",
        -8.571445887102117
      ],
      [
        "parte",
        -8.572198355982906
      ],
      [
        "pectus",
        -8.573709225341043
      ],
      [
        "cit",
        -8.575063565720342
      ],
      [
        "mane",
        -8.57533100169009
      ],
      [
        "ingenium",
        -8.576442495979633
      ],
      [
        "interim",
        -8.577278136363871
      ],
      [
        "ops",
        -8.577935331689526
      ],
      [
        "ipsum",
        -8.581823470985992
      ],
      [
        "cy",
        -8.5846298964062
      ],
      [
        "tua",
        -8.58828001046557
      ],
      [
        "rig",
        -8.593477259838526
      ],
      [
        "dignus",
        -8.593631703593331
      ],
      [
        "anima",
        -8.59512803268016
      ],
      [
        "officium",
        -8.595403357638588
      ],
      [
        "ntem",
        -8.59911567245196
      ],
      [
        "numerus",
        -8.599551731818952
      ],
      [
        "pan",
        -8.599932391120262
      ],
      [
        "laud",
        -8.603470379023442
      ],
      [
        "animi",
        -8.603872532471643
      ],
      [
        "bello",
        -8.604139210709281
      ],
      [
        "audeo",
        -8.606214305334472
      ],
      [
        "uiri",
        -8.606822204265914
      ],
      [
        "dare",
        -8.606920932438795
      ],
      [
        "idus",
        -8.608217756832985
      ],
      [
        "reipublicae",
        -8.608845848011594
      ],
      [
        "immo",
        -8.610239301887802
      ],
      [
        "nescio",
        -8.61182948158959
      ],
      [
        "proelium",
        -8.614766527758182
      ],
      [
        "altus",
        -8.615124513013374
      ],
      [
        "paro",
        -8.616433393086563
      ],
      [
        "procul",
        -8.61941517143249
      ],
      [
        "suum",
        -8.619500973058503
      ],
      [
        "ria",
        -8.619612069982459
      ],
      [
        "defendo",
        -8.620144299411253
      ],
      [
        "parens",
        -8.621238474284961
      ],
      [
        "ndum",
        -8.621541264872205
      ],
      [
        "fici",
        -8.621710516868298
      ],
      [
        "go",
        -8.622313792510845
      ],
      [
        "medius",
        -8.62246320626451
      ],
      [
        "uobis",
        -8.622588808472575
      ],
      [
        "auctoritas",
        -8.626821403241353
      ],
      [
        "familia",
        -8.627496382631293
      ],
      [
        "fun",
        -8.627998175984922
      ],
      [
        "tulit",
        -8.629185898662236
      ],
      [
        "sapiens",
        -8.633935151807915
      ],
      [
        "eadem",
        -8.635329870838252
      ],
      [
        "statim",
        -8.63794457130841
      ],
      [
        "prior",
        -8.640887367748642
      ],
      [
        "uener",
        -8.64149564781437
      ],
      [
        "soluo",
        -8.642454595515428
      ],
      [
        "iudices",
        -8.644715727116115
      ],
      [
        "ideo",
        -8.644954277225098
      ],
      [
        "ros",
        -8.646304785550466
      ],
      [
        "habere",
        -8.64704416648362
      ],
      [
        "tro",
        -8.64706227973525
      ],
      [
        "intelligo",
        -8.647333271118072
      ],
      [
        "ualeo",
        -8.648861808143433
      ],
      [
        "cetera",
        -8.649960876688716
      ],
      [
        "pen",
        -8.650840935114637
      ],
      [
        "prima",
        -8.651589336590296
      ],
      [
        "tandem",
        -8.652290837753167
      ],
      [
        "uictoria",
        -8.652590348398421
      ],
      [
        "magno",
        -8.654440721111964
      ],
      [
        "flamma",
        -8.656240917068658
      ],
      [
        "lacrima",
        -8.657397938671897
      ],
      [
        "boni",
        -8.65987640527053
      ],
      [
        "quomodo",
        -8.659887076521755
      ],
      [
        "quantus",
        -8.661344651697533
      ],
      [
        "lum",
        -8.661797294699834
      ],
      [
        "ente",
        -8.664061393066646
      ],
      [
        "item",
        -8.664360733047488
      ],
      [
        "dici",
        -8.665895960917311
      ],
      [
        "mini",
        -8.667909826594672
      ],
      [
        "sanguis",
        -8.672222230013585
      ],
      [
        "aurum",
        -8.672227475889136
      ],
      [
        "anti",
        -8.672302074813558
      ],
      [
        "ara",
        -8.673690947197354
      ],
      [
        "fundo",
        -8.67432519398502
      ],
      [
        "silua",
        -8.674341611259775
      ],
      [
        "porta",
        -8.67549602796288
      ],
      [
        "nego",
        -8.67705108222453
      ],
      [
        "intra",
        -8.677913293487997
      ],
      [
        "uitium",
        -8.679494973799493
      ],
      [
        "aliquando",
        -8.680185920789127
      ],
      [
        "uelut",
        -8.680333989486964
      ],
      [
        "die",
        -8.680400895074992
      ],
      [
        "telum",
        -8.681294372207985
      ],
      [
        "facta",
        -8.681437344372155
      ],
      [
        "uerunt",
        -8.682963074743327
      ],
      [
        "ceteri",
        -8.686818045688948
      ],
      [
        "praesidium",
        -8.691201761818458
      ],
      [
        "rursus",
        -8.692491395291707
      ],
      [
        "ced",
        -8.692537508366724
      ],
      [
        "gallia",
        -8.694805316006569
      ],
      [
        "lego",
        -8.696686602660385
      ],
      [
        "inuidia",
        -8.698213584224256
      ],
      [
        "recipio",
        -8.699747804081666
      ],
      [
        "existimo",
        -8.700215095884701
      ],
      [
        "equus",
        -8.700659561794318
      ],
      [
        "uoluptas",
        -8.701502805172723
      ],
      [
        "maior",
        -8.70192463264732
      ],
      [
        "agi",
        -8.702679651864294
      ],
      [
        "issima",
        -8.703450839985743
      ],
      [
        "flumen",
        -8.704505789808543
      ],
      [
        "socius",
        -8.704936752122947
      ],
      [
        "ndi",
        -8.705193263580025
      ],
      [
        "lucius",
        -8.705431442753895
      ],
      [
        "bona",
        -8.706300027453374
      ],
      [
        "pello",
        -8.707899791739592
      ],
      [
        "dedit",
        -8.709108064131783
      ],
      [
        "acies",
        -8.709539669459453
      ],
      [
        "religio",
        -8.709821624997938
      ],
      [
        "stat",
        -8.709954508874894
      ],
      [
        "ueni",
        -8.710531825180212
      ],
      [
        "similis",
        -8.711053594733244
      ],
      [
        "numero",
        -8.71147581173675
      ],
      [
        "casus",
        -8.71266452069268
      ],
      [
        "quipp",
        -8.712881762076655
      ],
      [
        "maiores",
        -8.713153427661275
      ],
      [
        "cap",
        -8.71461743624284
      ],
      [
        "culum",
        -8.714946041669762
      ],
      [
        "potestas",
        -8.721562302035162
      ],
      [
        "gener",
        -8.721572234126374
      ],
      [
        "icus",
        -8.721714381291509
      ],
      [
        "esco",
        -8.723783833849676
      ],
      [
        "sermo",
        -8.724490460376476
      ],
      [
        "ferrum",
        -8.727234504337444
      ],
      [
        "illic",
        -8.730988998410826
      ],
      [
        "bantur",
        -8.732951297633702
      ],
      [
        "liberi",
        -8.733438295768204
      ],
      [
        "fieri",
        -8.735434915284038
      ],
      [
        "eodem",
        -8.739025795711381
      ],
      [
        "colo",
        -8.743366248061907
      ],
      [
        "uultus",
        -8.743905813490883
      ],
      [
        "cius",
        -8.745225523431301
      ],
      [
        "timor",
        -8.746807206454758
      ],
      [
        "pudor",
        -8.747959275042398
      ],
      [
        "propior",
        -8.748101507145535
      ],
      [
        "uisse",
        -8.751547806033898
      ],
      [
        "reliqui",
        -8.752743735120186
      ],
      [
        "uerit",
        -8.753291249396774
      ],
      [
        "capit",
        -8.753544186383387
      ],
      [
        "bis",
        -8.754074309713975
      ],
      [
        "leo",
        -8.754312114701975
      ],
      [
        "placeo",
        -8.754384212822714
      ],
      [
        "ratione",
        -8.755145486866532
      ],
      [
        "quicumque",
        -8.757067645208
      ],
      [
        "entibus",
        -8.757323509691734
      ],
      [
        "maneo",
        -8.75763562261912
      ],
      [
        "umque",
        -8.76010171993148
      ],
      [
        "ipsi",
        -8.760853770632231
      ],
      [
        "maxime",
        -8.762896219428795
      ],
      [
        "crimin",
        -8.762919486939825
      ],
      [
        "cursus",
        -8.763875766469642
      ],
      [
        "nascor",
        -8.763941605532978
      ],
      [
        "curro",
        -8.767650020956841
      ],
      [
        "fur",
        -8.76828012180221
      ],
      [
        "auxilium",
        -8.76918733564615
      ],
      [
        "ars",
        -8.7698632344438
      ],
      [
        "arbitror",
        -8.771322357242909
      ],
      [
        "umbra",
        -8.772186338967265
      ],
      [
        "dignitas",
        -8.772582093210632
      ],
      [
        "litus",
        -8.772658626372808
      ],
      [
        "motus",
        -8.774373428607532
      ],
      [
        "nero",
        -8.775348294712702
      ],
      [
        "possit",
        -8.775388338813165
      ],
      [
        "nolo",
        -8.775408934967633
      ],
      [
        "clam",
        -8.776373832456049
      ],
      [
        "libertas",
        -8.776807282508969
      ],
      [
        "gem",
        -8.777066505681047
      ],
      [
        "testis",
        -8.777106297196603
      ],
      [
        "fecit",
        -8.777471117169005
      ],
      [
        "eni",
        -8.77749945986381
      ],
      [
        "mentum",
        -8.778965824946866
      ],
      [
        "mulier",
        -8.781190865585213
      ],
      [
        "accus",
        -8.78177738535397
      ],
      [
        "nondum",
        -8.782300816240422
      ],
      [
        "cog",
        -8.78258670924259
      ],
      [
        "leg",
        -8.782896523288962
      ],
      [
        "facit",
        -8.78364503016247
      ],
      [
        "muto",
        -8.785084870668516
      ],
      [
        "nota",
        -8.785390307675065
      ],
      [
        "inuenio",
        -8.785579158920203
      ],
      [
        "paulo",
        -8.78570733558944
      ],
      [
        "signa",
        -8.785893955274371
      ],
      [
        "exter",
        -8.790381895382648
      ],
      [
        "fere",
        -8.790475610013553
      ],
      [
        "populo",
        -8.792297732238278
      ],
      [
        "cu",
        -8.79325688190152
      ],
      [
        "senex",
        -8.793903519014098
      ],
      [
        "animum",
        -8.795109831101268
      ],
      [
        "more",
        -8.795229511205033
      ],
      [
        "nocte",
        -8.796865667360656
      ],
      [
        "ang",
        -8.79727056709969
      ],
      [
        "dominus",
        -8.797411442162812
      ],
      [
        "publicus",
        -8.797913772152295
      ],
      [
        "rium",
        -8.79824653964805
      ],
      [
        "tener",
        -8.799885233151203
      ],
      [
        "soror",
        -8.800790667840555
      ],
      [
        "senti",
        -8.800805087900454
      ],
      [
        "lar",
        -8.801132176238493
      ],
      [
        "domi",
        -8.802675160168121
      ],
      [
        "marcus",
        -8.804317991951194
      ],
      [
        "alienus",
        -8.805129679322988
      ],
      [
        "tendo",
        -8.805533634615156
      ],
      [
        "soli",
        -8.805580275804974
      ],
      [
        "agmen",
        -8.807468900745473
      ],
      [
        "laudo",
        -8.808646674930525
      ],
      [
        "munus",
        -8.81296649622264
      ],
      [
        "intro",
        -8.820278599154747
      ],
      [
        "lati",
        -8.820789103360218
      ],
      [
        "z",
        -8.820986167564868
      ],
      [
        "honestus",
        -8.8224465560957
      ],
      [
        "etiamsi",
        -8.824458382140278
      ],
      [
        "quanto",
        -8.824807612408039
      ],
      [
        "uert",
        -8.826584013297202
      ],
      [
        "nuntio",
        -8.826704831706904
      ],
      [
        "certa",
        -8.82918281065317
      ],
      [
        "morior",
        -8.829755913827796
      ],
      [
        "tabula",
        -8.829898306165987
      ],
      [
        "affero",
        -8.830012426929809
      ],
      [
        "bilis",
        -8.832529798553502
      ],
      [
        "nobilis",
        -8.832897157368397
      ],
      [
        "pugno",
        -8.833150322319552
      ],
      [
        "clarus",
        -8.833336750065019
      ],
      [
        "endo",
        -8.83633709965434
      ],
      [
        "aura",
        -8.836448662362974
      ],
      [
        "dens",
        -8.836492657066175
      ],
      [
        "sicilia",
        -8.836622910682346
      ],
      [
        "tota",
        -8.837522831490208
      ],
      [
        "cogito",
        -8.837673306887154
      ],
      [
        "ipso",
        -8.837965940141146
      ],
      [
        "redeo",
        -8.838331814064247
      ],
      [
        "ceteru",
        -8.838407802969366
      ],
      [
        "tanto",
        -8.838704647687733
      ],
      [
        "specta",
        -8.839667615120689
      ],
      [
        "uerat",
        -8.839960569674902
      ],
      [
        "entis",
        -8.840073254894893
      ],
      [
        "seru",
        -8.84373761118641
      ],
      [
        "tionem",
        -8.845652875745657
      ],
      [
        "aeque",
        -8.846711841314818
      ],
      [
        "exemplum",
        -8.847595362732367
      ],
      [
        "plan",
        -8.850393636029096
      ],
      [
        "plus",
        -8.85041834243918
      ],
      [
        "argu",
        -8.851508870384157
      ],
      [
        "lit",
        -8.85342323017504
      ],
      [
        "sicut",
        -8.853513436996097
      ],
      [
        "lla",
        -8.854051479295965
      ],
      [
        "geni",
        -8.856364584029361
      ],
      [
        "constituo",
        -8.857516699461911
      ],
      [
        "bas",
        -8.858142521397394
      ],
      [
        "trado",
        -8.862443993914152
      ],
      [
        "alis",
        -8.862948942463492
      ],
      [
        "asper",
        -8.862972241102476
      ],
      [
        "fl",
        -8.866862397970742
      ],
      [
        "eam",
        -8.866993140626459
      ],
      [
        "ensis",
        -8.867810320193755
      ],
      [
        "uoca",
        -8.868892189799912
      ],
      [
        "pereo",
        -8.870024948642023
      ],
      [
        "inimicus",
        -8.873201940787634
      ],
      [
        "rigo",
        -8.87375080767735
      ],
      [
        "uocat",
        -8.877006794358707
      ],
      [
        "pler",
        -8.87778098035098
      ],
      [
        "menta",
        -8.880737578600527
      ],
      [
        "ole",
        -8.881320145354426
      ],
      [
        "odium",
        -8.882344848534494
      ],
      [
        "hodie",
        -8.884863672491079
      ],
      [
        "ire",
        -8.887726643332151
      ],
      [
        "turpis",
        -8.88827932771082
      ],
      [
        "locum",
        -8.889318960684609
      ],
      [
        "posset",
        -8.889719101566044
      ],
      [
        "ndus",
        -8.889935424223296
      ],
      [
        "minor",
        -8.890238299610768
      ],
      [
        "armis",
        -8.890840510588081
      ],
      [
        "suspicio",
        -8.891287483644007
      ],
      [
        "arius",
        -8.892457493893923
      ],
      [
        "aliter",
        -8.893150461728176
      ],
      [
        "uas",
        -8.894542937496293
      ],
      [
        "furor",
        -8.894687275448138
      ],
      [
        "mons",
        -8.894938792145354
      ],
      [
        "iuuenis",
        -8.895258420941918
      ],
      [
        "fide",
        -8.896102091868002
      ],
      [
        "mina",
        -8.896171085450224
      ],
      [
        "impetus",
        -8.89622877346033
      ],
      [
        "batur",
        -8.896494683966383
      ],
      [
        "proxim",
        -8.898388821974134
      ],
      [
        "arbor",
        -8.900967056930249
      ],
      [
        "hui",
        -8.901013258215634
      ],
      [
        "ciuitate",
        -8.903045926883433
      ],
      [
        "iure",
        -8.904920774093483
      ],
      [
        "solu",
        -8.905236273875982
      ],
      [
        "agit",
        -8.905467539417051
      ],
      [
        "communis",
        -8.907182060917403
      ],
      [
        "orbis",
        -8.907571419200703
      ],
      [
        "libet",
        -8.90782253250162
      ],
      [
        "aliud",
        -8.90783571725068
      ],
      [
        "uenus",
        -8.908885376686651
      ],
      [
        "natio",
        -8.912668236316655
      ],
      [
        "uerba",
        -8.91267484918483
      ],
      [
        "illam",
        -8.913265125098858
      ],
      [
        "uenti",
        -8.914414315663151
      ],
      [
        "moue",
        -8.915645185562884
      ],
      [
        "missa",
        -8.915993253518664
      ],
      [
        "nosco",
        -8.91686392149677
      ],
      [
        "cupio",
        -8.917880823367428
      ],
      [
        "cado",
        -8.918024422205455
      ],
      [
        "serui",
        -8.9180890962713
      ],
      [
        "urbe",
        -8.9181139211736
      ],
      [
        "q",
        -8.919020335454714
      ],
      [
        "sint",
        -8.919087931580371
      ],
      [
        "respondeo",
        -8.919832433282615
      ],
      [
        "uari",
        -8.921381915456312
      ],
      [
        "noua",
        -8.92201649653159
      ],
      [
        "femina",
        -8.92210445614808
      ],
      [
        "tristis",
        -8.922135874949848
      ],
      [
        "rog",
        -8.923512019256016
      ],
      [
        "cessit",
        -8.924246891136853
      ],
      [
        "igne",
        -8.925245409347102
      ],
      [
        "miror",
        -8.927108268022286
      ],
      [
        "cato",
        -8.927717066614075
      ],
      [
        "界sum",
        -8.927778685334776
      ],
      [
        "iaceo",
        -8.929059948366966
      ],
      [
        "ulo",
        -8.929489143600591
      ],
      [
        "supra",
        -8.929627112309412
      ],
      [
        "suam",
        -8.931169216670142
      ],
      [
        "extra",
        -8.933991508426203
      ],
      [
        "consulatu",
        -8.935623885388885
      ],
      [
        "leni",
        -8.936445645212839
      ],
      [
        "paen",
        -8.945913393248318
      ],
      [
        "ilia",
        -8.94683561135377
      ],
      [
        "praesto",
        -8.947291971081349
      ],
      [
        "peti",
        -8.948154784734053
      ],
      [
        "simus",
        -8.94975223266783
      ],
      [
        "antonius",
        -8.950153722394107
      ],
      [
        "entes",
        -8.950419155340287
      ],
      [
        "medium",
        -8.950764611176377
      ],
      [
        "causam",
        -8.951570678878891
      ],
      [
        "quotiens",
        -8.951732732918746
      ],
      [
        "forum",
        -8.951851127317308
      ],
      [
        "lege",
        -8.952406514212623
      ],
      [
        "mittere",
        -8.952473270957427
      ],
      [
        "multis",
        -8.954913122101807
      ],
      [
        "gratus",
        -8.955087389625298
      ],
      [
        "fatum",
        -8.956679570658757
      ],
      [
        "ulla",
        -8.957316750336126
      ],
      [
        "sero",
        -8.957671340811736
      ],
      [
        "memor",
        -8.957741944237412
      ],
      [
        "ntes",
        -8.95820568070354
      ],
      [
        "nomine",
        -8.958541841011325
      ],
      [
        "uoce",
        -8.959138389475157
      ],
      [
        "cub",
        -8.959942259352513
      ],
      [
        "paucus",
        -8.963436719786674
      ],
      [
        "amus",
        -8.963898443573807
      ],
      [
        "regio",
        -8.964428292407256
      ],
      [
        "sup",
        -8.964697408024922
      ],
      [
        "templum",
        -8.966797095668124
      ],
      [
        "hae",
        -8.967505945883762
      ],
      [
        "doceo",
        -8.967544091162607
      ],
      [
        "uno",
        -8.968054217137695
      ],
      [
        "specto",
        -8.968421711638676
      ],
      [
        "ueho",
        -8.968750549245595
      ],
      [
        "tribunus",
        -8.969662789756978
      ],
      [
        "secu",
        -8.969710420555597
      ],
      [
        "cunctus",
        -8.970018366366997
      ],
      [
        "mori",
        -8.970430081886597
      ],
      [
        "ruo",
        -8.970877124932862
      ],
      [
        "uulnus",
        -8.971860444845799
      ],
      [
        "periculo",
        -8.971964402851544
      ],
      [
        "eripio",
        -8.971986321405776
      ],
      [
        "domo",
        -8.97333088451655
      ],
      [
        "laetus",
        -8.973439688069483
      ],
      [
        "spatium",
        -8.973973877621981
      ],
      [
        "precor",
        -8.974184110232777
      ],
      [
        "appello",
        -8.974878343167727
      ],
      [
        "lata",
        -8.975966481866802
      ],
      [
        "rup",
        -8.976819562640554
      ],
      [
        "usus",
        -8.976902720242444
      ],
      [
        "olim",
        -8.977153711962655
      ],
      [
        "ceterus",
        -8.97781280185917
      ],
      [
        "hora",
        -8.978127692077955
      ],
      [
        "publius",
        -8.978668487080434
      ],
      [
        "lumen",
        -8.9796045278518
      ],
      [
        "mul",
        -8.980157548399522
      ],
      [
        "uoluntas",
        -8.980749786463484
      ],
      [
        "oro",
        -8.98134721683384
      ],
      [
        "onem",
        -8.982197854413219
      ],
      [
        "multitudo",
        -8.98383137599894
      ],
      [
        "edit",
        -8.98524099428517
      ],
      [
        "subito",
        -8.985742869622772
      ],
      [
        "actus",
        -8.988769167065398
      ],
      [
        "dictum",
        -8.989121925737757
      ],
      [
        "ntibus",
        -8.989268011153392
      ],
      [
        "asia",
        -8.989393602080856
      ],
      [
        "filia",
        -8.991568363180914
      ],
      [
        "ludo",
        -8.991800498396422
      ],
      [
        "bile",
        -8.991853208559935
      ],
      [
        "fore",
        -8.992003593602059
      ],
      [
        "domum",
        -8.993295902570292
      ],
      [
        "dubito",
        -8.994397866945853
      ],
      [
        "hominem",
        -8.994943003338651
      ],
      [
        "etur",
        -8.995041178213178
      ],
      [
        "uinum",
        -8.995826955809475
      ],
      [
        "uro",
        -8.996555055589818
      ],
      [
        "anda",
        -8.996593592314333
      ],
      [
        "optim",
        -8.99696588270481
      ],
      [
        "fru",
        -8.997901855973865
      ],
      [
        "uerus",
        -8.999199418616058
      ],
      [
        "iudica",
        -8.999284945658612
      ],
      [
        "cohors",
        -8.99942948910941
      ],
      [
        "galli",
        -9.000468126312835
      ],
      [
        "horre",
        -9.001063605845403
      ],
      [
        "rumpo",
        -9.001634400335892
      ],
      [
        "memini",
        -9.001735202565289
      ],
      [
        "dicam",
        -9.001747317186604
      ],
      [
        "portet",
        -9.00177893040086
      ],
      [
        "iudici",
        -9.002129914421465
      ],
      [
        "certo",
        -9.003129239972083
      ],
      [
        "iungo",
        -9.005680509058053
      ],
      [
        "sapientia",
        -9.007581807106394
      ],
      [
        "pariter",
        -9.010531274480527
      ],
      [
        "ostendo",
        -9.010877033689887
      ],
      [
        "culo",
        -9.011128616708092
      ],
      [
        "omne",
        -9.011265042300128
      ],
      [
        "animal",
        -9.012118026646156
      ],
      [
        "emo",
        -9.014823562736225
      ],
      [
        "facie",
        -9.015627660912628
      ],
      [
        "misceo",
        -9.020320410863654
      ],
      [
        "decor",
        -9.020373910278138
      ],
      [
        "arte",
        -9.020767157672807
      ],
      [
        "cornu",
        -9.023405851445403
      ],
      [
        "peruenio",
        -9.023894767359593
      ],
      [
        "pretium",
        -9.024099138321887
      ],
      [
        "partem",
        -9.024682933504515
      ],
      [
        "principi",
        -9.0251389955748
      ],
      [
        "ges",
        -9.025301421075667
      ],
      [
        "facies",
        -9.025326979176278
      ],
      [
        "culpa",
        -9.025461365806542
      ],
      [
        "humanus",
        -9.027752107558518
      ],
      [
        "semel",
        -9.028447345130353
      ],
      [
        "uber",
        -9.030704106817321
      ],
      [
        "ictus",
        -9.030767051473628
      ],
      [
        "occido",
        -9.031428936727874
      ],
      [
        "ando",
        -9.031921467458996
      ],
      [
        "tyr",
        -9.032389798832082
      ],
      [
        "pauci",
        -9.032487340424526
      ],
      [
        "hor",
        -9.033577738670694
      ],
      [
        "auris",
        -9.035198847029339
      ],
      [
        "tueor",
        -9.036781426914251
      ],
      [
        "orior",
        -9.037020150214733
      ],
      [
        "ly",
        -9.03705455631841
      ],
      [
        "otium",
        -9.037190067286708
      ],
      [
        "caedes",
        -9.037901387735836
      ],
      [
        "debe",
        -9.040384217255665
      ],
      [
        "frumentum",
        -9.042285058131919
      ],
      [
        "addo",
        -9.04305838614419
      ],
      [
        "exspecto",
        -9.043289163486783
      ],
      [
        "acced",
        -9.043427640684142
      ],
      [
        "cio",
        -9.046656330216827
      ],
      [
        "urbem",
        -9.047306515825744
      ],
      [
        "diem",
        -9.047427604782497
      ],
      [
        "probo",
        -9.048673121021228
      ],
      [
        "ribus",
        -9.049230778568745
      ],
      [
        "cena",
        -9.0496782276177
      ],
      [
        "uirtute",
        -9.050671618474762
      ],
      [
        "classis",
        -9.050990183348556
      ],
      [
        "mala",
        -9.051027246046157
      ],
      [
        "feri",
        -9.051553502092599
      ],
      [
        "tellus",
        -9.051553702459195
      ],
      [
        "fit",
        -9.052384955483365
      ],
      [
        "carmen",
        -9.052786075709392
      ],
      [
        "reliquus",
        -9.053104908776902
      ],
      [
        "sanguine",
        -9.053107153749284
      ],
      [
        "milia",
        -9.05408470460587
      ],
      [
        "alli",
        -9.054741008580523
      ],
      [
        "cant",
        -9.054768919856361
      ],
      [
        "acta",
        -9.056360127753097
      ],
      [
        "opto",
        -9.05664104104722
      ],
      [
        "deos",
        -9.057149670046456
      ],
      [
        "hos",
        -9.057263188828188
      ],
      [
        "ilius",
        -9.057467145291877
      ],
      [
        "tento",
        -9.05900064344046
      ],
      [
        "aequ",
        -9.059775762214318
      ],
      [
        "deser",
        -9.059855723236776
      ],
      [
        "spero",
        -9.060544090943958
      ],
      [
        "queror",
        -9.0615233308358
      ],
      [
        "absum",
        -9.062120285514723
      ],
      [
        "oporte",
        -9.062888086305808
      ],
      [
        "intelleg",
        -9.063650247233985
      ],
      [
        "flor",
        -9.064113123887548
      ],
      [
        "fortass",
        -9.064348686662623
      ],
      [
        "accusator",
        -9.064378234954724
      ],
      [
        "pedes",
        -9.06547549800457
      ],
      [
        "palam",
        -9.066364382135827
      ],
      [
        "meum",
        -9.06708384704801
      ],
      [
        "uersus",
        -9.069730501921697
      ],
      [
        "loca",
        -9.069916999052808
      ],
      [
        "dicta",
        -9.071734103912089
      ],
      [
        "regi",
        -9.073748806881866
      ],
      [
        "audacia",
        -9.073840621702873
      ],
      [
        "ebatur",
        -9.074426339157077
      ],
      [
        "anni",
        -9.07446054460662
      ],
      [
        "defend",
        -9.075247891205283
      ],
      [
        "const",
        -9.075526855601861
      ],
      [
        "terreo",
        -9.075680835887226
      ],
      [
        "nulli",
        -9.077851068554887
      ],
      [
        "界u",
        -9.079067144696182
      ],
      [
        "uestra",
        -9.079408686302457
      ],
      [
        "erro",
        -9.080376578522863
      ],
      [
        "aufero",
        -9.080466079835787
      ],
      [
        "rapio",
        -9.080623410681326
      ],
      [
        "constitu",
        -9.08079868843927
      ],
      [
        "lingua",
        -9.081092077119251
      ],
      [
        "uenire",
        -9.081165893587208
      ],
      [
        "existima",
        -9.081214395614058
      ],
      [
        "ertim",
        -9.08225063401196
      ],
      [
        "perit",
        -9.082950944657394
      ],
      [
        "species",
        -9.08298611669571
      ],
      [
        "nil",
        -9.083892334352848
      ],
      [
        "luce",
        -9.085593323638037
      ],
      [
        "lau",
        -9.085669722981194
      ],
      [
        "ero",
        -9.086316590191414
      ],
      [
        "corpore",
        -9.086822514252823
      ],
      [
        "fugi",
        -9.08705546456335
      ],
      [
        "nullo",
        -9.087191755010775
      ],
      [
        "uera",
        -9.087249325919524
      ],
      [
        "nata",
        -9.088782196679006
      ],
      [
        "facinus",
        -9.089110638597656
      ],
      [
        "singulus",
        -9.090606896978263
      ],
      [
        "aequor",
        -9.092083628837724
      ],
      [
        "premo",
        -9.092473189172836
      ],
      [
        "patri",
        -9.093590288222273
      ],
      [
        "bul",
        -9.09419050378326
      ],
      [
        "pari",
        -9.094549062247038
      ],
      [
        "entur",
        -9.09494053559121
      ],
      [
        "abilis",
        -9.09608487135132
      ],
      [
        "durus",
        -9.096210130027647
      ],
      [
        "eretur",
        -9.09756296520132
      ],
      [
        "hostium",
        -9.097634680814684
      ],
      [
        "aer",
        -9.098014657686177
      ],
      [
        "senatu",
        -9.09818003796719
      ],
      [
        "quadr",
        -9.098275895687635
      ],
      [
        "puta",
        -9.098580252981456
      ],
      [
        "pha",
        -9.099405289413554
      ],
      [
        "illos",
        -9.10250416775558
      ],
      [
        "runt",
        -9.103265997402604
      ],
      [
        "potens",
        -9.103588330729075
      ],
      [
        "auro",
        -9.104093103947413
      ],
      [
        "parti",
        -9.10466364830081
      ],
      [
        "orti",
        -9.104746220211478
      ],
      [
        "romano",
        -9.104955585367726
      ],
      [
        "concedo",
        -9.105703925938933
      ],
      [
        "domina",
        -9.105854646635116
      ],
      [
        "utilis",
        -9.106053356905976
      ],
      [
        "nuper",
        -9.107339765444856
      ],
      [
        "nullum",
        -9.107599429431882
      ],
      [
        "iubet",
        -9.108335467732388
      ],
      [
        "sisto",
        -9.11519575500611
      ],
      [
        "artus",
        -9.115735924655091
      ],
      [
        "impero",
        -9.116097342854285
      ],
      [
        "consilio",
        -9.117231460174592
      ],
      [
        "recte",
        -9.118344108921015
      ],
      [
        "magistratus",
        -9.11849347855981
      ],
      [
        "posco",
        -9.118610229511415
      ],
      [
        "ultra",
        -9.119719300361776
      ],
      [
        "aequus",
        -9.119919338629819
      ],
      [
        "uitam",
        -9.119943038206378
      ],
      [
        "disco",
        -9.121281837037634
      ],
      [
        "negotium",
        -9.121467503098856
      ],
      [
        "illius",
        -9.1243681014084
      ],
      [
        "audit",
        -9.125398082411891
      ],
      [
        "uitae",
        -9.125688016419126
      ],
      [
        "sensus",
        -9.125922444548188
      ],
      [
        "confero",
        -9.126583728932825
      ],
      [
        "uerber",
        -9.129651793803227
      ],
      [
        "dixit",
        -9.130477783418112
      ],
      [
        "iudicio",
        -9.13149953155197
      ],
      [
        "rempublicam",
        -9.131555772764543
      ],
      [
        "scit",
        -9.132773620564434
      ],
      [
        "alii",
        -9.132922910960811
      ],
      [
        "centurio",
        -9.134532360723096
      ],
      [
        "uidi",
        -9.135316140308415
      ],
      [
        "nostris",
        -9.136878887739842
      ],
      [
        "molli",
        -9.137484290175266
      ],
      [
        "cibus",
        -9.137622793977101
      ],
      [
        "dent",
        -9.137770505371524
      ],
      [
        "iura",
        -9.138064608536016
      ],
      [
        "reuert",
        -9.139562532775457
      ],
      [
        "communi",
        -9.1402268425437
      ],
      [
        "ultro",
        -9.141417541354425
      ],
      [
        "alb",
        -9.141890266691792
      ],
      [
        "retineo",
        -9.142296281577465
      ],
      [
        "pleri",
        -9.143529980069436
      ],
      [
        "ebantur",
        -9.144351954209933
      ],
      [
        "contine",
        -9.144833656328608
      ],
      [
        "foedus",
        -9.145567419626362
      ],
      [
        "reus",
        -9.146199427325516
      ],
      [
        "urus",
        -9.146728424734714
      ],
      [
        "notus",
        -9.146807213718064
      ],
      [
        "cupi",
        -9.147038844577096
      ],
      [
        "quintus",
        -9.147233198835472
      ],
      [
        "uersa",
        -9.149843553915144
      ],
      [
        "parat",
        -9.150323002946095
      ],
      [
        "torum",
        -9.152187268389538
      ],
      [
        "seque",
        -9.153632652751963
      ],
      [
        "uestis",
        -9.153764536980667
      ],
      [
        "castris",
        -9.153871803344472
      ],
      [
        "clamor",
        -9.154789761592898
      ],
      [
        "cedere",
        -9.155133858054374
      ],
      [
        "materia",
        -9.155176429076057
      ],
      [
        "uulner",
        -9.155711329425667
      ],
      [
        "tene",
        -9.155852787271654
      ],
      [
        "censeo",
        -9.156480529250231
      ],
      [
        "uigil",
        -9.157017514873571
      ],
      [
        "uidere",
        -9.157218356223154
      ],
      [
        "senator",
        -9.157600979791255
      ],
      [
        "color",
        -9.157767770504488
      ],
      [
        "partim",
        -9.158052760935004
      ],
      [
        "ampli",
        -9.159481898890238
      ],
      [
        "plenus",
        -9.159918259269503
      ],
      [
        "hel",
        -9.160993054607534
      ],
      [
        "proba",
        -9.162063496602475
      ],
      [
        "andi",
        -9.16214917700675
      ],
      [
        "tutus",
        -9.163242949102536
      ],
      [
        "aris",
        -9.1637646571964
      ],
      [
        "modum",
        -9.164310781401912
      ],
      [
        "uelle",
        -9.164314640637528
      ],
      [
        "postulo",
        -9.16514450996008
      ],
      [
        "sequi",
        -9.166103972176945
      ],
      [
        "cogita",
        -9.166916584355658
      ],
      [
        "caesaris",
        -9.167581759841255
      ],
      [
        "sole",
        -9.167859199959878
      ],
      [
        "mittit",
        -9.1678957994288
      ],
      [
        "cuncta",
        -9.168559772317646
      ],
      [
        "auri",
        -9.168699574957849
      ],
      [
        "fecer",
        -9.16961833496876
      ],
      [
        "profecto",
        -9.172153662418683
      ],
      [
        "interficio",
        -9.17221295232569
      ],
      [
        "pate",
        -9.17443645187662
      ],
      [
        "comes",
        -9.176073114596758
      ],
      [
        "immortalis",
        -9.17736161477673
      ],
      [
        "posteri",
        -9.178882277642296
      ],
      [
        "troia",
        -9.178952930495477
      ],
      [
        "excipio",
        -9.17930726405946
      ],
      [
        "ntis",
        -9.180005250589682
      ],
      [
        "prius",
        -9.180283642302715
      ],
      [
        "herba",
        -9.180774789358022
      ],
      [
        "sese",
        -9.182935763741751
      ],
      [
        "metuo",
        -9.183247330003883
      ],
      [
        "fidem",
        -9.183842889409863
      ],
      [
        "uereor",
        -9.184005249971364
      ],
      [
        "supplicium",
        -9.18627717729555
      ],
      [
        "petit",
        -9.186301195699802
      ],
      [
        "misit",
        -9.18814794070123
      ],
      [
        "uotum",
        -9.188427298457341
      ],
      [
        "alio",
        -9.189198001298573
      ],
      [
        "proficiscor",
        -9.190106379289308
      ],
      [
        "aequo",
        -9.19064272236249
      ],
      [
        "plebs",
        -9.190993516422127
      ],
      [
        "mali",
        -9.192320977340927
      ],
      [
        "magnum",
        -9.195224203907843
      ],
      [
        "conci",
        -9.195238373424566
      ],
      [
        "potentia",
        -9.19525135762887
      ],
      [
        "scipio",
        -9.195414029065642
      ],
      [
        "fas",
        -9.196767677017661
      ],
      [
        "praesens",
        -9.197182902349812
      ],
      [
        "ecce",
        -9.197777404530086
      ],
      [
        "sceler",
        -9.198133952872414
      ],
      [
        "quies",
        -9.198281530255267
      ],
      [
        "interea",
        -9.198528931597956
      ],
      [
        "argentum",
        -9.199468860004853
      ],
      [
        "saxum",
        -9.199511925091029
      ],
      [
        "repente",
        -9.199972797926193
      ],
      [
        "priuatus",
        -9.2019419504264
      ],
      [
        "ministr",
        -9.202336418740309
      ],
      [
        "piso",
        -9.203969294326061
      ],
      [
        "uici",
        -9.203970748985991
      ],
      [
        "decem",
        -9.204135790982015
      ],
      [
        "circa",
        -9.204140585301083
      ],
      [
        "turbo",
        -9.204845494986502
      ],
      [
        "itium",
        -9.205140133544063
      ],
      [
        "aliqua",
        -9.206465421151686
      ],
      [
        "facilis",
        -9.207382314762963
      ],
      [
        "nimium",
        -9.208361750120677
      ],
      [
        "hercules",
        -9.208731924992914
      ],
      [
        "nimi",
        -9.211032203904765
      ],
      [
        "perdo",
        -9.21120890838689
      ],
      [
        "aliis",
        -9.211606467112745
      ],
      [
        "libido",
        -9.214678431146133
      ],
      [
        "frustra",
        -9.21478428164275
      ],
      [
        "fateor",
        -9.215736983731002
      ],
      [
        "caeli",
        -9.215920217561651
      ],
      [
        "issimo",
        -9.216474450485101
      ],
      [
        "praemium",
        -9.216676170267824
      ],
      [
        "cerno",
        -9.2171128260738
      ],
      [
        "surgo",
        -9.218229129393944
      ],
      [
        "signo",
        -9.21919676258836
      ],
      [
        "magnitudo",
        -9.221005102749213
      ],
      [
        "arator",
        -9.221272336091857
      ],
      [
        "reperio",
        -9.22210082059934
      ],
      [
        "abeo",
        -9.22210413410937
      ],
      [
        "antea",
        -9.22363428922515
      ],
      [
        "studio",
        -9.223906595290199
      ],
      [
        "secundus",
        -9.225541163449734
      ],
      [
        "rap",
        -9.22637774443426
      ],
      [
        "stip",
        -9.226522952453639
      ],
      [
        "antequam",
        -9.227109830279907
      ],
      [
        "suis",
        -9.227215766068781
      ],
      [
        "tertius",
        -9.228291580370998
      ],
      [
        "uena",
        -9.228501140266998
      ],
      [
        "bella",
        -9.229376870778154
      ],
      [
        "auaritia",
        -9.22974774038288
      ],
      [
        "moenia",
        -9.229752001390645
      ],
      [
        "pompei",
        -9.230190683141055
      ],
      [
        "pecus",
        -9.231038299989983
      ],
      [
        "suae",
        -9.233684299424718
      ],
      [
        "mentis",
        -9.234086132820398
      ],
      [
        "iterum",
        -9.235010323749751
      ],
      [
        "sedes",
        -9.235079105846783
      ],
      [
        "lacer",
        -9.235387790053919
      ],
      [
        "ilio",
        -9.235661411449845
      ],
      [
        "decet",
        -9.235739535765399
      ],
      [
        "uidetur",
        -9.236968395672688
      ],
      [
        "occid",
        -9.237724855102597
      ],
      [
        "celer",
        -9.240507168825077
      ],
      [
        "coniux",
        -9.240780341818246
      ],
      [
        "campus",
        -9.240784647685949
      ],
      [
        "nol",
        -9.24194351586634
      ],
      [
        "conuenio",
        -9.243747598906216
      ],
      [
        "loqu",
        -9.24397820641284
      ],
      [
        "somnus",
        -9.24535756270131
      ],
      [
        "oculos",
        -9.246398201450624
      ],
      [
        "erga",
        -9.246722786535678
      ],
      [
        "impono",
        -9.246956670787466
      ],
      [
        "transeo",
        -9.247940766900022
      ],
      [
        "isto",
        -9.24952929510221
      ],
      [
        "arbitr",
        -9.249607008657925
      ],
      [
        "uersor",
        -9.249975938915256
      ],
      [
        "stru",
        -9.250278821100352
      ],
      [
        "negoti",
        -9.251031113574422
      ],
      [
        "cquid",
        -9.253376471202046
      ],
      [
        "sacra",
        -9.253524016685933
      ],
      [
        "condicio",
        -9.254282656239411
      ],
      [
        "nimis",
        -9.254368392133468
      ],
      [
        "republica",
        -9.257987229358841
      ],
      [
        "numen",
        -9.258004432603993
      ],
      [
        "ssent",
        -9.258203833463483
      ],
      [
        "moror",
        -9.259076268607474
      ],
      [
        "idae",
        -9.26072801228975
      ],
      [
        "mitte",
        -9.260869946664886
      ],
      [
        "maxima",
        -9.260956577925327
      ],
      [
        "ducere",
        -9.262381751644707
      ],
      [
        "alexand",
        -9.262447910826435
      ],
      [
        "sane",
        -9.262448050335497
      ],
      [
        "africa",
        -9.262572352444103
      ],
      [
        "asse",
        -9.263048999093558
      ],
      [
        "posita",
        -9.264378501293633
      ],
      [
        "iuuo",
        -9.264911762284072
      ],
      [
        "uarius",
        -9.26501920852499
      ],
      [
        "accipi",
        -9.266890974889357
      ],
      [
        "mortem",
        -9.26745382536487
      ],
      [
        "auctoritate",
        -9.267834882656551
      ],
      [
        "pecc",
        -9.268270533172709
      ],
      [
        "corpora",
        -9.270599379808175
      ],
      [
        "amitto",
        -9.270843118059627
      ],
      [
        "credi",
        -9.27138394035854
      ],
      [
        "recus",
        -9.27149250085311
      ],
      [
        "heu",
        -9.271563967615219
      ],
      [
        "bili",
        -9.273551126018432
      ],
      [
        "nostro",
        -9.274559548072537
      ],
      [
        "insula",
        -9.276251444784222
      ],
      [
        "pice",
        -9.279380530843719
      ],
      [
        "augeo",
        -9.27942810252297
      ],
      [
        "aude",
        -9.28006021091598
      ],
      [
        "ciuilis",
        -9.280665088219097
      ],
      [
        "legi",
        -9.281551969146678
      ],
      [
        "paratus",
        -9.281925867137847
      ],
      [
        "dextera",
        -9.283444140113772
      ],
      [
        "urum",
        -9.285545867167718
      ],
      [
        "condemn",
        -9.28687407611656
      ],
      [
        "defensio",
        -9.288532699068554
      ],
      [
        "cupiditas",
        -9.288573794735665
      ],
      [
        "amnis",
        -9.28948790269827
      ],
      [
        "issimi",
        -9.290321729375606
      ],
      [
        "nomina",
        -9.290397396294933
      ],
      [
        "senectu",
        -9.29057140214324
      ],
      [
        "uito",
        -9.290702715225603
      ],
      [
        "carus",
        -9.290705344725689
      ],
      [
        "lice",
        -9.29071436760777
      ],
      [
        "ordin",
        -9.290893419409123
      ],
      [
        "mira",
        -9.2911454961225
      ],
      [
        "andum",
        -9.292738823216425
      ],
      [
        "frons",
        -9.293183654076174
      ],
      [
        "porro",
        -9.293420574384186
      ],
      [
        "ripa",
        -9.29417663381553
      ],
      [
        "milites",
        -9.294297218657082
      ],
      [
        "longa",
        -9.29554787517044
      ],
      [
        "animos",
        -9.29558193882422
      ],
      [
        "curo",
        -9.29571614606995
      ],
      [
        "statuo",
        -9.295801794683992
      ],
      [
        "ueter",
        -9.297359941615147
      ],
      [
        "dicit",
        -9.298211770206914
      ],
      [
        "mortalis",
        -9.299221820922213
      ],
      [
        "has",
        -9.299562248476885
      ],
      [
        "committo",
        -9.299872894596927
      ],
      [
        "exigo",
        -9.300517097913826
      ],
      [
        "gressus",
        -9.300802484584722
      ],
      [
        "damno",
        -9.301737221192766
      ],
      [
        "iustus",
        -9.305463498266265
      ],
      [
        "enses",
        -9.307290443236521
      ],
      [
        "catilina",
        -9.307314969008251
      ],
      [
        "saeuus",
        -9.307331391255602
      ],
      [
        "decus",
        -9.307378042521297
      ],
      [
        "tectum",
        -9.307472731923822
      ],
      [
        "potuit",
        -9.310406456741784
      ],
      [
        "nitor",
        -9.31111079038508
      ],
      [
        "culus",
        -9.311777860361566
      ],
      [
        "refert",
        -9.311801684149145
      ],
      [
        "terror",
        -9.31314251726641
      ],
      [
        "publica",
        -9.313869281476725
      ],
      [
        "uendo",
        -9.314741277705984
      ],
      [
        "commodum",
        -9.315579251944119
      ],
      [
        "cano",
        -9.316128102413389
      ],
      [
        "patr",
        -9.316941557919893
      ],
      [
        "flumin",
        -9.317331612586536
      ],
      [
        "statu",
        -9.31826618261222
      ],
      [
        "gnaeu",
        -9.319509034483133
      ],
      [
        "ineo",
        -9.31961678051293
      ],
      [
        "testimonium",
        -9.319680277465775
      ],
      [
        "militum",
        -9.321718998157587
      ],
      [
        "odi",
        -9.32190575240518
      ],
      [
        "oculis",
        -9.323005913195258
      ],
      [
        "iugum",
        -9.32408955784671
      ],
      [
        "interdum",
        -9.3247086076723
      ],
      [
        "ordine",
        -9.325214663238114
      ],
      [
        "inuitus",
        -9.326206163563532
      ],
      [
        "uall",
        -9.326413446919004
      ],
      [
        "honesta",
        -9.326504598618614
      ],
      [
        "pia",
        -9.32702568926956
      ],
      [
        "uerso",
        -9.327950571639922
      ],
      [
        "irasc",
        -9.328189700931386
      ],
      [
        "ambitio",
        -9.328298360714273
      ],
      [
        "med",
        -9.328897092799885
      ],
      [
        "occupo",
        -9.330566292218002
      ],
      [
        "tela",
        -9.330693238459379
      ],
      [
        "uirgo",
        -9.331003927069744
      ],
      [
        "mollis",
        -9.331179647714805
      ],
      [
        "torqueo",
        -9.331814246393773
      ],
      [
        "suscipio",
        -9.332510494567593
      ],
      [
        "fallo",
        -9.33391208771433
      ],
      [
        "ilium",
        -9.334036179561657
      ],
      [
        "coma",
        -9.334665282830269
      ],
      [
        "lac",
        -9.335206843487379
      ],
      [
        "onus",
        -9.335838746550838
      ],
      [
        "omnem",
        -9.33608169463392
      ],
      [
        "uisset",
        -9.336115964932137
      ],
      [
        "arce",
        -9.336598966990625
      ],
      [
        "quirite",
        -9.337027429529698
      ],
      [
        "consuetudo",
        -9.338642944908633
      ],
      [
        "ico",
        -9.338957566512708
      ],
      [
        "uitelliu",
        -9.341905543763218
      ],
      [
        "imperi",
        -9.341944514828516
      ],
      [
        "undo",
        -9.341991870990244
      ],
      [
        "familiaris",
        -9.342196197784947
      ],
      [
        "efficio",
        -9.34287987185806
      ],
      [
        "menti",
        -9.34345318559445
      ],
      [
        "fug",
        -9.345508091668929
      ],
      [
        "contentus",
        -9.346021944288806
      ],
      [
        "totum",
        -9.346198852996253
      ],
      [
        "uect",
        -9.346648734873224
      ],
      [
        "breuis",
        -9.346851558873427
      ],
      [
        "roga",
        -9.346932495244975
      ],
      [
        "amore",
        -9.349488921187191
      ],
      [
        "tribuo",
        -9.350541859602883
      ],
      [
        "quot",
        -9.35115918115159
      ],
      [
        "figo",
        -9.352602335014033
      ],
      [
        "serua",
        -9.353156599546892
      ],
      [
        "accido",
        -9.353729516069727
      ],
      [
        "contio",
        -9.354186976126826
      ],
      [
        "medio",
        -9.354413658365829
      ],
      [
        "exit",
        -9.354821354410388
      ],
      [
        "fecisse",
        -9.354968260414473
      ],
      [
        "ample",
        -9.3549914216447
      ],
      [
        "obici",
        -9.355784443018749
      ],
      [
        "noui",
        -9.355891993136613
      ],
      [
        "tempta",
        -9.356032072140184
      ],
      [
        "diues",
        -9.357907963820976
      ],
      [
        "integer",
        -9.35849821902451
      ],
      [
        "uideri",
        -9.358569957848669
      ],
      [
        "fuerit",
        -9.359204809665421
      ],
      [
        "meis",
        -9.359466323154347
      ],
      [
        "urbis",
        -9.361257761065714
      ],
      [
        "aeneas",
        -9.362423602120366
      ],
      [
        "hortor",
        -9.363144387622892
      ],
      [
        "iube",
        -9.363242602254996
      ],
      [
        "pecuniam",
        -9.363992584004105
      ],
      [
        "passu",
        -9.364033667578031
      ],
      [
        "antia",
        -9.366109065657358
      ],
      [
        "tant",
        -9.366207201447551
      ],
      [
        "quaestor",
        -9.368254222989272
      ],
      [
        "istic",
        -9.368337701229613
      ],
      [
        "prohibeo",
        -9.368735351855484
      ],
      [
        "imago",
        -9.369041105933018
      ],
      [
        "libero",
        -9.369049028554391
      ],
      [
        "issimum",
        -9.369427694847968
      ],
      [
        "porto",
        -9.370322085407334
      ],
      [
        "trepid",
        -9.370480282119658
      ],
      [
        "germani",
        -9.371433555937415
      ],
      [
        "curia",
        -9.372148067582733
      ],
      [
        "incipio",
        -9.372488463246546
      ],
      [
        "decerno",
        -9.372908284687373
      ],
      [
        "tenuis",
        -9.372937672957402
      ],
      [
        "contumelia",
        -9.373515900731578
      ],
      [
        "constantia",
        -9.374146067065606
      ],
      [
        "clau",
        -9.375455066744813
      ],
      [
        "recens",
        -9.375773534028749
      ],
      [
        "barbarus",
        -9.376247934735236
      ],
      [
        "centum",
        -9.378026519485761
      ],
      [
        "improbus",
        -9.378606895884415
      ],
      [
        "sacrum",
        -9.37956194343447
      ],
      [
        "uento",
        -9.380199551851428
      ],
      [
        "annos",
        -9.380628481029675
      ],
      [
        "acri",
        -9.382007346510331
      ],
      [
        "pertineo",
        -9.38211223324325
      ],
      [
        "seditio",
        -9.382840286267225
      ],
      [
        "aure",
        -9.3829163992011
      ],
      [
        "diligentia",
        -9.383228704188188
      ],
      [
        "dixi",
        -9.383624617537428
      ],
      [
        "horum",
        -9.383835196506105
      ],
      [
        "custos",
        -9.38387975725578
      ],
      [
        "quicquam",
        -9.384336509390842
      ],
      [
        "dubita",
        -9.384624712024644
      ],
      [
        "melior",
        -9.386175080076164
      ],
      [
        "agri",
        -9.386487393209713
      ],
      [
        "digna",
        -9.38809653382225
      ],
      [
        "portus",
        -9.388485963064955
      ],
      [
        "exitu",
        -9.38856145903451
      ],
      [
        "institu",
        -9.389007777861696
      ],
      [
        "aspicio",
        -9.389738542065441
      ],
      [
        "nesci",
        -9.389831864150784
      ],
      [
        "numera",
        -9.390441741182903
      ],
      [
        "pulcher",
        -9.39055624060532
      ],
      [
        "uitelli",
        -9.390567852354057
      ],
      [
        "sono",
        -9.391483970005563
      ],
      [
        "utinam",
        -9.392186146854074
      ],
      [
        "impedi",
        -9.394184009287791
      ],
      [
        "patres",
        -9.394471398591953
      ],
      [
        "odor",
        -9.397066770830936
      ],
      [
        "regna",
        -9.397684342621652
      ],
      [
        "pedi",
        -9.398404602856374
      ],
      [
        "pect",
        -9.39852258604641
      ],
      [
        "tiberius",
        -9.39861994742035
      ],
      [
        "compono",
        -9.399121691863156
      ],
      [
        "orbe",
        -9.399415296983216
      ],
      [
        "error",
        -9.400873710310297
      ],
      [
        "ponere",
        -9.401161155480303
      ],
      [
        "corporis",
        -9.401405874726287
      ],
      [
        "offici",
        -9.402058517141151
      ],
      [
        "reprehend",
        -9.402421882230342
      ],
      [
        "dulcis",
        -9.402571375839308
      ],
      [
        "gaudeo",
        -9.403884340069691
      ],
      [
        "consule",
        -9.404353290538724
      ],
      [
        "data",
        -9.405337636403758
      ],
      [
        "pone",
        -9.405442262324353
      ],
      [
        "fen",
        -9.405561548099053
      ],
      [
        "opta",
        -9.405763820712496
      ],
      [
        "discedo",
        -9.406273453274196
      ],
      [
        "uidet",
        -9.407934209213519
      ],
      [
        "quanta",
        -9.40800287920576
      ],
      [
        "uirum",
        -9.408361754153102
      ],
      [
        "ingratus",
        -9.408565062970267
      ],
      [
        "toler",
        -9.408611218615416
      ],
      [
        "ntium",
        -9.408728763074643
      ],
      [
        "regem",
        -9.40933320618177
      ],
      [
        "consist",
        -9.410108883154411
      ],
      [
        "dona",
        -9.410177999242576
      ],
      [
        "sedeo",
        -9.410856656086004
      ],
      [
        "augustu",
        -9.4123017314689
      ],
      [
        "mundus",
        -9.41249814145884
      ],
      [
        "media",
        -9.412574448232466
      ],
      [
        "ationem",
        -9.413067608535036
      ],
      [
        "equitatus",
        -9.415264514342105
      ],
      [
        "celeriter",
        -9.415438255916941
      ],
      [
        "pertine",
        -9.416839647188333
      ],
      [
        "leui",
        -9.417658017389819
      ],
      [
        "exercitu",
        -9.418269524577456
      ],
      [
        "lecti",
        -9.418546260231352
      ],
      [
        "felicita",
        -9.419177345387782
      ],
      [
        "sinus",
        -9.419515714758809
      ],
      [
        "publice",
        -9.4202165507185
      ],
      [
        "merc",
        -9.420277271725599
      ],
      [
        "tergum",
        -9.420683878195021
      ],
      [
        "scis",
        -9.421498350590412
      ],
      [
        "firm",
        -9.421678606867879
      ],
      [
        "rideo",
        -9.42207288532355
      ],
      [
        "dono",
        -9.422707233228873
      ],
      [
        "defero",
        -9.4235887880882
      ],
      [
        "uerbis",
        -9.42370853029494
      ],
      [
        "fert",
        -9.423958868441849
      ],
      [
        "aliquo",
        -9.424304306229189
      ],
      [
        "uisti",
        -9.42487548490444
      ],
      [
        "enni",
        -9.42502673334325
      ],
      [
        "imit",
        -9.425583729444885
      ],
      [
        "equites",
        -9.425653904507108
      ],
      [
        "statua",
        -9.425741848767657
      ],
      [
        "auus",
        -9.425775927521407
      ],
      [
        "neue",
        -9.425989745140576
      ],
      [
        "orna",
        -9.4259963252292
      ],
      [
        "ignosc",
        -9.42873188334352
      ],
      [
        "grati",
        -9.428830404865973
      ],
      [
        "appar",
        -9.429358060705669
      ],
      [
        "bonis",
        -9.429532596172905
      ],
      [
        "issime",
        -9.431882601316119
      ],
      [
        "ueri",
        -9.43301754156235
      ],
      [
        "antoni",
        -9.434577924856029
      ],
      [
        "nati",
        -9.434803135557505
      ],
      [
        "iussit",
        -9.43484205228929
      ],
      [
        "manibus",
        -9.434934169976238
      ],
      [
        "commemor",
        -9.435195924632758
      ],
      [
        "spons",
        -9.43530212187793
      ],
      [
        "opinio",
        -9.435985244108158
      ],
      [
        "superior",
        -9.436687655708342
      ],
      [
        "pra",
        -9.436757679404684
      ],
      [
        "alios",
        -9.43689246508594
      ],
      [
        "legiones",
        -9.437208926098577
      ],
      [
        "stis",
        -9.437589248484763
      ],
      [
        "graui",
        -9.43763443698556
      ],
      [
        "condo",
        -9.437695269535869
      ],
      [
        "app",
        -9.43781898512422
      ],
      [
        "imperio",
        -9.43784396731224
      ],
      [
        "flu",
        -9.438506293109693
      ],
      [
        "itiner",
        -9.438626010529859
      ],
      [
        "mil",
        -9.439147222623937
      ],
      [
        "retine",
        -9.439496551875227
      ],
      [
        "habent",
        -9.439542823076566
      ],
      [
        "actio",
        -9.440190105017486
      ],
      [
        "iratus",
        -9.441144950785906
      ],
      [
        "tuae",
        -9.441210565745306
      ],
      [
        "pauper",
        -9.443097356831771
      ],
      [
        "palla",
        -9.44332396384194
      ],
      [
        "graue",
        -9.443409459278316
      ],
      [
        "orator",
        -9.443654779710911
      ],
      [
        "exeo",
        -9.44412834668248
      ],
      [
        "fluo",
        -9.444202650426949
      ],
      [
        "noceo",
        -9.444473744170029
      ],
      [
        "abant",
        -9.445414706041673
      ],
      [
        "erra",
        -9.446835128381526
      ],
      [
        "cotidie",
        -9.447137726748323
      ],
      [
        "perfect",
        -9.447165624103919
      ],
      [
        "cunct",
        -9.44719034302346
      ],
      [
        "triumph",
        -9.447263498378472
      ],
      [
        "frango",
        -9.449178238222009
      ],
      [
        "adduco",
        -9.449450548545272
      ],
      [
        "aedes",
        -9.449480764290167
      ],
      [
        "pisc",
        -9.449781439936164
      ],
      [
        "adolescen",
        -9.449860183989983
      ],
      [
        "membrum",
        -9.44986865433269
      ],
      [
        "contingo",
        -9.449998829636815
      ],
      [
        "dixer",
        -9.451761445794546
      ],
      [
        "facti",
        -9.451857390294101
      ],
      [
        "pietas",
        -9.45537983940027
      ],
      [
        "loqui",
        -9.457021687264426
      ],
      [
        "cultus",
        -9.4580599527147
      ],
      [
        "possunt",
        -9.458145216529303
      ],
      [
        "gaudium",
        -9.458162850695334
      ],
      [
        "colonia",
        -9.458283052420763
      ],
      [
        "olli",
        -9.458408494076746
      ],
      [
        "exercitum",
        -9.458931823399436
      ],
      [
        "refer",
        -9.460242249788074
      ],
      [
        "fugit",
        -9.460352454871229
      ],
      [
        "argi",
        -9.461095746010216
      ],
      [
        "finit",
        -9.46115021965814
      ],
      [
        "ratis",
        -9.461278696163735
      ],
      [
        "istius",
        -9.461735288978453
      ],
      [
        "poeta",
        -9.461921954891409
      ],
      [
        "sidera",
        -9.462196644424274
      ],
      [
        "debet",
        -9.463460136947607
      ],
      [
        "ueh",
        -9.463976494073705
      ],
      [
        "cresco",
        -9.464052350495445
      ],
      [
        "merito",
        -9.465056829880625
      ],
      [
        "sustineo",
        -9.465315822592355
      ],
      [
        "aptus",
        -9.465813238830425
      ],
      [
        "sagitta",
        -9.465881977291545
      ],
      [
        "contemno",
        -9.466284077765662
      ],
      [
        "morbus",
        -9.466792951593611
      ],
      [
        "bos",
        -9.467029652800061
      ],
      [
        "caede",
        -9.470422462320407
      ],
      [
        "haereo",
        -9.470552114911671
      ],
      [
        "aeus",
        -9.471260709685012
      ],
      [
        "murus",
        -9.471267491689265
      ],
      [
        "longi",
        -9.471594135304073
      ],
      [
        "egit",
        -9.472737437455496
      ],
      [
        "uerres",
        -9.473049255854873
      ],
      [
        "gul",
        -9.473217824265596
      ],
      [
        "coepit",
        -9.474112849933555
      ],
      [
        "melius",
        -9.474375489365652
      ],
      [
        "pondus",
        -9.474783518935318
      ],
      [
        "mensa",
        -9.474833310762133
      ],
      [
        "protinus",
        -9.474957708069862
      ],
      [
        "stringo",
        -9.475560125064074
      ],
      [
        "rationem",
        -9.475813752167593
      ],
      [
        "commend",
        -9.476084623372534
      ],
      [
        "hominis",
        -9.476328023508241
      ],
      [
        "mone",
        -9.477258882599935
      ],
      [
        "morte",
        -9.478661308397044
      ],
      [
        "labe",
        -9.479212705757735
      ],
      [
        "nefas",
        -9.479413681250755
      ],
      [
        "sors",
        -9.480024666637004
      ],
      [
        "uehementer",
        -9.480426098336633
      ],
      [
        "fluctus",
        -9.481326128250581
      ],
      [
        "desero",
        -9.48284306938924
      ],
      [
        "ualidus",
        -9.483534085419723
      ],
      [
        "alta",
        -9.483799098471808
      ],
      [
        "uictus",
        -9.4840460937397
      ],
      [
        "potes",
        -9.484398071576944
      ],
      [
        "diligenter",
        -9.48608482092462
      ],
      [
        "rectus",
        -9.486582502994171
      ],
      [
        "tract",
        -9.48837137270931
      ],
      [
        "nato",
        -9.4886040270593
      ],
      [
        "tempestas",
        -9.488925172818131
      ],
      [
        "uulgus",
        -9.489406352698184
      ],
      [
        "ala",
        -9.49018420533634
      ],
      [
        "expedit",
        -9.490265564156747
      ],
      [
        "quaestio",
        -9.490267648806105
      ],
      [
        "clamo",
        -9.4918219745059
      ],
      [
        "scire",
        -9.491873289664529
      ],
      [
        "ratus",
        -9.492921875470488
      ],
      [
        "carmin",
        -9.49360052194826
      ],
      [
        "deduco",
        -9.493790905959411
      ],
      [
        "libenter",
        -9.494637154348844
      ],
      [
        "tango",
        -9.495715469262237
      ],
      [
        "moneo",
        -9.495787859456996
      ],
      [
        "militia",
        -9.496402024411427
      ],
      [
        "toto",
        -9.496584700382623
      ],
      [
        "lectus",
        -9.49694121069563
      ],
      [
        "praebeo",
        -9.497073903820866
      ],
      [
        "conficio",
        -9.497664794895483
      ],
      [
        "sylla",
        -9.497801309690049
      ],
      [
        "responde",
        -9.499016315575208
      ],
      [
        "quaeso",
        -9.50000022398319
      ],
      [
        "difficilis",
        -9.50027199218698
      ],
      [
        "beatus",
        -9.500711743799265
      ],
      [
        "sanus",
        -9.50073463838454
      ],
      [
        "posc",
        -9.501030786227144
      ],
      [
        "prudentia",
        -9.501661575151882
      ],
      [
        "ungu",
        -9.501799563727573
      ],
      [
        "uter",
        -9.501865373416205
      ],
      [
        "ponte",
        -9.50244025508292
      ],
      [
        "suas",
        -9.503298049690851
      ],
      [
        "futurum",
        -9.503359459496505
      ],
      [
        "pergo",
        -9.503711097069068
      ],
      [
        "fle",
        -9.504161908223015
      ],
      [
        "crudelis",
        -9.504173577510072
      ],
      [
        "moles",
        -9.505133729140933
      ],
      [
        "dubi",
        -9.50539949264174
      ],
      [
        "genere",
        -9.505634208845448
      ],
      [
        "falsus",
        -9.506150795136309
      ],
      [
        "prosum",
        -9.506202268027039
      ],
      [
        "muta",
        -9.506372151863435
      ],
      [
        "dimitto",
        -9.507090507574297
      ],
      [
        "uilla",
        -9.508057975291273
      ],
      [
        "promitto",
        -9.508270677318524
      ],
      [
        "condit",
        -9.508386532870633
      ],
      [
        "diuus",
        -9.508388543838901
      ],
      [
        "capti",
        -9.508706005727404
      ],
      [
        "sola",
        -9.509645449054695
      ],
      [
        "alium",
        -9.50968672020037
      ],
      [
        "ciuium",
        -9.51013894645282
      ],
      [
        "crede",
        -9.510319651339838
      ],
      [
        "hospes",
        -9.510580204851916
      ],
      [
        "animaduert",
        -9.512057340148099
      ],
      [
        "unius",
        -9.512254686139295
      ],
      [
        "corona",
        -9.51261108187349
      ],
      [
        "repeto",
        -9.512845454069847
      ],
      [
        "regia",
        -9.513609144476439
      ],
      [
        "ducit",
        -9.513770567780995
      ],
      [
        "dura",
        -9.51426156928887
      ],
      [
        "cidit",
        -9.514519770216118
      ],
      [
        "cogitatio",
        -9.514967471883102
      ],
      [
        "trahe",
        -9.51519696118635
      ],
      [
        "caesarem",
        -9.51520295250861
      ],
      [
        "tanti",
        -9.517275034589925
      ],
      [
        "antibus",
        -9.517768160119584
      ],
      [
        "possessio",
        -9.518194987132354
      ],
      [
        "aether",
        -9.518612438711543
      ],
      [
        "ales",
        -9.520001988399953
      ],
      [
        "tenu",
        -9.520279885597546
      ],
      [
        "essent",
        -9.520679078836562
      ],
      [
        "capi",
        -9.521786701484512
      ],
      [
        "experior",
        -9.522196716743231
      ],
      [
        "donum",
        -9.522333935624568
      ],
      [
        "contendo",
        -9.523227781630222
      ],
      [
        "ciue",
        -9.523776935771295
      ],
      [
        "aret",
        -9.523796999010305
      ],
      [
        "ianus",
        -9.52385106430766
      ],
      [
        "tiberi",
        -9.5243209291275
      ],
      [
        "arent",
        -9.52448224859673
      ],
      [
        "cras",
        -9.525648871410755
      ],
      [
        "tibus",
        -9.527583267121077
      ],
      [
        "paulatim",
        -9.529569817594822
      ],
      [
        "necessarius",
        -9.529571628646625
      ],
      [
        "lato",
        -9.531790030101968
      ],
      [
        "ipsis",
        -9.53222404571038
      ],
      [
        "claudo",
        -9.532517464992054
      ],
      [
        "agito",
        -9.532560489642268
      ],
      [
        "ultimus",
        -9.532897793421274
      ],
      [
        "fingo",
        -9.533881714139763
      ],
      [
        "llus",
        -9.534246042273427
      ],
      [
        "spiritus",
        -9.534329442144434
      ],
      [
        "meae",
        -9.53458619055858
      ],
      [
        "contineo",
        -9.53528542107572
      ],
      [
        "necessitas",
        -9.535521737819103
      ],
      [
        "petere",
        -9.535547408205694
      ],
      [
        "nunti",
        -9.53618065394079
      ],
      [
        "custodia",
        -9.536448170076728
      ],
      [
        "tris",
        -9.53767836469371
      ],
      [
        "urbi",
        -9.537871077527422
      ],
      [
        "laude",
        -9.538368328449732
      ],
      [
        "praeceps",
        -9.538498274730884
      ],
      [
        "turpi",
        -9.538946249139162
      ],
      [
        "senatum",
        -9.539049505833361
      ],
      [
        "cepit",
        -9.539804340435426
      ],
      [
        "adicio",
        -9.539982274170598
      ],
      [
        "simum",
        -9.54029323592544
      ],
      [
        "explic",
        -9.542207554149694
      ],
      [
        "datur",
        -9.543177580414085
      ],
      [
        "fatig",
        -9.54561017910434
      ],
      [
        "priu",
        -9.546234006115311
      ],
      [
        "uene",
        -9.54623896761331
      ],
      [
        "meam",
        -9.546440836895009
      ],
      [
        "fleo",
        -9.54691059243289
      ],
      [
        "bar",
        -9.5470277310529
      ],
      [
        "ceteris",
        -9.547417776382538
      ],
      [
        "pinor",
        -9.547434063334581
      ],
      [
        "iustitia",
        -9.547548735539134
      ],
      [
        "uiros",
        -9.548204537395218
      ],
      [
        "uesti",
        -9.548262136366805
      ],
      [
        "tulisse",
        -9.549053272686425
      ],
      [
        "desino",
        -9.550039593499417
      ],
      [
        "arti",
        -9.550187606043327
      ],
      [
        "creta",
        -9.550358850853677
      ],
      [
        "medi",
        -9.550509428063965
      ],
      [
        "regis",
        -9.550825644077815
      ],
      [
        "didit",
        -9.551228380366553
      ],
      [
        "sestertiu",
        -9.551397688351358
      ],
      [
        "careo",
        -9.551484800820923
      ],
      [
        "ponit",
        -9.552771427062337
      ],
      [
        "nuntius",
        -9.553069658402741
      ],
      [
        "hostem",
        -9.55341232233358
      ],
      [
        "tuler",
        -9.553803673898908
      ],
      [
        "auidus",
        -9.553825911549051
      ],
      [
        "locis",
        -9.55418185617161
      ],
      [
        "compl",
        -9.55434476555911
      ],
      [
        "iones",
        -9.55486075608393
      ],
      [
        "caelo",
        -9.555215448906804
      ],
      [
        "posterus",
        -9.555743700730895
      ],
      [
        "rapi",
        -9.556816412680131
      ],
      [
        "uidit",
        -9.556934253703535
      ],
      [
        "dimic",
        -9.558671831527525
      ],
      [
        "ueto",
        -9.558766911221975
      ],
      [
        "pluri",
        -9.55964016909802
      ],
      [
        "uerant",
        -9.559682653007842
      ],
      [
        "mitta",
        -9.559747303599808
      ],
      [
        "impl",
        -9.560132969546448
      ],
      [
        "uinci",
        -9.560151968385755
      ],
      [
        "edo",
        -9.560321126623561
      ],
      [
        "acti",
        -9.560324239084736
      ],
      [
        "fructus",
        -9.560962761748849
      ],
      [
        "certi",
        -9.561990796600337
      ],
      [
        "inopia",
        -9.562347580982856
      ],
      [
        "sensi",
        -9.562446240077676
      ],
      [
        "dignitate",
        -9.5627094458539
      ],
      [
        "nudus",
        -9.562711114183212
      ],
      [
        "norum",
        -9.564922071161646
      ],
      [
        "mel",
        -9.565079837283832
      ],
      [
        "hasta",
        -9.566002854933785
      ],
      [
        "permitto",
        -9.566773715553653
      ],
      [
        "mento",
        -9.567185327933533
      ],
      [
        "uoluo",
        -9.56791593680867
      ],
      [
        "cupido",
        -9.568103136794985
      ],
      [
        "formi",
        -9.56934072380905
      ],
      [
        "metellus",
        -9.56987535088832
      ],
      [
        "ingenio",
        -9.57002908077362
      ],
      [
        "caueo",
        -9.570881490027038
      ],
      [
        "intersum",
        -9.571720508886054
      ],
      [
        "eloquentia",
        -9.571938178963745
      ],
      [
        "fratre",
        -9.57200251290556
      ],
      [
        "syria",
        -9.5720550837002
      ],
      [
        "portu",
        -9.572637504890281
      ],
      [
        "ciuitatis",
        -9.57531522120274
      ],
      [
        "uersi",
        -9.575479431299664
      ],
      [
        "praecipit",
        -9.575531361394354
      ],
      [
        "requir",
        -9.575577126325683
      ],
      [
        "igni",
        -9.577561749276576
      ],
      [
        "spem",
        -9.577671819525227
      ],
      [
        "decima",
        -9.577672955672966
      ],
      [
        "ulti",
        -9.577819358669146
      ],
      [
        "ferunt",
        -9.577915115160664
      ],
      [
        "habitus",
        -9.579500025123718
      ],
      [
        "nub",
        -9.579977594130712
      ],
      [
        "funus",
        -9.580082079389072
      ],
      [
        "profero",
        -9.580935465206124
      ],
      [
        "aetate",
        -9.581103848880538
      ],
      [
        "ruina",
        -9.58114652238357
      ],
      [
        "consulo",
        -9.581851271235134
      ],
      [
        "bono",
        -9.582223456089778
      ],
      [
        "occul",
        -9.582499831838696
      ],
      [
        "missis",
        -9.582911794213327
      ],
      [
        "dubius",
        -9.58416283240876
      ],
      [
        "fraud",
        -9.584684881081698
      ],
      [
        "insidiae",
        -9.586960166963376
      ],
      [
        "disciplina",
        -9.587511877433407
      ],
      [
        "duci",
        -9.587538336994491
      ],
      [
        "brutus",
        -9.587927082523812
      ],
      [
        "taceo",
        -9.588861755312225
      ],
      [
        "nauig",
        -9.589166030809388
      ],
      [
        "toga",
        -9.589883006781058
      ],
      [
        "arca",
        -9.589931958159035
      ],
      [
        "utilitas",
        -9.590179246609509
      ],
      [
        "corrumpo",
        -9.59042447697087
      ],
      [
        "sanctus",
        -9.590660897149867
      ],
      [
        "comiti",
        -9.59068923572481
      ],
      [
        "licentia",
        -9.590722896548371
      ],
      [
        "primi",
        -9.592258748405127
      ],
      [
        "mars",
        -9.592842740107518
      ],
      [
        "confid",
        -9.593651970184343
      ],
      [
        "incido",
        -9.593770922964971
      ],
      [
        "ulis",
        -9.59424019561934
      ],
      [
        "sumpt",
        -9.59468340304287
      ],
      [
        "propero",
        -9.595644593726448
      ],
      [
        "ego界cum",
        -9.596307660562253
      ],
      [
        "occasio",
        -9.596992472315229
      ],
      [
        "luxuria",
        -9.597394806937231
      ],
      [
        "ludi",
        -9.59749471174334
      ],
      [
        "perturb",
        -9.598249220117891
      ],
      [
        "uiro",
        -9.598347935674148
      ],
      [
        "prex",
        -9.59846219796859
      ],
      [
        "leges",
        -9.598520480338319
      ],
      [
        "habeb",
        -9.59875569771536
      ],
      [
        "consid",
        -9.598758909653608
      ],
      [
        "sacer",
        -9.598949297655322
      ],
      [
        "ferri",
        -9.599250430481415
      ],
      [
        "ioni",
        -9.59967074504678
      ],
      [
        "societas",
        -9.600150291845257
      ],
      [
        "paucis",
        -9.600238140457027
      ],
      [
        "diuido",
        -9.600945883726691
      ],
      [
        "canis",
        -9.600995261934376
      ],
      [
        "fata",
        -9.60218019125481
      ],
      [
        "parco",
        -9.603020530396517
      ],
      [
        "gratiam",
        -9.60317332569483
      ],
      [
        "iugurtha",
        -9.603334971840749
      ],
      [
        "antiquus",
        -9.603334992985374
      ],
      [
        "illuc",
        -9.603536715185545
      ],
      [
        "lentus",
        -9.603753223164892
      ],
      [
        "limen",
        -9.604666785873139
      ],
      [
        "subeo",
        -9.6047274971774
      ],
      [
        "sidus",
        -9.605265022579438
      ],
      [
        "ferro",
        -9.605826706782072
      ],
      [
        "occup",
        -9.606347902833352
      ],
      [
        "sequitur",
        -9.607084587862662
      ],
      [
        "supero",
        -9.607216423671321
      ],
      [
        "ueris",
        -9.60727552419951
      ],
      [
        "aliena",
        -9.607464856532616
      ],
      [
        "certamen",
        -9.607519824657789
      ],
      [
        "legati",
        -9.607735748936832
      ],
      [
        "oppugn",
        -9.609362507730129
      ],
      [
        "saeui",
        -9.60974944175717
      ],
      [
        "missus",
        -9.610194870354203
      ],
      [
        "luna",
        -9.61029591643962
      ],
      [
        "cella",
        -9.61045972701585
      ],
      [
        "uenenum",
        -9.610918765916118
      ],
      [
        "summum",
        -9.611682472434822
      ],
      [
        "tuam",
        -9.612269245493625
      ],
      [
        "diuersus",
        -9.613461548737167
      ],
      [
        "ndis",
        -9.613822255689975
      ],
      [
        "uentum",
        -9.613945146055245
      ],
      [
        "otiens",
        -9.613975425219712
      ],
      [
        "pateo",
        -9.614048035262417
      ],
      [
        "magni",
        -9.614410299096807
      ],
      [
        "inferus",
        -9.614751911036478
      ],
      [
        "cruci",
        -9.616196030655388
      ],
      [
        "arium",
        -9.61669931747183
      ],
      [
        "incertus",
        -9.617533127094884
      ],
      [
        "custodi",
        -9.618685792842216
      ],
      [
        "laedo",
        -9.618774849018186
      ],
      [
        "aman",
        -9.619173237239702
      ],
      [
        "currus",
        -9.620474608454717
      ],
      [
        "prosper",
        -9.620551516887282
      ],
      [
        "pecu",
        -9.621931503718077
      ],
      [
        "semi",
        -9.62227779496892
      ],
      [
        "noto",
        -9.622596101275402
      ],
      [
        "discrimen",
        -9.623034388863662
      ],
      [
        "nostrum",
        -9.623470394934733
      ],
      [
        "contentio",
        -9.624292764231285
      ],
      [
        "genu",
        -9.624911822508995
      ],
      [
        "istis",
        -9.625178405732886
      ],
      [
        "amplu",
        -9.625287684732289
      ],
      [
        "sacerdo",
        -9.625369837723541
      ],
      [
        "tric",
        -9.625424242707275
      ],
      [
        "scientia",
        -9.625840068558524
      ],
      [
        "aditus",
        -9.626359529824828
      ],
      [
        "gradus",
        -9.626522352117814
      ],
      [
        "ride",
        -9.626658745912877
      ],
      [
        "philosophia",
        -9.627834781654787
      ],
      [
        "occurro",
        -9.628014333749887
      ],
      [
        "greg",
        -9.628737032226201
      ],
      [
        "continuo",
        -9.628962089845274
      ],
      [
        "uectigal",
        -9.629194006189625
      ],
      [
        "capitoli",
        -9.629268355252613
      ],
      [
        "erint",
        -9.629442243345698
      ],
      [
        "iuuentu",
        -9.631068548690646
      ],
      [
        "iri",
        -9.63146870882914
      ],
      [
        "aduentus",
        -9.633280608985949
      ],
      [
        "opes",
        -9.634593428547648
      ],
      [
        "fall",
        -9.634745400930537
      ],
      [
        "principium",
        -9.634945849837994
      ],
      [
        "tionibus",
        -9.635103755937218
      ],
      [
        "misericordia",
        -9.63575270506313
      ],
      [
        "proelio",
        -9.63599471447926
      ],
      [
        "patrius",
        -9.636255587480637
      ],
      [
        "uestigium",
        -9.636889508194889
      ],
      [
        "immani",
        -9.637816060749731
      ],
      [
        "colligo",
        -9.638122454186437
      ],
      [
        "altera",
        -9.638175214194423
      ],
      [
        "securi",
        -9.638644246294241
      ],
      [
        "certum",
        -9.638879952274834
      ],
      [
        "fax",
        -9.638968286418462
      ],
      [
        "graeci",
        -9.639046668581745
      ],
      [
        "humana",
        -9.6390765333257
      ],
      [
        "uallum",
        -9.6392334446593
      ],
      [
        "opprimo",
        -9.639324493275161
      ],
      [
        "misso",
        -9.639348960984575
      ],
      [
        "breui",
        -9.639565141004194
      ],
      [
        "mortali",
        -9.640024764558849
      ],
      [
        "ecundum",
        -9.640224904178835
      ],
      [
        "auge",
        -9.64031183399553
      ],
      [
        "consularis",
        -9.640417641905952
      ],
      [
        "cursu",
        -9.640732290985813
      ],
      [
        "fessus",
        -9.64237694398292
      ],
      [
        "citat",
        -9.644760790699845
      ],
      [
        "niti",
        -9.645266460463501
      ],
      [
        "neminem",
        -9.645706406101288
      ],
      [
        "uniuersus",
        -9.646066932908838
      ],
      [
        "possent",
        -9.646247923831593
      ],
      [
        "putat",
        -9.64659743028924
      ],
      [
        "iucund",
        -9.647598754830804
      ],
      [
        "offero",
        -9.648033534901428
      ],
      [
        "remitto",
        -9.64852009588363
      ],
      [
        "censor",
        -9.648628764623297
      ],
      [
        "aeger",
        -9.648670023150618
      ],
      [
        "mecum",
        -9.649191237770728
      ],
      [
        "summo",
        -9.649274364054595
      ],
      [
        "tuum",
        -9.650023819980454
      ],
      [
        "uiuus",
        -9.65026730168906
      ],
      [
        "priusquam",
        -9.65056710005305
      ],
      [
        "posuit",
        -9.652720626110389
      ],
      [
        "tu界cum",
        -9.653005870212208
      ],
      [
        "heredita",
        -9.653719260587039
      ],
      [
        "uiola",
        -9.654495064825959
      ],
      [
        "uenia",
        -9.656449097848956
      ],
      [
        "popul",
        -9.656775152657271
      ],
      [
        "penitus",
        -9.659114595979581
      ],
      [
        "firmus",
        -9.659398456405796
      ],
      [
        "ulum",
        -9.65976282797368
      ],
      [
        "lepid",
        -9.659971822538571
      ],
      [
        "pulsa",
        -9.660200065113987
      ],
      [
        "impera",
        -9.660692616391387
      ],
      [
        "issent",
        -9.661922206878183
      ],
      [
        "uinculum",
        -9.662227301132777
      ],
      [
        "luctus",
        -9.662292499941106
      ],
      [
        "poni",
        -9.662375495448664
      ],
      [
        "uiuere",
        -9.662389748522088
      ],
      [
        "clementia",
        -9.662571813751956
      ],
      [
        "diuitiae",
        -9.663066351446195
      ],
      [
        "populum",
        -9.66310595909352
      ],
      [
        "nemus",
        -9.663312080210833
      ],
      [
        "sorti",
        -9.663545112958548
      ],
      [
        "grauiter",
        -9.663702902675215
      ],
      [
        "nemp",
        -9.663875081896613
      ],
      [
        "sui界cum",
        -9.664027432235802
      ],
      [
        "rudi",
        -9.664548767334693
      ],
      [
        "caedo",
        -9.664904633537756
      ],
      [
        "uestri",
        -9.665147242730324
      ],
      [
        "gen",
        -9.66518012376573
      ],
      [
        "adulter",
        -9.668078305167642
      ],
      [
        "orno",
        -9.668494478902556
      ],
      [
        "fiducia",
        -9.669369686676255
      ],
      [
        "foris",
        -9.670109893872226
      ],
      [
        "exerceo",
        -9.670677989143297
      ],
      [
        "reliqua",
        -9.670741471770686
      ],
      [
        "solaci",
        -9.670817808470643
      ],
      [
        "entium",
        -9.671104125673766
      ],
      [
        "suorum",
        -9.671343935314766
      ],
      [
        "actum",
        -9.672101378096698
      ],
      [
        "hispania",
        -9.672691986664033
      ],
      [
        "sterno",
        -9.672839811860179
      ],
      [
        "stare",
        -9.674078531263579
      ],
      [
        "capta",
        -9.674296348454792
      ],
      [
        "noctu",
        -9.6743401684244
      ],
      [
        "prohibe",
        -9.67448939617089
      ],
      [
        "continu",
        -9.675515952270334
      ],
      [
        "potuisse",
        -9.675597222373192
      ],
      [
        "honestum",
        -9.67609707142897
      ],
      [
        "caecina",
        -9.67613021088863
      ],
      [
        "praeclar",
        -9.676180281166907
      ],
      [
        "implic",
        -9.676412411619136
      ],
      [
        "regno",
        -9.676619840844877
      ],
      [
        "tremo",
        -9.676709377312699
      ],
      [
        "duxi",
        -9.67720918318594
      ],
      [
        "poterat",
        -9.677744067522362
      ],
      [
        "nix",
        -9.678357930685936
      ],
      [
        "praetore",
        -9.679057162732644
      ],
      [
        "demonstr",
        -9.680441285806355
      ],
      [
        "hercule",
        -9.681182957608076
      ],
      [
        "iacta",
        -9.681263576608679
      ],
      [
        "frequens",
        -9.682979352979196
      ],
      [
        "filio",
        -9.683176282510122
      ],
      [
        "pius",
        -9.683431534507815
      ],
      [
        "uirgin",
        -9.68385557440647
      ],
      [
        "genti",
        -9.683933864090758
      ],
      [
        "humus",
        -9.6843426253653
      ],
      [
        "militaris",
        -9.68449832328946
      ],
      [
        "carcer",
        -9.686288221267876
      ],
      [
        "desidero",
        -9.686440847810573
      ],
      [
        "omitto",
        -9.686707784059667
      ],
      [
        "ualetud",
        -9.6882485027533
      ],
      [
        "pareo",
        -9.689672688368812
      ],
      [
        "praefectus",
        -9.689911394525351
      ],
      [
        "membra",
        -9.689911682637332
      ],
      [
        "delecto",
        -9.692463728214003
      ],
      [
        "gaude",
        -9.69263358365874
      ],
      [
        "felici",
        -9.69266538850852
      ],
      [
        "legatio",
        -9.69269612079479
      ],
      [
        "comparo",
        -9.693032579625658
      ],
      [
        "temporis",
        -9.693500953273993
      ],
      [
        "uoluntate",
        -9.6937838122507
      ],
      [
        "rege",
        -9.694692397196594
      ],
      [
        "uello",
        -9.695347217424423
      ],
      [
        "appella",
        -9.6954863518176
      ],
      [
        "disput",
        -9.695942184467064
      ],
      [
        "habui",
        -9.696250082290739
      ],
      [
        "dicend",
        -9.69627643502753
      ],
      [
        "stent",
        -9.697362908451971
      ],
      [
        "tuli",
        -9.698397605220354
      ],
      [
        "latro",
        -9.698410298217707
      ],
      [
        "deligo",
        -9.69855959622589
      ],
      [
        "libera",
        -9.698642583637474
      ],
      [
        "inueni",
        -9.698650126795155
      ],
      [
        "agmin",
        -9.699816703907462
      ],
      [
        "exitium",
        -9.700226369543586
      ],
      [
        "facultas",
        -9.700409529556461
      ],
      [
        "formido",
        -9.7006396476326
      ],
      [
        "abit",
        -9.701501218686968
      ],
      [
        "nite",
        -9.702071603986521
      ],
      [
        "asti",
        -9.702475502465056
      ],
      [
        "flagiti",
        -9.70396345821925
      ],
      [
        "restitu",
        -9.704723181139183
      ],
      [
        "sustine",
        -9.704782363862359
      ],
      [
        "antiqui",
        -9.705534054644806
      ],
      [
        "ulli",
        -9.705992201798495
      ],
      [
        "iacto",
        -9.70636814671293
      ],
      [
        "pelli",
        -9.707477801131365
      ],
      [
        "deorum",
        -9.70769726025653
      ],
      [
        "tecum",
        -9.707874278101876
      ],
      [
        "otho",
        -9.708537980398551
      ],
      [
        "agger",
        -9.709139627389046
      ],
      [
        "nasc",
        -9.709240759111115
      ],
      [
        "infero",
        -9.71025002973826
      ],
      [
        "multos",
        -9.710656943251504
      ],
      [
        "numquid",
        -9.710892392454124
      ],
      [
        "propterea",
        -9.711375374338317
      ],
      [
        "testor",
        -9.713380395207746
      ],
      [
        "coeper",
        -9.713770164568473
      ],
      [
        "aureus",
        -9.713794484251961
      ],
      [
        "tribus",
        -9.714553486497376
      ],
      [
        "ludus",
        -9.714677636610196
      ],
      [
        "semen",
        -9.716292780212846
      ],
      [
        "rix",
        -9.717850165448453
      ],
      [
        "epistola",
        -9.71813229458284
      ],
      [
        "commune",
        -9.718141679002436
      ],
      [
        "testa",
        -9.718508049191628
      ],
      [
        "occurr",
        -9.718611875595355
      ],
      [
        "complures",
        -9.719060861573631
      ],
      [
        "damna",
        -9.719316162406688
      ],
      [
        "officio",
        -9.719567813928213
      ],
      [
        "struo",
        -9.721201878663114
      ],
      [
        "mensis",
        -9.72127729371967
      ],
      [
        "poti",
        -9.72158282575808
      ],
      [
        "amur",
        -9.721853762428044
      ],
      [
        "cingo",
        -9.72243122373792
      ],
      [
        "tribuni",
        -9.722479284126784
      ],
      [
        "fuerunt",
        -9.722550278030562
      ],
      [
        "faue",
        -9.723673881293887
      ],
      [
        "laetitia",
        -9.725407169805482
      ],
      [
        "galba",
        -9.725447620442417
      ],
      [
        "credit",
        -9.72609326163332
      ],
      [
        "regius",
        -9.726860948405546
      ],
      [
        "cupid",
        -9.727682746939422
      ],
      [
        "fidus",
        -9.727942571069978
      ],
      [
        "exsul",
        -9.727982286187459
      ],
      [
        "reuoco",
        -9.728575275722925
      ],
      [
        "indu",
        -9.728768877760622
      ],
      [
        "phryg",
        -9.728923401471725
      ],
      [
        "reddit",
        -9.729072915216708
      ],
      [
        "conuerto",
        -9.72963874963574
      ],
      [
        "quinque",
        -9.730486317828971
      ],
      [
        "ueste",
        -9.730754400924383
      ],
      [
        "aduersa",
        -9.730934016333787
      ],
      [
        "firma",
        -9.732371838637157
      ],
      [
        "armatus",
        -9.73301764827115
      ],
      [
        "gena",
        -9.73386138713759
      ],
      [
        "turnus",
        -9.734000495272122
      ],
      [
        "claudius",
        -9.734581722768663
      ],
      [
        "uenisse",
        -9.73461469022488
      ],
      [
        "pauperta",
        -9.734632627571742
      ],
      [
        "uimus",
        -9.7350763884081
      ],
      [
        "pelle",
        -9.737583364349991
      ],
      [
        "patrem",
        -9.738051937948766
      ],
      [
        "cern",
        -9.738273257377672
      ],
      [
        "excito",
        -9.738417202447675
      ],
      [
        "intus",
        -9.73842323583797
      ],
      [
        "furi",
        -9.738783826666253
      ],
      [
        "principe",
        -9.73965710403926
      ],
      [
        "gladiator",
        -9.739832596295287
      ],
      [
        "iniquus",
        -9.73983262977544
      ],
      [
        "industria",
        -9.739833913574664
      ],
      [
        "gredior",
        -9.74055410481938
      ],
      [
        "gesta",
        -9.741368225868982
      ],
      [
        "deicio",
        -9.74137481765392
      ],
      [
        "flecto",
        -9.741425934195252
      ],
      [
        "stitit",
        -9.741473463565173
      ],
      [
        "curio",
        -9.74150769157555
      ],
      [
        "iuno",
        -9.741996116836368
      ],
      [
        "alexandr",
        -9.742518791910019
      ],
      [
        "possideo",
        -9.743093879213063
      ],
      [
        "conscientia",
        -9.743683825893578
      ],
      [
        "leuo",
        -9.743979603684593
      ],
      [
        "mehercule",
        -9.74419442762757
      ],
      [
        "anno",
        -9.744934510987857
      ],
      [
        "seruitu",
        -9.745326171811733
      ],
      [
        "gigno",
        -9.746345451586738
      ],
      [
        "copiis",
        -9.747210071125394
      ],
      [
        "augur",
        -9.747210832622994
      ],
      [
        "nubes",
        -9.748651939547843
      ],
      [
        "supersum",
        -9.749377781865668
      ],
      [
        "pendeo",
        -9.749569335287486
      ],
      [
        "propono",
        -9.749655027414029
      ],
      [
        "cruor",
        -9.750814811305627
      ],
      [
        "silentium",
        -9.750919976441178
      ],
      [
        "alias",
        -9.75113771798372
      ],
      [
        "ipsius",
        -9.751173400617203
      ],
      [
        "dextra",
        -9.751501519923817
      ],
      [
        "laboro",
        -9.751665409368629
      ],
      [
        "egregi",
        -9.75247466716037
      ],
      [
        "doleo",
        -9.75288813332729
      ],
      [
        "uiris",
        -9.75309129391226
      ],
      [
        "flagitium",
        -9.75409364713882
      ],
      [
        "eligo",
        -9.754135395127733
      ],
      [
        "phoebus",
        -9.754566221896045
      ],
      [
        "fastidi",
        -9.754587479404469
      ],
      [
        "manum",
        -9.754949930413716
      ],
      [
        "poter",
        -9.755585468368718
      ],
      [
        "plura",
        -9.756380345811067
      ],
      [
        "proprius",
        -9.756981911794494
      ],
      [
        "salutem",
        -9.757386143115344
      ],
      [
        "monumentum",
        -9.758285403352444
      ],
      [
        "concordia",
        -9.758286668279137
      ],
      [
        "prudens",
        -9.75828901452289
      ],
      [
        "facto",
        -9.758337212970464
      ],
      [
        "ignotus",
        -9.758371504556212
      ],
      [
        "fabula",
        -9.759142606305911
      ],
      [
        "ullo",
        -9.759596152933323
      ],
      [
        "modera",
        -9.759696679065957
      ],
      [
        "homini",
        -9.760059309357526
      ],
      [
        "cedit",
        -9.760169981487888
      ],
      [
        "uincio",
        -9.760682879327781
      ],
      [
        "haere",
        -9.761742702584801
      ],
      [
        "munitio",
        -9.761785501620299
      ],
      [
        "tracto",
        -9.762046101165089
      ],
      [
        "dolus",
        -9.762457161971014
      ],
      [
        "supplici",
        -9.762596855239863
      ],
      [
        "hominibus",
        -9.762634868967728
      ],
      [
        "nostros",
        -9.762668213920858
      ],
      [
        "far",
        -9.76386177223376
      ],
      [
        "hostes",
        -9.763979048227155
      ],
      [
        "saluus",
        -9.76488190343195
      ],
      [
        "spolia",
        -9.765401520696157
      ],
      [
        "templo",
        -9.766100236332433
      ],
      [
        "conor",
        -9.76634182412605
      ],
      [
        "ignarus",
        -9.76651897897424
      ],
      [
        "uates",
        -9.766958818843957
      ],
      [
        "nium",
        -9.767803492055844
      ],
      [
        "damnum",
        -9.768834860769864
      ],
      [
        "indicium",
        -9.76998196666403
      ],
      [
        "conuiuium",
        -9.770246635048045
      ],
      [
        "securus",
        -9.770485188884091
      ],
      [
        "suadeo",
        -9.770971445570972
      ],
      [
        "alterum",
        -9.77144068342827
      ],
      [
        "niger",
        -9.771594908030774
      ],
      [
        "tracta",
        -9.77201292396881
      ],
      [
        "recta",
        -9.772186832609847
      ],
      [
        "discordia",
        -9.772320831314138
      ],
      [
        "fulge",
        -9.772416293392109
      ],
      [
        "rata",
        -9.772829254295756
      ],
      [
        "aequa",
        -9.773123790235154
      ],
      [
        "dignum",
        -9.77337539255161
      ],
      [
        "magnis",
        -9.773516492494284
      ],
      [
        "annis",
        -9.774121673503576
      ],
      [
        "amici",
        -9.77415726086019
      ],
      [
        "honesti",
        -9.774707442369106
      ],
      [
        "ambo",
        -9.775527303388417
      ],
      [
        "inanis",
        -9.776075166954932
      ],
      [
        "flagr",
        -9.776130135207014
      ],
      [
        "spargo",
        -9.7773450294936
      ],
      [
        "taurus",
        -9.779026447443812
      ],
      [
        "uulg",
        -9.779282252998694
      ],
      [
        "leua",
        -9.77958923129731
      ],
      [
        "consultum",
        -9.779697401391873
      ],
      [
        "diebus",
        -9.779795587569792
      ],
      [
        "plures",
        -9.780170374021399
      ],
      [
        "nuntia",
        -9.780635068287907
      ],
      [
        "robur",
        -9.780985672111472
      ],
      [
        "uideretur",
        -9.78144368231417
      ],
      [
        "amic",
        -9.781772220466262
      ],
      [
        "maritus",
        -9.782615631785102
      ],
      [
        "agere",
        -9.783924952426052
      ],
      [
        "sapiente",
        -9.784707712134281
      ],
      [
        "restituo",
        -9.784794366221204
      ],
      [
        "nutri",
        -9.784796417109007
      ],
      [
        "periculi",
        -9.78480548425693
      ],
      [
        "finem",
        -9.786178264406233
      ],
      [
        "temere",
        -9.786822422849422
      ],
      [
        "uetusta",
        -9.787271156649204
      ],
      [
        "praetereo",
        -9.787340753513819
      ],
      [
        "mentem",
        -9.787899759134103
      ],
      [
        "aestus",
        -9.788610350938741
      ],
      [
        "pede",
        -9.78908918578178
      ],
      [
        "positus",
        -9.78914017950586
      ],
      [
        "fons",
        -9.789763122802148
      ],
      [
        "bland",
        -9.790427795151011
      ],
      [
        "uultu",
        -9.790646447848285
      ],
      [
        "tacitus",
        -9.791933979852168
      ],
      [
        "gladius",
        -9.792380829465277
      ],
      [
        "seruili",
        -9.792581156727456
      ],
      [
        "doce",
        -9.794808171264894
      ],
      [
        "rati",
        -9.794811382221425
      ],
      [
        "quale",
        -9.795505373695896
      ],
      [
        "classe",
        -9.79627447571611
      ],
      [
        "litteris",
        -9.79628348659354
      ],
      [
        "uirtutem",
        -9.797649376669362
      ],
      [
        "cogit",
        -9.79776810890629
      ],
      [
        "conserua",
        -9.798487979272325
      ],
      [
        "positum",
        -9.798780649655157
      ],
      [
        "ceper",
        -9.7997202259048
      ],
      [
        "radi",
        -9.79996247013861
      ],
      [
        "cicero",
        -9.800124907495674
      ],
      [
        "figura",
        -9.800127988175909
      ],
      [
        "commoueo",
        -9.800475022483313
      ],
      [
        "egregius",
        -9.80120307833118
      ],
      [
        "lapis",
        -9.801327529227024
      ],
      [
        "propinqui",
        -9.801492280294124
      ],
      [
        "germanicu",
        -9.801786214578753
      ],
      [
        "ilitas",
        -9.801807850572146
      ],
      [
        "penetr",
        -9.802847247839594
      ],
      [
        "bitur",
        -9.803092600054121
      ],
      [
        "nouo",
        -9.803360966713877
      ],
      [
        "instituo",
        -9.8035980785557
      ],
      [
        "foeder",
        -9.804035859954038
      ],
      [
        "exple",
        -9.804704400271593
      ],
      [
        "hiem",
        -9.805828459718242
      ],
      [
        "isdem",
        -9.806452385528734
      ],
      [
        "filium",
        -9.807364985331542
      ],
      [
        "loc",
        -9.807483019844142
      ],
      [
        "exigu",
        -9.807584569774438
      ],
      [
        "remus",
        -9.807863565846656
      ],
      [
        "idcirco",
        -9.807934137768214
      ],
      [
        "patientia",
        -9.807963172733306
      ],
      [
        "doctus",
        -9.8082240776699
      ],
      [
        "nepos",
        -9.808289430300736
      ],
      [
        "crassus",
        -9.808342093580315
      ],
      [
        "segni",
        -9.809921422840151
      ],
      [
        "genitor",
        -9.810387338903661
      ],
      [
        "marius",
        -9.810581803448692
      ],
      [
        "libertus",
        -9.811201790285654
      ],
      [
        "multitudine",
        -9.811833546002806
      ],
      [
        "agros",
        -9.812577603562405
      ],
      [
        "delecta",
        -9.81278426536416
      ],
      [
        "siculi",
        -9.81291194835687
      ],
      [
        "uolunt",
        -9.813132979871323
      ],
      [
        "benign",
        -9.813201983272501
      ],
      [
        "solet",
        -9.813646251129889
      ],
      [
        "titus",
        -9.8143337955384
      ],
      [
        "recito",
        -9.815141198064536
      ],
      [
        "publicum",
        -9.815770294338662
      ],
      [
        "mitis",
        -9.816179151584155
      ],
      [
        "superbia",
        -9.816268111235557
      ],
      [
        "fortiter",
        -9.816695973751175
      ],
      [
        "stud",
        -9.816764061807577
      ],
      [
        "foro",
        -9.81694352743924
      ],
      [
        "armati",
        -9.81705118378422
      ],
      [
        "iucundus",
        -9.81758271938238
      ],
      [
        "uarus",
        -9.817947087567067
      ],
      [
        "resisto",
        -9.818652277253173
      ],
      [
        "ornatus",
        -9.819896674997636
      ],
      [
        "habebat",
        -9.820951656884318
      ],
      [
        "priuati",
        -9.821071404521165
      ],
      [
        "occupat",
        -9.821383459121403
      ],
      [
        "forsit",
        -9.821582141428259
      ],
      [
        "mente",
        -9.821945957593721
      ],
      [
        "legem",
        -9.822578412895403
      ],
      [
        "seruio",
        -9.822695077242804
      ],
      [
        "duro",
        -9.823343242794163
      ],
      [
        "irrit",
        -9.823458923438857
      ],
      [
        "crudelitas",
        -9.823701517012662
      ],
      [
        "armo",
        -9.823779790600701
      ],
      [
        "circ",
        -9.824059664742808
      ],
      [
        "bibo",
        -9.824274390913741
      ],
      [
        "aperio",
        -9.824473345933947
      ],
      [
        "spectacul",
        -9.825573605556542
      ],
      [
        "dant",
        -9.82563862449809
      ],
      [
        "iuro",
        -9.82646675851204
      ],
      [
        "seri",
        -9.82756673124966
      ],
      [
        "beneficio",
        -9.827779465059637
      ],
      [
        "popularis",
        -9.82784450998115
      ],
      [
        "tabella",
        -9.828438799868424
      ],
      [
        "atti",
        -9.828790336192515
      ],
      [
        "saluta",
        -9.829118542677797
      ],
      [
        "acto",
        -9.829183156738079
      ],
      [
        "colloco",
        -9.829920165380688
      ],
      [
        "foue",
        -9.830436574143933
      ],
      [
        "animis",
        -9.830639177465649
      ],
      [
        "impello",
        -9.831016602167594
      ],
      [
        "lius",
        -9.831035421127767
      ],
      [
        "tenebrae",
        -9.831675264225922
      ],
      [
        "liberalita",
        -9.8317339804486
      ],
      [
        "praesum",
        -9.832028265174888
      ],
      [
        "insignis",
        -9.832046052191176
      ],
      [
        "obtineo",
        -9.832887218537387
      ],
      [
        "creo",
        -9.832969665385615
      ],
      [
        "confiteor",
        -9.83298815909749
      ],
      [
        "altum",
        -9.833246424711927
      ],
      [
        "conici",
        -9.8340165794853
      ],
      [
        "heres",
        -9.834710196378808
      ],
      [
        "uitia",
        -9.834741936921997
      ],
      [
        "secum",
        -9.834953110917887
      ],
      [
        "putas",
        -9.834998716506963
      ],
      [
        "bunt",
        -9.835012083336393
      ],
      [
        "bib",
        -9.835191260545482
      ],
      [
        "calamitas",
        -9.835692472186203
      ],
      [
        "pugn",
        -9.83570387230078
      ],
      [
        "exempla",
        -9.835704050534552
      ],
      [
        "fraus",
        -9.835929877672058
      ],
      [
        "stultus",
        -9.83609803027938
      ],
      [
        "natum",
        -9.836148984456267
      ],
      [
        "quaerit",
        -9.836391918264045
      ],
      [
        "oportere",
        -9.838914951435584
      ],
      [
        "incolumis",
        -9.839544119007487
      ],
      [
        "magnitudine",
        -9.839723573543363
      ],
      [
        "impleo",
        -9.840586541135062
      ],
      [
        "tendit",
        -9.841418880983309
      ],
      [
        "contemn",
        -9.841604947742692
      ],
      [
        "uitio",
        -9.84177930554615
      ],
      [
        "ambi",
        -9.842168283774452
      ],
      [
        "cani",
        -9.842340239488724
      ],
      [
        "tempora",
        -9.843679714644406
      ],
      [
        "magister",
        -9.84377565088825
      ],
      [
        "aestimo",
        -9.843786606084985
      ],
      [
        "pontus",
        -9.843806728021463
      ],
      [
        "parent",
        -9.84387320583669
      ],
      [
        "plane",
        -9.8444745565793
      ],
      [
        "sensu",
        -9.844519672056613
      ],
      [
        "collum",
        -9.844865816548317
      ],
      [
        "sermone",
        -9.846166806466664
      ],
      [
        "mirus",
        -9.846247512075895
      ],
      [
        "incid",
        -9.847294771450978
      ],
      [
        "german",
        -9.84780539723712
      ],
      [
        "extremum",
        -9.847852634528873
      ],
      [
        "impedio",
        -9.848079213319824
      ],
      [
        "ductus",
        -9.84810761851671
      ],
      [
        "excita",
        -9.84840424066144
      ],
      [
        "deficio",
        -9.848455749864552
      ],
      [
        "dormi",
        -9.849011209265036
      ],
      [
        "missi",
        -9.850149526267566
      ],
      [
        "haben",
        -9.850715865997085
      ],
      [
        "place",
        -9.85108792590654
      ],
      [
        "praesidio",
        -9.85192990277754
      ],
      [
        "alte",
        -9.852520327328683
      ],
      [
        "sextus",
        -9.853643280303903
      ],
      [
        "mitti",
        -9.854589607537886
      ],
      [
        "auxili",
        -9.855475977152555
      ],
      [
        "grandis",
        -9.855995159272359
      ],
      [
        "nocent",
        -9.856072996765995
      ],
      [
        "imagin",
        -9.856197778597235
      ],
      [
        "pectore",
        -9.856431085492378
      ],
      [
        "scindo",
        -9.856468297044954
      ],
      [
        "incipi",
        -9.85669758177255
      ],
      [
        "latum",
        -9.856775894323533
      ],
      [
        "debere",
        -9.85726107910807
      ],
      [
        "dicat",
        -9.857818013531165
      ],
      [
        "conscripti",
        -9.858077169585183
      ],
      [
        "faciam",
        -9.858188011490567
      ],
      [
        "rumor",
        -9.859975069836276
      ],
      [
        "possis",
        -9.860186255741144
      ],
      [
        "saxa",
        -9.860423874366198
      ],
      [
        "romae",
        -9.86064137505559
      ],
      [
        "theatr",
        -9.86101780413588
      ],
      [
        "ferus",
        -9.86142244314648
      ],
      [
        "alto",
        -9.863584779058492
      ],
      [
        "loci",
        -9.863673982118582
      ],
      [
        "ipsos",
        -9.86624233910052
      ],
      [
        "doct",
        -9.867425971741465
      ],
      [
        "malis",
        -9.868083359938115
      ],
      [
        "gentis",
        -9.868141647728763
      ],
      [
        "candida",
        -9.868493035012142
      ],
      [
        "respicio",
        -9.868613950408339
      ],
      [
        "exspecta",
        -9.8689803793463
      ],
      [
        "plaga",
        -9.869061969986161
      ],
      [
        "aeuum",
        -9.869717514898394
      ],
      [
        "meritum",
        -9.869989385570985
      ],
      [
        "hau",
        -9.870338569652677
      ],
      [
        "persona",
        -9.870668042874415
      ],
      [
        "stult",
        -9.872794872758684
      ],
      [
        "exsilium",
        -9.873003475449455
      ],
      [
        "misce",
        -9.873210924859215
      ],
      [
        "nauigi",
        -9.873837034157951
      ],
      [
        "mortis",
        -9.87437219398829
      ],
      [
        "putare",
        -9.874481554355857
      ],
      [
        "obsid",
        -9.87452588147823
      ],
      [
        "sino",
        -9.875070294174044
      ],
      [
        "apta",
        -9.875301992032501
      ],
      [
        "collis",
        -9.87556137437786
      ],
      [
        "niue",
        -9.875573262321463
      ],
      [
        "admoneo",
        -9.875645710565738
      ],
      [
        "nomino",
        -9.876916216198383
      ],
      [
        "fames",
        -9.877003674631265
      ],
      [
        "lacus",
        -9.877502959289473
      ],
      [
        "immine",
        -9.879164684315864
      ],
      [
        "expecta",
        -9.879296108161988
      ],
      [
        "patriae",
        -9.880282626224927
      ],
      [
        "proficisc",
        -9.880898951158748
      ],
      [
        "saeculum",
        -9.881052327019049
      ],
      [
        "patris",
        -9.881105117083179
      ],
      [
        "profite",
        -9.881235933870972
      ],
      [
        "ducti",
        -9.881456634844518
      ],
      [
        "saeuitia",
        -9.881562336703507
      ],
      [
        "ruit",
        -9.881852253324833
      ],
      [
        "succed",
        -9.8824236239644
      ],
      [
        "lenti",
        -9.883004741254958
      ],
      [
        "uigilia",
        -9.883170515976893
      ],
      [
        "diuinus",
        -9.883398486707346
      ],
      [
        "effero",
        -9.88375593459969
      ],
      [
        "singula",
        -9.884023081157864
      ],
      [
        "alo",
        -9.884406489283652
      ],
      [
        "nobilitas",
        -9.884476555668119
      ],
      [
        "uacuus",
        -9.884996422633328
      ],
      [
        "praedo",
        -9.885408478979166
      ],
      [
        "fratri",
        -9.885854430727118
      ],
      [
        "pacis",
        -9.886164759138794
      ],
      [
        "ectis",
        -9.886432297651826
      ],
      [
        "uertere",
        -9.886455477336373
      ],
      [
        "fruor",
        -9.887010303512021
      ],
      [
        "persequor",
        -9.888538973552482
      ],
      [
        "pario",
        -9.889312733164132
      ],
      [
        "audax",
        -9.889423185920274
      ],
      [
        "epistula",
        -9.8894235226493
      ],
      [
        "mand",
        -9.88949574634125
      ],
      [
        "uado",
        -9.889506398759224
      ],
      [
        "modestia",
        -9.8895359053477
      ],
      [
        "legibus",
        -9.889834615670123
      ],
      [
        "gust",
        -9.889876367750336
      ],
      [
        "uulgo",
        -9.890508501294507
      ],
      [
        "pulso",
        -9.892704405960092
      ],
      [
        "propera",
        -9.89276646437618
      ],
      [
        "ulta",
        -9.892854985611837
      ],
      [
        "afficio",
        -9.89368160327469
      ],
      [
        "decretum",
        -9.893821323108035
      ],
      [
        "graecia",
        -9.89397852196555
      ],
      [
        "longius",
        -9.894153557952091
      ],
      [
        "edictum",
        -9.894186892369575
      ],
      [
        "maestus",
        -9.894560659922195
      ],
      [
        "homine",
        -9.895315458710087
      ],
      [
        "tertia",
        -9.89541741856437
      ],
      [
        "turpe",
        -9.89595352433108
      ],
      [
        "marti",
        -9.896710554900324
      ],
      [
        "eram",
        -9.897189002581488
      ],
      [
        "simile",
        -9.897565814163135
      ],
      [
        "agrippina",
        -9.8979519577581
      ],
      [
        "tenus",
        -9.898086986188936
      ],
      [
        "surg",
        -9.898231998580908
      ],
      [
        "differo",
        -9.898642451787921
      ],
      [
        "fossa",
        -9.899528701470558
      ],
      [
        "maius",
        -9.900573785007072
      ],
      [
        "egesta",
        -9.901667979377287
      ],
      [
        "ploro",
        -9.902375214891007
      ],
      [
        "profici",
        -9.903002146627315
      ],
      [
        "oblig",
        -9.903101557428808
      ],
      [
        "recipi",
        -9.903794234375859
      ],
      [
        "modicus",
        -9.903856312436513
      ],
      [
        "cera",
        -9.905146252747217
      ],
      [
        "mutat",
        -9.905654369837634
      ],
      [
        "mereo",
        -9.906522237081628
      ],
      [
        "praeceptum",
        -9.906554185308964
      ],
      [
        "dolabella",
        -9.906560118244494
      ],
      [
        "iuris",
        -9.9066174451203
      ],
      [
        "consumo",
        -9.906655461712589
      ],
      [
        "circiter",
        -9.90702255194103
      ],
      [
        "obliuiscor",
        -9.907224170409457
      ],
      [
        "paulum",
        -9.907368162902468
      ],
      [
        "praetura",
        -9.907555077247025
      ],
      [
        "aruum",
        -9.907739973716758
      ],
      [
        "iuuat",
        -9.907802882983974
      ],
      [
        "aestu",
        -9.908077050509409
      ],
      [
        "coniugi",
        -9.908098373272754
      ],
      [
        "ferox",
        -9.908611884137892
      ],
      [
        "centi",
        -9.90891938895358
      ],
      [
        "factus",
        -9.909201425871267
      ],
      [
        "humani",
        -9.91017059676691
      ],
      [
        "posito",
        -9.910319686602962
      ],
      [
        "reuoca",
        -9.910946670860938
      ],
      [
        "relinque",
        -9.910948027693172
      ],
      [
        "turris",
        -9.910993235065035
      ],
      [
        "furtum",
        -9.911325034008232
      ],
      [
        "feci",
        -9.91145737962936
      ],
      [
        "ducta",
        -9.91258050122725
      ],
      [
        "tenet",
        -9.913201822114889
      ],
      [
        "superbus",
        -9.913884263741974
      ],
      [
        "iecit",
        -9.914017794092835
      ],
      [
        "acerbus",
        -9.91419297682285
      ],
      [
        "pond",
        -9.914823161734715
      ],
      [
        "decim",
        -9.914941209985832
      ],
      [
        "amicis",
        -9.91499053063346
      ],
      [
        "ignoro",
        -9.915231816780697
      ],
      [
        "pulchr",
        -9.915232458254419
      ],
      [
        "passim",
        -9.915286218471746
      ],
      [
        "uires",
        -9.9157389189573
      ],
      [
        "recita",
        -9.916114588549307
      ],
      [
        "rogat",
        -9.916725348986391
      ],
      [
        "record",
        -9.917045394518876
      ],
      [
        "polliceor",
        -9.917096123369038
      ],
      [
        "uertit",
        -9.918037019245673
      ],
      [
        "mando",
        -9.918071196536477
      ],
      [
        "iorem",
        -9.918914331580472
      ],
      [
        "tradit",
        -9.919064944633266
      ],
      [
        "adhibeo",
        -9.920032461095559
      ],
      [
        "retro",
        -9.920839301143127
      ],
      [
        "obses",
        -9.920935207020666
      ],
      [
        "rarus",
        -9.921594835595783
      ],
      [
        "merces",
        -9.921678923538142
      ],
      [
        "laudat",
        -9.921997409572715
      ],
      [
        "alique",
        -9.922202287771754
      ],
      [
        "religione",
        -9.922237125130192
      ],
      [
        "ingenti",
        -9.923731818301942
      ],
      [
        "indignus",
        -9.924021909014225
      ],
      [
        "plebis",
        -9.924054025048566
      ],
      [
        "hosti",
        -9.92421833154885
      ],
      [
        "exerce",
        -9.924465166928105
      ],
      [
        "status",
        -9.92458372723286
      ],
      [
        "aufer",
        -9.924758584525845
      ],
      [
        "accusatio",
        -9.92546870732228
      ],
      [
        "forti",
        -9.92573669204808
      ],
      [
        "detraho",
        -9.92603696865271
      ],
      [
        "praebe",
        -9.926144263052663
      ],
      [
        "negat",
        -9.926587631638059
      ],
      [
        "mediocri",
        -9.9287283217715
      ],
      [
        "postremo",
        -9.928824744959758
      ],
      [
        "ortus",
        -9.929226736635062
      ],
      [
        "diligo",
        -9.930619207551413
      ],
      [
        "nullam",
        -9.930840934199233
      ],
      [
        "coram",
        -9.931268507415592
      ],
      [
        "addit",
        -9.931567889709825
      ],
      [
        "innocens",
        -9.932012179629623
      ],
      [
        "confirmo",
        -9.932243422504769
      ],
      [
        "decuma",
        -9.932341216267883
      ],
      [
        "effundo",
        -9.932358101010827
      ],
      [
        "arci",
        -9.932402368069965
      ],
      [
        "pretio",
        -9.932663951772579
      ],
      [
        "praecipue",
        -9.932813781376433
      ],
      [
        "defensor",
        -9.932823312441421
      ],
      [
        "utrimque",
        -9.932825539949134
      ],
      [
        "nupta",
        -9.932834846681555
      ],
      [
        "rosciu",
        -9.933286378467729
      ],
      [
        "impius",
        -9.93340364735867
      ],
      [
        "amicorum",
        -9.933406052707417
      ],
      [
        "furti",
        -9.933649275475485
      ],
      [
        "classi",
        -9.933788215801428
      ],
      [
        "gula",
        -9.934044342967507
      ],
      [
        "fertur",
        -9.934275531130844
      ],
      [
        "iudice",
        -9.934621283942132
      ],
      [
        "ausus",
        -9.934745699955725
      ],
      [
        "transfero",
        -9.935107244657628
      ],
      [
        "pecco",
        -9.935179107946361
      ],
      [
        "perfero",
        -9.935937174732647
      ],
      [
        "uaco",
        -9.93642414043603
      ],
      [
        "affectu",
        -9.93664864982203
      ],
      [
        "arcus",
        -9.936792931303133
      ],
      [
        "utile",
        -9.936918829650761
      ],
      [
        "excutio",
        -9.937268234222
      ],
      [
        "legatos",
        -9.937278174556054
      ],
      [
        "minister",
        -9.937689261571611
      ],
      [
        "cepisse",
        -9.938680073640478
      ],
      [
        "amica",
        -9.938685674145265
      ],
      [
        "differ",
        -9.939247571056844
      ],
      [
        "quominu",
        -9.939315082639734
      ],
      [
        "fate",
        -9.939548037883345
      ],
      [
        "monstro",
        -9.940580439550661
      ],
      [
        "conspectus",
        -9.940970670210394
      ],
      [
        "appell",
        -9.941213448113267
      ],
      [
        "nocti",
        -9.941242036972806
      ],
      [
        "stimul",
        -9.941381247414117
      ],
      [
        "exstinguo",
        -9.941594735977098
      ],
      [
        "repudi",
        -9.941807712460864
      ],
      [
        "dareus",
        -9.941931796729133
      ],
      [
        "occi",
        -9.942134120038208
      ],
      [
        "otio",
        -9.942371385510231
      ],
      [
        "uidebatur",
        -9.943318230825811
      ],
      [
        "equitum",
        -9.943538091053394
      ],
      [
        "callid",
        -9.943619108392973
      ],
      [
        "totius",
        -9.9436269515047
      ],
      [
        "hostili",
        -9.94501908523847
      ],
      [
        "cassius",
        -9.945196512854082
      ],
      [
        "ceruix",
        -9.946269841173978
      ],
      [
        "lateo",
        -9.946484379142001
      ],
      [
        "praeterit",
        -9.947086595231658
      ],
      [
        "insigne",
        -9.948517162618913
      ],
      [
        "uelit",
        -9.948651902032953
      ],
      [
        "domitius",
        -9.948719059793335
      ],
      [
        "enna",
        -9.949398465238772
      ],
      [
        "audire",
        -9.95030563232952
      ],
      [
        "casu",
        -9.950621835116019
      ],
      [
        "pressi",
        -9.95069097813462
      ],
      [
        "iuxta",
        -9.950712268863182
      ],
      [
        "subsidium",
        -9.950818119084964
      ],
      [
        "ignora",
        -9.95172205466234
      ],
      [
        "aestima",
        -9.952118905228346
      ],
      [
        "reperi",
        -9.95264682926295
      ],
      [
        "fini",
        -9.953203466709528
      ],
      [
        "seruat",
        -9.954658855971994
      ],
      [
        "aciem",
        -9.954698628054839
      ],
      [
        "haurio",
        -9.955304878581059
      ],
      [
        "arbitrium",
        -9.955498331154285
      ],
      [
        "instruo",
        -9.955528976499302
      ],
      [
        "uiolen",
        -9.955762363039304
      ],
      [
        "hostibus",
        -9.956136273033657
      ],
      [
        "generis",
        -9.956362280843756
      ],
      [
        "septi",
        -9.95701712893337
      ],
      [
        "credere",
        -9.957234257114013
      ],
      [
        "octo",
        -9.95734384229073
      ],
      [
        "conseruo",
        -9.95786964663304
      ],
      [
        "uoluit",
        -9.958645380713829
      ],
      [
        "sinu",
        -9.959312522348018
      ],
      [
        "consuetudine",
        -9.959781661820813
      ],
      [
        "fundi",
        -9.960190685807554
      ],
      [
        "prospici",
        -9.96030688228634
      ],
      [
        "utra",
        -9.960372955255949
      ],
      [
        "habita",
        -9.96057546291011
      ],
      [
        "coniuratio",
        -9.960670884361823
      ],
      [
        "appareo",
        -9.961062019960437
      ],
      [
        "perdit",
        -9.96141885383911
      ],
      [
        "barba",
        -9.961583567042364
      ],
      [
        "meos",
        -9.962184677977335
      ],
      [
        "naui",
        -9.962647523548116
      ],
      [
        "potior",
        -9.963301646278701
      ],
      [
        "recenti",
        -9.963328429956604
      ],
      [
        "publico",
        -9.96434787191113
      ],
      [
        "plebe",
        -9.964402759027921
      ],
      [
        "militibus",
        -9.964604194493237
      ],
      [
        "sistere",
        -9.964818549126122
      ],
      [
        "glorio",
        -9.965213238551744
      ],
      [
        "reditus",
        -9.966842216279744
      ],
      [
        "habitu",
        -9.968313261599919
      ],
      [
        "ramus",
        -9.968671429244937
      ],
      [
        "ardeo",
        -9.96882949856409
      ],
      [
        "plena",
        -9.968902668416398
      ],
      [
        "nauibus",
        -9.96957492832782
      ],
      [
        "reges",
        -9.970658006526214
      ],
      [
        "uissent",
        -9.970686656396285
      ],
      [
        "dixisse",
        -9.970917836329836
      ],
      [
        "diuina",
        -9.97228787067758
      ],
      [
        "septem",
        -9.973616261762134
      ],
      [
        "palma",
        -9.973620636328004
      ],
      [
        "futura",
        -9.973956374468127
      ],
      [
        "conting",
        -9.974929867095273
      ],
      [
        "quarum",
        -9.975304044241504
      ],
      [
        "insidia",
        -9.97621424269398
      ],
      [
        "habeat",
        -9.976532336811324
      ],
      [
        "romanu",
        -9.976822314898055
      ],
      [
        "ardor",
        -9.977291648856813
      ],
      [
        "lentulu",
        -9.977601360538916
      ],
      [
        "paenite",
        -9.97809644426193
      ],
      [
        "ridie",
        -9.979301155388413
      ],
      [
        "legionibus",
        -9.979817088084214
      ],
      [
        "liga",
        -9.980332270198256
      ],
      [
        "olea",
        -9.982610367911004
      ],
      [
        "imitor",
        -9.982682374886135
      ],
      [
        "inimicitia",
        -9.98283172666301
      ],
      [
        "aeternus",
        -9.982844458165614
      ],
      [
        "interpret",
        -9.983346307880833
      ],
      [
        "lecto",
        -9.984420758433838
      ],
      [
        "ueniunt",
        -9.985371650646155
      ],
      [
        "referre",
        -9.98734990040678
      ],
      [
        "imber",
        -9.987518722090307
      ],
      [
        "consulto",
        -9.98759675796569
      ],
      [
        "uilis",
        -9.988386362267063
      ],
      [
        "adulescenti",
        -9.988828718467488
      ],
      [
        "iacio",
        -9.989257671810087
      ],
      [
        "sani",
        -9.99182921721421
      ],
      [
        "ornamentum",
        -9.991969194008007
      ],
      [
        "ianua",
        -9.992004523225175
      ],
      [
        "possint",
        -9.992206566854628
      ],
      [
        "frigus",
        -9.992262349838882
      ],
      [
        "iulius",
        -9.992407544066372
      ],
      [
        "caecus",
        -9.992541796105012
      ],
      [
        "supplex",
        -9.9925461799569
      ],
      [
        "terris",
        -9.993332920174169
      ],
      [
        "pluribus",
        -9.993814813297611
      ],
      [
        "idoneu",
        -9.994081064661675
      ],
      [
        "chrys",
        -9.994775722104269
      ],
      [
        "opere",
        -9.995022955850644
      ],
      [
        "germania",
        -9.995051820661795
      ],
      [
        "uetera",
        -9.995088507759174
      ],
      [
        "finio",
        -9.995321238923424
      ],
      [
        "aegre",
        -9.99574680844555
      ],
      [
        "ignominia",
        -9.996908838239351
      ],
      [
        "faciunt",
        -9.997039763138428
      ],
      [
        "iugul",
        -9.997565065299199
      ],
      [
        "tale",
        -9.997836256916523
      ],
      [
        "barbari",
        -9.998274281739633
      ],
      [
        "icta",
        -9.99857607200921
      ],
      [
        "fundus",
        -9.999605661843052
      ],
      [
        "placet",
        -10.000339434599345
      ],
      [
        "socii",
        -10.00212182987383
      ],
      [
        "diuiti",
        -10.002352880669779
      ],
      [
        "clara",
        -10.002889331250518
      ],
      [
        "laeta",
        -10.00297313834148
      ],
      [
        "fusus",
        -10.003561879582591
      ],
      [
        "dubium",
        -10.00370453769954
      ],
      [
        "tacit",
        -10.003851242703526
      ],
      [
        "disce",
        -10.004087057445583
      ],
      [
        "cense",
        -10.004176517092354
      ],
      [
        "cane",
        -10.004708434319372
      ],
      [
        "monstra",
        -10.005280603302941
      ],
      [
        "profectu",
        -10.006411597435545
      ],
      [
        "tecta",
        -10.006739617730581
      ],
      [
        "socer",
        -10.007023555225736
      ],
      [
        "macedone",
        -10.007027508401269
      ],
      [
        "界cum",
        -10.007183939151322
      ],
      [
        "fretum",
        -10.007254435043514
      ],
      [
        "pacem",
        -10.00822073459938
      ],
      [
        "impend",
        -10.008243666326194
      ],
      [
        "confirm",
        -10.008292885450134
      ],
      [
        "prouid",
        -10.00943855051447
      ],
      [
        "formo",
        -10.010219743617707
      ],
      [
        "interuall",
        -10.011439532272147
      ],
      [
        "acie",
        -10.012265477132523
      ],
      [
        "minime",
        -10.013484798640498
      ],
      [
        "desiderium",
        -10.014215256759314
      ],
      [
        "kalenda",
        -10.014229511449876
      ],
      [
        "purus",
        -10.014330619430241
      ],
      [
        "ostende",
        -10.015575351076201
      ],
      [
        "destitu",
        -10.016172747228435
      ],
      [
        "praeclarus",
        -10.016183551579424
      ],
      [
        "plurimum",
        -10.01620357117963
      ],
      [
        "aduersarius",
        -10.016277916544126
      ],
      [
        "iani",
        -10.016449877117209
      ],
      [
        "incendo",
        -10.016864363362089
      ],
      [
        "abstine",
        -10.017417767515617
      ],
      [
        "catul",
        -10.018206687124438
      ],
      [
        "auxilia",
        -10.018786780379216
      ],
      [
        "inclin",
        -10.018896622704702
      ],
      [
        "pastor",
        -10.018899900665488
      ],
      [
        "tormentum",
        -10.01903203382485
      ],
      [
        "equitatu",
        -10.02075212722918
      ],
      [
        "oppido",
        -10.020838668017666
      ],
      [
        "incredibilis",
        -10.02088670046227
      ],
      [
        "descendo",
        -10.020909990545473
      ],
      [
        "castor",
        -10.021020516067143
      ],
      [
        "collega",
        -10.021064720962638
      ],
      [
        "solutus",
        -10.022503660475003
      ],
      [
        "duri",
        -10.023528110589481
      ],
      [
        "flaui",
        -10.023935253169995
      ],
      [
        "uestigi",
        -10.024086996422074
      ],
      [
        "uota",
        -10.024107271831387
      ],
      [
        "ped",
        -10.024318658550596
      ],
      [
        "infestus",
        -10.024895422738913
      ],
      [
        "urna",
        -10.025171374116814
      ],
      [
        "consili",
        -10.0255008891682
      ],
      [
        "fastigi",
        -10.025687918440479
      ],
      [
        "creber",
        -10.025703634021962
      ],
      [
        "inuicem",
        -10.025769058458541
      ],
      [
        "aurea",
        -10.025828622234044
      ],
      [
        "experi",
        -10.026370609097825
      ],
      [
        "imbr",
        -10.026642303330252
      ],
      [
        "propinquus",
        -10.026701530271648
      ],
      [
        "uastus",
        -10.026888908841496
      ],
      [
        "hero",
        -10.027002537258237
      ],
      [
        "scelera",
        -10.027155796467966
      ],
      [
        "redde",
        -10.027901726347714
      ],
      [
        "spatio",
        -10.029159128246881
      ],
      [
        "dicto",
        -10.029249835933566
      ],
      [
        "uagus",
        -10.029283948350386
      ],
      [
        "digno",
        -10.029552846606734
      ],
      [
        "propositum",
        -10.029794338562775
      ],
      [
        "solitus",
        -10.029867572255794
      ],
      [
        "uult",
        -10.030040304824869
      ],
      [
        "alieni",
        -10.030238508284327
      ],
      [
        "uiginti",
        -10.030566404606756
      ],
      [
        "impune",
        -10.03056755478903
      ],
      [
        "naues",
        -10.030584552317382
      ],
      [
        "clades",
        -10.0306518827852
      ],
      [
        "uiolo",
        -10.03079423281767
      ],
      [
        "datum",
        -10.030938153018433
      ],
      [
        "solent",
        -10.031039128876987
      ],
      [
        "conscius",
        -10.031397768512175
      ],
      [
        "simulatio",
        -10.031829175532684
      ],
      [
        "uellet",
        -10.03195611562655
      ],
      [
        "praecipio",
        -10.032147816548902
      ],
      [
        "pestis",
        -10.032508861164889
      ],
      [
        "lucili",
        -10.033109950122618
      ],
      [
        "nauta",
        -10.03313364715038
      ],
      [
        "bonorum",
        -10.034495085503785
      ],
      [
        "parua",
        -10.034688790703166
      ],
      [
        "agricola",
        -10.03548526642377
      ],
      [
        "cupiditate",
        -10.035493303990247
      ],
      [
        "perpetuus",
        -10.035617717791748
      ],
      [
        "beneficia",
        -10.035886356276489
      ],
      [
        "gente",
        -10.036104028298523
      ],
      [
        "fuerat",
        -10.036794123165581
      ],
      [
        "missum",
        -10.037170203242077
      ],
      [
        "contrariu",
        -10.03824610378333
      ],
      [
        "compara",
        -10.03947432935652
      ],
      [
        "pace",
        -10.040367811022966
      ],
      [
        "fulmen",
        -10.040441911016199
      ],
      [
        "subitus",
        -10.041002759246641
      ],
      [
        "obsideo",
        -10.041495292056464
      ],
      [
        "marmor",
        -10.042002319879362
      ],
      [
        "urgeo",
        -10.04226052902629
      ],
      [
        "acriter",
        -10.042453832902302
      ],
      [
        "patiens",
        -10.043623578953815
      ],
      [
        "alem",
        -10.044549421745407
      ],
      [
        "quaerere",
        -10.04470213670168
      ],
      [
        "nuntiat",
        -10.045120508180128
      ],
      [
        "aproniu",
        -10.045133670335806
      ],
      [
        "publici",
        -10.045344357267314
      ],
      [
        "simulacrum",
        -10.045436775807609
      ],
      [
        "concupisc",
        -10.045492245307507
      ],
      [
        "agnosco",
        -10.04556262909365
      ],
      [
        "argumentum",
        -10.045845840410351
      ],
      [
        "probat",
        -10.046061267160212
      ],
      [
        "incendium",
        -10.046531757002858
      ],
      [
        "titi",
        -10.046801175458263
      ],
      [
        "rates",
        -10.047171315714198
      ],
      [
        "grata",
        -10.047556484766808
      ],
      [
        "stupe",
        -10.049361190343594
      ],
      [
        "imperat",
        -10.049776380177994
      ],
      [
        "uespasianu",
        -10.050418464349665
      ],
      [
        "defendere",
        -10.050583999418524
      ],
      [
        "negleg",
        -10.05084495607915
      ],
      [
        "descend",
        -10.05115703402222
      ],
      [
        "sapienti",
        -10.051809381374479
      ],
      [
        "undum",
        -10.052502443755671
      ],
      [
        "pons",
        -10.052553353471401
      ],
      [
        "interrogo",
        -10.052870775966472
      ],
      [
        "respondi",
        -10.053948234713548
      ],
      [
        "maioribus",
        -10.05478484916532
      ],
      [
        "pinus",
        -10.055058478917891
      ],
      [
        "scriba",
        -10.055372071376986
      ],
      [
        "infamia",
        -10.055392936451568
      ],
      [
        "facilius",
        -10.055999796653625
      ],
      [
        "rota",
        -10.056263059765001
      ],
      [
        "amicos",
        -10.05658678663345
      ],
      [
        "atting",
        -10.05753382688225
      ],
      [
        "luge",
        -10.058412676219177
      ],
      [
        "saturn",
        -10.059040156593134
      ],
      [
        "exiguus",
        -10.060993601606214
      ],
      [
        "alioqui",
        -10.061007992589602
      ],
      [
        "studia",
        -10.061138848064015
      ],
      [
        "aduentu",
        -10.063138014226146
      ],
      [
        "ades",
        -10.064179880344085
      ],
      [
        "effugio",
        -10.064988355352572
      ],
      [
        "expedio",
        -10.065353237729532
      ],
      [
        "hector",
        -10.065403905374797
      ],
      [
        "monstrum",
        -10.065524377114043
      ],
      [
        "pudeo",
        -10.06553936241448
      ],
      [
        "habes",
        -10.065588809949393
      ],
      [
        "nequitia",
        -10.06575755733449
      ],
      [
        "pag",
        -10.066560185205402
      ],
      [
        "egi",
        -10.066624612557554
      ],
      [
        "sceleris",
        -10.066887379521543
      ],
      [
        "urge",
        -10.067468292782536
      ],
      [
        "murmur",
        -10.067499653192648
      ],
      [
        "salute",
        -10.068295310032633
      ],
      [
        "expello",
        -10.068601334842917
      ],
      [
        "milibus",
        -10.069787354410373
      ],
      [
        "hiberna",
        -10.07047127058027
      ],
      [
        "fronte",
        -10.070490311765191
      ],
      [
        "grauitas",
        -10.070806816549759
      ],
      [
        "innocentia",
        -10.070885215282948
      ],
      [
        "conspectu",
        -10.071966965507304
      ],
      [
        "medicus",
        -10.072113921212416
      ],
      [
        "scriptum",
        -10.072903349885472
      ],
      [
        "inane",
        -10.0730043323303
      ],
      [
        "flagit",
        -10.073597677239505
      ],
      [
        "uidentur",
        -10.073934204230504
      ],
      [
        "dedecus",
        -10.073957134218334
      ],
      [
        "ambitu",
        -10.075416541500982
      ],
      [
        "inimici",
        -10.075454492105992
      ],
      [
        "lacrimis",
        -10.075574535041536
      ],
      [
        "penates",
        -10.075614622483892
      ],
      [
        "pauca",
        -10.07574328556414
      ],
      [
        "secuti",
        -10.075769811969597
      ],
      [
        "celebra",
        -10.075857212171524
      ],
      [
        "largitio",
        -10.076040716423105
      ],
      [
        "coerce",
        -10.076258568206583
      ],
      [
        "libertatem",
        -10.076922335147145
      ],
      [
        "quietus",
        -10.079444258426108
      ],
      [
        "emend",
        -10.080482684905537
      ],
      [
        "seco",
        -10.080603512322533
      ],
      [
        "maximi",
        -10.080707348752409
      ],
      [
        "falsa",
        -10.080779722147842
      ],
      [
        "captiuus",
        -10.080800647375423
      ],
      [
        "posside",
        -10.081428482218023
      ],
      [
        "existimatio",
        -10.08231718237149
      ],
      [
        "moribus",
        -10.082833588976435
      ],
      [
        "parce",
        -10.082910487046465
      ],
      [
        "fodio",
        -10.08332936000642
      ],
      [
        "arx",
        -10.08535845142147
      ],
      [
        "iuuenta",
        -10.085864971751036
      ],
      [
        "narro",
        -10.08586907419505
      ],
      [
        "fungor",
        -10.085890178620229
      ],
      [
        "britannia",
        -10.086345065392464
      ],
      [
        "coniunx",
        -10.086646652161212
      ],
      [
        "oppianicu",
        -10.08716920684676
      ],
      [
        "mariti",
        -10.08750257704564
      ],
      [
        "doli",
        -10.087736839985409
      ],
      [
        "imperii",
        -10.088587894850043
      ],
      [
        "cresc",
        -10.08924675940664
      ],
      [
        "prehend",
        -10.08970018325293
      ],
      [
        "marcellus",
        -10.091040556438916
      ],
      [
        "accipere",
        -10.09112517117362
      ],
      [
        "ciens",
        -10.091270387324144
      ],
      [
        "praesentia",
        -10.091421053271624
      ],
      [
        "propius",
        -10.091823551421433
      ],
      [
        "macedonia",
        -10.092486412905796
      ],
      [
        "querela",
        -10.092896071834483
      ],
      [
        "paternus",
        -10.092945094949496
      ],
      [
        "ueritas",
        -10.093981594808387
      ],
      [
        "postulat",
        -10.094142954755263
      ],
      [
        "ueteres",
        -10.094185132330866
      ],
      [
        "gentem",
        -10.09527717776233
      ],
      [
        "cinis",
        -10.095424393460071
      ],
      [
        "lapid",
        -10.095868164151604
      ],
      [
        "totidem",
        -10.096241459661481
      ],
      [
        "accid",
        -10.096455246051573
      ],
      [
        "ambigu",
        -10.09648042890672
      ],
      [
        "recuper",
        -10.096867753340263
      ],
      [
        "uindico",
        -10.09712666663114
      ],
      [
        "probe",
        -10.099264572362742
      ],
      [
        "duas",
        -10.100412158101456
      ],
      [
        "candidus",
        -10.101481934996169
      ],
      [
        "pertimesc",
        -10.101791700809336
      ],
      [
        "grex",
        -10.101815177274164
      ],
      [
        "familiari",
        -10.101906388342886
      ],
      [
        "ciuili",
        -10.101985255076649
      ],
      [
        "mota",
        -10.102154823413713
      ],
      [
        "pressa",
        -10.102257054879075
      ],
      [
        "uestro",
        -10.102413375915715
      ],
      [
        "celsus",
        -10.103223752892445
      ],
      [
        "adiuuo",
        -10.103335299737545
      ],
      [
        "lyc",
        -10.104761546675274
      ],
      [
        "monte",
        -10.105138671661658
      ],
      [
        "orta",
        -10.105549355393926
      ],
      [
        "procurator",
        -10.1067863951085
      ],
      [
        "uniuersi",
        -10.10725201898995
      ],
      [
        "incendi",
        -10.108384944841752
      ],
      [
        "reddere",
        -10.108859330741225
      ],
      [
        "domino",
        -10.108885210207184
      ],
      [
        "sura",
        -10.108912342518721
      ],
      [
        "contione",
        -10.109825398018533
      ],
      [
        "nimius",
        -10.1110623454087
      ],
      [
        "regina",
        -10.11135193545805
      ],
      [
        "caelesti",
        -10.112064674931752
      ],
      [
        "perficio",
        -10.112478543016737
      ],
      [
        "peruenit",
        -10.112652864865506
      ],
      [
        "diana",
        -10.112824766209712
      ],
      [
        "moli",
        -10.115825208355067
      ],
      [
        "empti",
        -10.116770885155159
      ],
      [
        "domesticus",
        -10.117355511640408
      ],
      [
        "sollicitus",
        -10.117358598906524
      ],
      [
        "rhenus",
        -10.117358646716546
      ],
      [
        "corripi",
        -10.117363022651377
      ],
      [
        "campo",
        -10.117439536951277
      ],
      [
        "arduu",
        -10.117479016658429
      ],
      [
        "aduersum",
        -10.118059155816415
      ],
      [
        "indulge",
        -10.118136590989888
      ],
      [
        "impetro",
        -10.118788500869965
      ],
      [
        "pulcherrim",
        -10.119139505814411
      ],
      [
        "destina",
        -10.119381363027411
      ],
      [
        "domiti",
        -10.11996150783073
      ],
      [
        "ponti",
        -10.120440303743319
      ],
      [
        "obsto",
        -10.121251018377587
      ],
      [
        "tendere",
        -10.121808096897869
      ],
      [
        "terna",
        -10.121827566598876
      ],
      [
        "tempe",
        -10.121950503763617
      ],
      [
        "dedisse",
        -10.122079763148449
      ],
      [
        "celebro",
        -10.12270234562181
      ],
      [
        "claudi",
        -10.12314363577763
      ],
      [
        "tunica",
        -10.123371862218995
      ],
      [
        "maeror",
        -10.123496507519967
      ],
      [
        "linquo",
        -10.123546077879865
      ],
      [
        "effici",
        -10.124460235451805
      ],
      [
        "partibus",
        -10.124610374922895
      ],
      [
        "aeuo",
        -10.125037934330795
      ],
      [
        "gentium",
        -10.12558359328919
      ],
      [
        "calor",
        -10.125739436741135
      ],
      [
        "controuersia",
        -10.128078713068046
      ],
      [
        "negligo",
        -10.128078754581868
      ],
      [
        "altitud",
        -10.12808191904323
      ],
      [
        "octaui",
        -10.128092372897232
      ],
      [
        "frond",
        -10.128124025077906
      ],
      [
        "leue",
        -10.13114690969238
      ],
      [
        "sacro",
        -10.131187859123234
      ],
      [
        "plect",
        -10.131230660799863
      ],
      [
        "dari",
        -10.132379854964732
      ],
      [
        "decipio",
        -10.132465157801086
      ],
      [
        "fauor",
        -10.133867327203943
      ],
      [
        "palus",
        -10.134138663558092
      ],
      [
        "emit",
        -10.134220298303031
      ],
      [
        "ritus",
        -10.13455390466933
      ],
      [
        "produco",
        -10.134680384225035
      ],
      [
        "deterior",
        -10.134771806602862
      ],
      [
        "uicta",
        -10.135469678243958
      ],
      [
        "cessisse",
        -10.135918789518087
      ],
      [
        "manifest",
        -10.13614454736458
      ],
      [
        "success",
        -10.136314293145983
      ],
      [
        "dabit",
        -10.136557211570622
      ],
      [
        "penes",
        -10.136778352240864
      ],
      [
        "flos",
        -10.136991364565464
      ],
      [
        "humanitas",
        -10.138939411161838
      ],
      [
        "capillus",
        -10.139063013153756
      ],
      [
        "imbu",
        -10.139516158241126
      ],
      [
        "fusa",
        -10.139820785597143
      ],
      [
        "uexo",
        -10.139844334879372
      ],
      [
        "numerum",
        -10.140599593950196
      ],
      [
        "foras",
        -10.141653541145068
      ],
      [
        "uicinus",
        -10.142128083012011
      ],
      [
        "pona",
        -10.142744942684834
      ],
      [
        "secta",
        -10.142969514050314
      ],
      [
        "ullum",
        -10.143236601217982
      ],
      [
        "alterius",
        -10.143941781614801
      ],
      [
        "hercle",
        -10.144383781478204
      ],
      [
        "oceanus",
        -10.144422695621541
      ],
      [
        "reduco",
        -10.144460434566614
      ],
      [
        "censu",
        -10.144648316457367
      ],
      [
        "scribi",
        -10.144717149191985
      ],
      [
        "audaci",
        -10.144779510538545
      ],
      [
        "condicione",
        -10.144972059509609
      ],
      [
        "eripi",
        -10.145123117256402
      ],
      [
        "proelia",
        -10.145581025475519
      ],
      [
        "nocens",
        -10.145746226216835
      ],
      [
        "sabinu",
        -10.147294934417262
      ],
      [
        "clodiu",
        -10.147831468640065
      ],
      [
        "langue",
        -10.148103214057915
      ],
      [
        "fidi",
        -10.14887906637701
      ],
      [
        "potestate",
        -10.14949883779352
      ],
      [
        "simili",
        -10.149829855760897
      ],
      [
        "reliquum",
        -10.149877838689243
      ],
      [
        "pudicitia",
        -10.14987969868729
      ],
      [
        "cubiculum",
        -10.149927608195483
      ],
      [
        "dispono",
        -10.150175595403008
      ],
      [
        "achille",
        -10.150348855689174
      ],
      [
        "falsum",
        -10.150374919117201
      ],
      [
        "rusticus",
        -10.150530321522204
      ],
      [
        "possim",
        -10.150533377382384
      ],
      [
        "quaeris",
        -10.150554166759818
      ],
      [
        "apertus",
        -10.150886251275118
      ],
      [
        "fecerit",
        -10.150898227557118
      ],
      [
        "geminus",
        -10.151118665919316
      ],
      [
        "trepidus",
        -10.151822344632098
      ],
      [
        "agro",
        -10.151839835990478
      ],
      [
        "apollo",
        -10.153573063555099
      ],
      [
        "testimoni",
        -10.15440608295854
      ],
      [
        "pasco",
        -10.154548015227078
      ],
      [
        "necessario",
        -10.155403456710488
      ],
      [
        "frigidus",
        -10.155404560415814
      ],
      [
        "dulce",
        -10.155435424155058
      ],
      [
        "cognita",
        -10.155449626034253
      ],
      [
        "placidus",
        -10.155450088645887
      ],
      [
        "saepius",
        -10.155455304087983
      ],
      [
        "mandatum",
        -10.155782726739076
      ],
      [
        "mereor",
        -10.157130184542282
      ],
      [
        "lumina",
        -10.15715002979271
      ],
      [
        "fuer",
        -10.157601369858703
      ],
      [
[...]
