{
  "version": "1.0",
  "truncation": null,
  "padding": null,
  "added_tokens": [
    {
      "id": 0,
      "content": "[UNK]",
      "single_word": false,
      "lstrip": false,
      "rstrip": false,
      "normalized": false,
      "special": true
    },
    {
      "id": 1,
      "content": "[PAD]",
      "single_word": false,
      "lstrip": false,
      "rstrip": false,
      "normalized": false,
      "special": true
    },
    {
      "id": 2,
      "content": "[EOS]",
      "single_word": false,
      "lstrip": false,
      "rstrip": false,
      "normalized": false,
      "special": true
    },
    {
      "id": 3,
      "content": "[BOS]",
      "single_word": false,
      "lstrip": false,
      "rstrip": false,
      "normalized": false,
      "special": true
    }
  ],
  "normalizer": {
    "type": "NFKD"
  },
  "pre_tokenizer": {
    "type": "Sequence",
    "pretokenizers": [
      {
        "type": "Whitespace"
      },
      {
        "type": "Digits",
        "individual_digits": false
      }
    ]
  },
  "post_processor": null,
  "decoder": {
    "type": "ByteLevel",
    "add_prefix_space": true,
    "trim_offsets": true,
    "use_regex": true
  },
  "model": {
    "type": "Unigram",
    "unk_id": 0,
    "vocab": [
      [
        "[UNK]",
        0.0
      ],
      [
        "[PAD]",
        0.0
      ],
      [
        "[EOS]",
        0.0
      ],
      [
        "[BOS]",
        0.0
      ],
      [
        "e",
        -2.823085729974741
      ],
      [
        "t",
        -3.045176252311716
      ],
      [
        "s",
        -3.0533620602006444
      ],
      [
        "1",
        -3.2395671174305534
      ],
      [
        ",",
        -3.3536436542412282
      ],
      [
        "le",
        -3.62615668289404
      ],
      [
        "a",
        -3.6414017081127614
      ],
      [
        "il",
        -3.6552407915566967
      ],
      [
        ".",
        -3.761044301870365
      ],
      [
        "de",
        -3.813988126937744
      ],
      [
        "l",
        -3.844771392077126
      ],
      [
        "i",
        -3.8885948028523973
      ],
      [
        "2",
        -4.0435672104439
      ],
      [
        "r",
        -4.068895708762792
      ],
      [
        "que",
        -4.100567814579682
      ],
      [
        "en",
        -4.263668608132706
      ],
      [
        "ne",
        -4.38345011914028
      ],
      [
        "4",
        -4.521217200307959
      ],
      [
        "estre",
        -4.544544911816688
      ],
      [
        "'",
        -4.566637271264533
      ],
      [
        "z",
        -4.617728117671813
      ],
      [
        "si",
        -4.652335234235929
      ],
      [
        "3",
        -4.7279438576336155
      ],
      [
        "o",
        -4.8805848463931
      ],
      [
        "ce",
        -4.953534980573416
      ],
      [
        "qui",
        -4.982177602218014
      ],
      [
        "avoir",
        -5.065793794992324
      ],
      [
        "«",
        -5.070571906908336
      ],
      [
        "n",
        -5.0820906385550355
      ],
      [
        "u",
        -5.082576061343881
      ],
      [
        "par",
        -5.1069658792971495
      ],
      [
        "la",
        -5.1242320267023675
      ],
      [
        "son",
        -5.2474471886511385
      ],
      [
        "vos",
        -5.270483416070798
      ],
      [
        "+",
        -5.3674117876576055
      ],
      [
        "faire",
        -5.408921674748422
      ],
      [
        "por",
        -5.409702773106888
      ],
      [
        "un",
        -5.433042343322414
      ],
      [
        "je",
        -5.470268604692281
      ],
      [
        "an",
        -5.514319545061559
      ],
      [
        "c",
        -5.545828944769667
      ],
      [
        "»",
        -5.5484187767953745
      ],
      [
        "d",
        -5.628095952181193
      ],
      [
        "Et",
        -5.634170124179825
      ],
      [
        "v",
        -5.639027921171648
      ],
      [
        "ent",
        -5.646502055462218
      ],
      [
        "est",
        -5.669178441093422
      ],
      [
        "cel",
        -5.763121078812285
      ],
      [
        "soi",
        -5.774329536833784
      ],
      [
        "dire",
        -5.841677594793035
      ],
      [
        "mout",
        -5.845670352477924
      ],
      [
        "tot",
        -5.865776924701887
      ],
      [
        "car",
        -5.906764582447787
      ],
      [
        "ou",
        -5.934888499147412
      ],
      [
        ";",
        -5.975914905893342
      ],
      [
        "chevalier",
        -5.98495894867221
      ],
      [
        ":",
        -5.987974141532387
      ],
      [
        "lor",
        -5.98937929847024
      ],
      [
        "grant",
        -6.029547019561102
      ],
      [
        "or",
        -6.03594694526034
      ],
      [
        "po",
        -6.059837832543314
      ],
      [
        "roi",
        -6.0728578210266075
      ],
      [
        "q",
        -6.072983133036091
      ],
      [
        "bien",
        -6.102988715550946
      ],
      [
        "seignor",
        -6.154173882053932
      ],
      [
        "tant",
        -6.160964717341487
      ],
      [
        "mon",
        -6.163218551974445
      ],
      [
        "mais",
        -6.192171006089987
      ],
      [
        "m",
        -6.193254531518463
      ],
      [
        "ier",
        -6.205183490648102
      ],
      [
        "f",
        -6.2454529023576235
      ],
      [
        "autre",
        -6.246197587978301
      ],
      [
        "fait",
        -6.30713412350268
      ],
      [
        "chose",
        -6.3073282800078125
      ],
      [
        "ge",
        -6.309185186983555
      ],
      [
        "au",
        -6.318816385281833
      ],
      [
        "̈oir",
        -6.321051340861914
      ],
      [
        "à",
        -6.327366063280845
      ],
      [
        "on",
        -6.358351298187559
      ],
      [
        "plus",
        -6.3606804578040865
      ],
      [
        "p",
        -6.368156074875101
      ],
      [
        "veni",
        -6.434991378694534
      ],
      [
        "pas",
        -6.461971530472528
      ],
      [
        "me",
        -6.472035515687047
      ],
      [
        "cant",
        -6.4755690000772965
      ],
      [
        "fu",
        -6.497549773205151
      ],
      [
        "les",
        -6.51213470803944
      ],
      [
        "nos",
        -6.554911652173884
      ],
      [
        "ja",
        -6.58531802598809
      ],
      [
        "aler",
        -6.601006179569909
      ],
      [
        "come",
        -6.610079010471488
      ],
      [
        "estoi",
        -6.635604854864464
      ],
      [
        "dit",
        -6.6611698232629175
      ],
      [
        "qu",
        -6.665287910246062
      ],
      [
        "lui",
        -6.667444658112765
      ],
      [
        "mie",
        -6.677696632124834
      ],
      [
        "ëoir",
        -6.699504013437092
      ],
      [
        "ement",
        -6.704343552804834
      ],
      [
        "com",
        -6.740377072679433
      ],
      [
        "g",
        -6.75029025018512
      ],
      [
        "voir",
        -6.78021125003184
      ],
      [
        "́",
        -6.827092812333048
      ],
      [
        "avoi",
        -6.833265602587458
      ],
      [
        "ant",
        -6.836315984113247
      ],
      [
        "?",
        -6.844276794362723
      ],
      [
        "cest",
        -6.87273850199647
      ],
      [
        "dame",
        -6.891215151098422
      ],
      [
        "devant",
        -6.9058794596616515
      ],
      [
        "saint",
        -6.907696296835381
      ],
      [
        "nul",
        -6.926887317779701
      ],
      [
        "rent",
        -6.9375482064402725
      ],
      [
        "droit",
        -6.979708719867029
      ],
      [
        "ment",
        -6.996730187820352
      ],
      [
        "puis",
        -6.997463613053831
      ],
      [
        "sor",
        -7.005667802611138
      ],
      [
        "nostre",
        -7.008393934830519
      ],
      [
        "voloir",
        -7.020378185328994
      ],
      [
        "Gauvain",
        -7.023129055915749
      ],
      [
        "terre",
        -7.046925679938647
      ],
      [
        "C",
        -7.0627611121807305
      ],
      [
        "ome",
        -7.063435182423849
      ],
      [
        "ost",
        -7.072075725397531
      ],
      [
        "enir",
        -7.077250130128664
      ],
      [
        "jor",
        -7.094832733163164
      ],
      [
        "mes",
        -7.100859786841318
      ],
      [
        "con",
        -7.110764994632006
      ],
      [
        "ëor",
        -7.111041942457282
      ],
      [
        "cil",
        -7.117304573139377
      ],
      [
        "doner",
        -7.150922509480863
      ],
      [
        "!",
        -7.154994509470906
      ],
      [
        "oit",
        -7.156674755456452
      ],
      [
        "non",
        -7.161031918178886
      ],
      [
        "prendre",
        -7.1649183929592075
      ],
      [
        "̀",
        -7.168579581673279
      ],
      [
        "aucun",
        -7.177547331004161
      ],
      [
        "don",
        -7.222241527100541
      ],
      [
        "vostre",
        -7.225816561726459
      ],
      [
        "anz",
        -7.226020671842285
      ],
      [
        "oir",
        -7.232428026037151
      ],
      [
        "metre",
        -7.235983402477613
      ],
      [
        "savoir",
        -7.236066010492732
      ],
      [
        "dist",
        -7.269743472213728
      ],
      [
        "bel",
        -7.273784102106974
      ],
      [
        "mi",
        -7.285428589194972
      ],
      [
        "iez",
        -7.286576208935764
      ],
      [
        "ser",
        -7.295291733401951
      ],
      [
        "demander",
        -7.2953598734567295
      ],
      [
        "rois",
        -7.2957777169113225
      ],
      [
        "é",
        -7.312050223730844
      ],
      [
        "bon",
        -7.320310836324686
      ],
      [
        "contre",
        -7.322016580378505
      ],
      [
        "x",
        -7.327950521207956
      ],
      [
        "oient",
        -7.334841280112663
      ],
      [
        "voit",
        -7.338972900870498
      ],
      [
        "deus",
        -7.341301989464976
      ],
      [
        "entre",
        -7.357823856025976
      ],
      [
        "ma",
        -7.360776209710514
      ],
      [
        "fil",
        -7.3664932168944075
      ],
      [
        "cors",
        -7.367245768322281
      ],
      [
        "dont",
        -7.368807461406531
      ],
      [
        "ont",
        -7.393583495996419
      ],
      [
        "pere",
        -7.403303656244322
      ],
      [
        "che",
        -7.4050619705860825
      ],
      [
        "qant",
        -7.414327064476677
      ],
      [
        "foi",
        -7.467674949488583
      ],
      [
        "emper",
        -7.4798994627443305
      ],
      [
        "doi",
        -7.4824299143491535
      ],
      [
        "A",
        -7.484409662190563
      ],
      [
        "Si",
        -7.484494959443795
      ],
      [
        "rien",
        -7.486892384540312
      ],
      [
        "̈ir",
        -7.498631185611584
      ],
      [
        "coi",
        -7.503172269592609
      ],
      [
        "do",
        -7.504854894021638
      ],
      [
        "moi",
        -7.505036732071205
      ],
      [
        "vint",
        -7.506656606639508
      ],
      [
        "avant",
        -7.507098749636348
      ],
      [
        "b",
        -7.51375377850647
      ],
      [
        "pro",
        -7.535730332596139
      ],
      [
        "mort",
        -7.540836218644701
      ],
      [
        "gent",
        -7.555079270716916
      ],
      [
        "E",
        -7.562653124014338
      ],
      [
        "escu",
        -7.5666208947831155
      ],
      [
        "une",
        -7.566776883923598
      ],
      [
        "Dieu",
        -7.568759184895143
      ],
      [
        "cheval",
        -7.5714667791194765
      ],
      [
        "toz",
        -7.587759675854755
      ],
      [
        "vie",
        -7.59076033710825
      ],
      [
        "ainz",
        -7.602660236149218
      ],
      [
        "vers",
        -7.611612089295098
      ],
      [
        "Li",
        -7.6211635568340705
      ],
      [
        "haut",
        -7.62354206371702
      ],
      [
        "laissier",
        -7.632192690672375
      ],
      [
        "parler",
        -7.644035227552879
      ],
      [
        "parole",
        -7.653670614083291
      ],
      [
        "T",
        -7.665503141451504
      ],
      [
        "sus",
        -7.671184909080027
      ],
      [
        "main",
        -7.6778052472967975
      ],
      [
        "fors",
        -7.6824247569052595
      ],
      [
        "loi",
        -7.70565780771379
      ],
      [
        "maniere",
        -7.7217027044129045
      ],
      [
        "pris",
        -7.7249427688752075
      ],
      [
        "per",
        -7.730827894135117
      ],
      [
        "cha",
        -7.732519805281847
      ],
      [
        "enfant",
        -7.73405256237578
      ],
      [
        "après",
        -7.736267158050046
      ],
      [
        "garde",
        -7.7442433746235455
      ],
      [
        "mori",
        -7.744951503148362
      ],
      [
        "cui",
        -7.751890720694897
      ],
      [
        "fer",
        -7.752601047391295
      ],
      [
        "̈on",
        -7.761779138738228
      ],
      [
        "fi",
        -7.762453214278043
      ],
      [
        "damoisele",
        -7.769364901279299
      ],
      [
        "ton",
        -7.770033379398008
      ],
      [
        "vi",
        -7.7735234350857105
      ],
      [
        "ver",
        -7.778682033941019
      ],
      [
        "mener",
        -7.7815686327509015
      ],
      [
        "espee",
        -7.787003828174684
      ],
      [
        "cité",
        -7.790262308232485
      ],
      [
        "là",
        -7.796253694748649
      ],
      [
        "san",
        -7.797239230842186
      ],
      [
        "partie",
        -7.802834790909003
      ],
      [
        "De",
        -7.805504092172654
      ],
      [
        "puet",
        -7.809093191449581
      ],
      [
        "vez",
        -7.829745415913837
      ],
      [
        "seint",
        -7.829796322989483
      ],
      [
        "quant",
        -7.837056712126676
      ],
      [
        "S",
        -7.83909461544421
      ],
      [
        "I",
        -7.845092967107966
      ],
      [
        "té",
        -7.847087052800157
      ],
      [
        "Mais",
        -7.847618302096659
      ],
      [
        "joie",
        -7.85523330131902
      ],
      [
        "vien",
        -7.855999426310232
      ],
      [
        "einz",
        -7.862741427130079
      ],
      [
        "encore",
        -7.867484552675298
      ],
      [
        "home",
        -7.873577993753994
      ],
      [
        "rai",
        -7.873879259942823
      ],
      [
        "Sire",
        -7.8836076435687445
      ],
      [
        "Lor",
        -7.884402612915172
      ],
      [
        "trover",
        -7.890975640365412
      ],
      [
        "cuer",
        -7.891459332234995
      ],
      [
        "Il",
        -7.899931168321383
      ],
      [
        "uit",
        -7.910496955384758
      ],
      [
        "frere",
        -7.915116052670695
      ],
      [
        "unt",
        -7.917915522483929
      ],
      [
        "chief",
        -7.9190256637006895
      ],
      [
        "ferir",
        -7.920309047007662
      ],
      [
        "ssez",
        -7.92303943834705
      ],
      [
        "̈",
        -7.931751190113515
      ],
      [
        "force",
        -7.933539192451984
      ],
      [
        "porte",
        -7.939231136703837
      ],
      [
        "messire",
        -7.944941853270814
      ],
      [
        "trop",
        -7.951044984979619
      ],
      [
        "hor",
        -7.95616092238399
      ],
      [
        "nom",
        -7.956318430529839
      ],
      [
        "testamen",
        -7.959958423041073
      ],
      [
        "mëisme",
        -7.964058909668515
      ],
      [
        "ainsi",
        -7.96633159547029
      ],
      [
        "garder",
        -7.96742236016407
      ],
      [
        "sire",
        -7.983046441284369
      ],
      [
        "fist",
        -7.983216686333177
      ],
      [
        "chastel",
        -7.990690372691974
      ],
      [
        "mal",
        -7.993510318685228
      ],
      [
        "comencier",
        -7.993743976773558
      ],
      [
        "onque",
        -8.009979215802613
      ],
      [
        "Claud",
        -8.01033700197313
      ],
      [
        "cause",
        -8.015136532491422
      ],
      [
        "Se",
        -8.020186939745464
      ],
      [
        "ire",
        -8.030043862705927
      ],
      [
        "deden",
        -8.032349902380322
      ],
      [
        "fust",
        -8.033441978213837
      ],
      [
        "h",
        -8.038611129699394
      ],
      [
        "chascun",
        -8.041371377034295
      ],
      [
        "porter",
        -8.043296736254657
      ],
      [
        "cort",
        -8.044113035482368
      ],
      [
        "tens",
        -8.045177364122722
      ],
      [
        "demande",
        -8.049966074464534
      ],
      [
        "riche",
        -8.059148105549353
      ],
      [
        "lieu",
        -8.061887398779156
      ],
      [
        "tor",
        -8.062113227966519
      ],
      [
        "chier",
        -8.070368889439223
      ],
      [
        "ï",
        -8.078410294744856
      ],
      [
        "hom",
        -8.079917139335887
      ],
      [
        "-",
        -8.079929089071456
      ],
      [
        "voi",
        -8.085952795053412
      ],
      [
        "querre",
        -8.086171612288702
      ],
      [
        "durem",
        -8.086235928016126
      ],
      [
        "apeler",
        -8.086281621570617
      ],
      [
        "tres",
        -8.087887446273411
      ],
      [
        "res",
        -8.094845722162074
      ],
      [
        "cor",
        -8.096330047811778
      ],
      [
        "Artu",
        -8.099868156521882
      ],
      [
        "L",
        -8.100457981198996
      ],
      [
        "autres",
        -8.10494326275962
      ],
      [
        "emperere",
        -8.115561480177
      ],
      [
        "apré",
        -8.11750651018764
      ],
      [
        "rendre",
        -8.118233843331666
      ],
      [
        "Hector",
        -8.118331169780353
      ],
      [
        "poi",
        -8.119908355189965
      ],
      [
        "ons",
        -8.122313099157296
      ],
      [
        "P",
        -8.122572916264573
      ],
      [
        "röi",
        -8.123909653262643
      ],
      [
        "ha",
        -8.126076916522772
      ],
      [
        "fet",
        -8.127756485914325
      ],
      [
        "cuidier",
        -8.133779510425338
      ],
      [
        "eus",
        -8.140475834667772
      ],
      [
        "oz",
        -8.143527713828835
      ],
      [
        "nuit",
        -8.143919355753663
      ],
      [
        "co",
        -8.146400652698091
      ],
      [
        "pai",
        -8.147619682990928
      ],
      [
        "leur",
        -8.14773888186975
      ],
      [
        "reine",
        -8.16528223292537
      ],
      [
        "venu",
        -8.166347592497782
      ],
      [
        "sol",
        -8.170573315162539
      ],
      [
        "Lancelo",
        -8.174339369469411
      ],
      [
        "ba",
        -8.174395542972343
      ],
      [
        "autresi",
        -8.18302505928525
      ],
      [
        "encontre",
        -8.184036376655161
      ],
      [
        "j",
        -8.187062972394274
      ],
      [
        "esté",
        -8.187122679728091
      ],
      [
        "conte",
        -8.188827289527929
      ],
      [
        "B",
        -8.194915069983058
      ],
      [
        "maison",
        -8.201345927357558
      ],
      [
        "oï",
        -8.207986327583491
      ],
      [
        "dis",
        -8.22150168378479
      ],
      [
        "conme",
        -8.223534237121978
      ],
      [
        "arme",
        -8.223928513740242
      ],
      [
        "La",
        -8.226028684006598
      ],
      [
        "premier",
        -8.226084249974596
      ],
      [
        "M",
        -8.22980298675464
      ],
      [
        "mor",
        -8.230531655822322
      ],
      [
        "uz",
        -8.236081270085247
      ],
      [
        "col",
        -8.236093643147806
      ],
      [
        "comander",
        -8.245387304449903
      ],
      [
        "jusque",
        -8.245663612914427
      ],
      [
        "merci",
        -8.245795687556598
      ],
      [
        "voie",
        -8.246349266776287
      ],
      [
        "pié",
        -8.251027672830418
      ],
      [
        "granz",
        -8.251286639952935
      ],
      [
        "otroi",
        -8.25506783479494
      ],
      [
        "raison",
        -8.264024429112705
      ],
      [
        "G",
        -8.269934829100642
      ],
      [
        "amer",
        -8.271337596751982
      ],
      [
        "nus",
        -8.271775038006762
      ],
      [
        "pre",
        -8.275400726322058
      ],
      [
        "accion",
        -8.27862809655679
      ],
      [
        "és",
        -8.279309463115737
      ],
      [
        "juge",
        -8.28526416686304
      ],
      [
        "priier",
        -8.28625015096533
      ],
      [
        "tre",
        -8.286885219342798
      ],
      [
        "gen",
        -8.288056035187385
      ],
      [
        "Gui",
        -8.289668606317
      ],
      [
        "vo",
        -8.294788076021542
      ],
      [
        "paien",
        -8.309062551289259
      ],
      [
        "sai",
        -8.311645567284682
      ],
      [
        "onques",
        -8.316410290016723
      ],
      [
        "ceste",
        -8.317759529651765
      ],
      [
        "envoi",
        -8.319975624646833
      ],
      [
        "feme",
        -8.324474678980918
      ],
      [
        "ance",
        -8.325073114752861
      ],
      [
        "Deu",
        -8.330567720748338
      ],
      [
        "V",
        -8.33141911034588
      ],
      [
        "ist",
        -8.331492219670663
      ],
      [
        "totes",
        -8.336819432258112
      ],
      [
        "prison",
        -8.349192410625449
      ],
      [
        "duc",
        -8.356961919552027
      ],
      [
        "ié",
        -8.362396815016083
      ],
      [
        "Or",
        -8.365368122986574
      ],
      [
        "N",
        -8.367354940012406
      ],
      [
        "baron",
        -8.370676718853368
      ],
      [
        "ami",
        -8.371814057806272
      ],
      [
        "gne",
        -8.376531860734865
      ],
      [
        "oi",
        -8.379579532491196
      ],
      [
        "trui",
        -8.381907062663789
      ],
      [
        "conter",
        -8.386298692346877
      ],
      [
        "pucele",
        -8.390923541294274
      ],
      [
        "Quant",
        -8.3931228136638
      ],
      [
        "monde",
        -8.394691791759792
      ],
      [
        "entrer",
        -8.396301552459217
      ],
      [
        "perdre",
        -8.397697543967361
      ],
      [
        "entendr",
        -8.398528082419372
      ],
      [
        "Qan",
        -8.400057136139537
      ],
      [
        "O",
        -8.400287071389176
      ],
      [
        "ient",
        -8.4009698576664
      ],
      [
        "recevoi",
        -8.401682019292231
      ],
      [
        "aidier",
        -8.403860887281908
      ],
      [
        "ocire",
        -8.405306238247135
      ],
      [
        "mis",
        -8.406718015427174
      ],
      [
        "mere",
        -8.408646705843386
      ],
      [
        "dre",
        -8.408819024700474
      ],
      [
        "monter",
        -8.412240470166317
      ],
      [
        "ain",
        -8.415492325911984
      ],
      [
        "respondr",
        -8.419635502233671
      ],
      [
        "maint",
        -8.420873841557448
      ],
      [
        "Ne",
        -8.421291103384494
      ],
      [
        "ch",
        -8.421424104414106
      ],
      [
        "tendre",
        -8.422499603589884
      ],
      [
        "Martin",
        -8.429263533207333
      ],
      [
        "soz",
        -8.431780166871865
      ],
      [
        "comen",
        -8.432992558918661
      ],
      [
        "mer",
        -8.438768127767176
      ],
      [
        "igne",
        -8.442046685042637
      ],
      [
        "ait",
        -8.445424009715843
      ],
      [
        "ensemble",
        -8.446207734094084
      ],
      [
        "cri",
        -8.447871599083035
      ],
      [
        "D",
        -8.456278820208254
      ],
      [
        "outre",
        -8.457306238614903
      ],
      [
        "Galeha",
        -8.457317929930051
      ],
      [
        "y",
        -8.461719398064037
      ],
      [
        "duel",
        -8.461942711655016
      ],
      [
        "volentier",
        -8.462673579756366
      ],
      [
        "pri",
        -8.464869271979202
      ],
      [
        "amor",
        -8.46956643653359
      ],
      [
        "certe",
        -8.471384548857298
      ],
      [
        "Galeho",
        -8.471971189919046
      ],
      [
        "trair",
        -8.47482016660196
      ],
      [
        "char",
        -8.476417554523758
      ],
      [
        "plai",
        -8.479927136194448
      ],
      [
        "teste",
        -8.481460275593177
      ],
      [
        "sera",
        -8.482964118397234
      ],
      [
        "droiture",
        -8.48735108132939
      ],
      [
        "bataille",
        -8.491556897906856
      ],
      [
        "comme",
        -8.492063481289486
      ],
      [
        "pu",
        -8.493877818767306
      ],
      [
        "covenance",
        -8.494652321863661
      ],
      [
        "matin",
        -8.50415216605007
      ],
      [
        "cori",
        -8.506242994568419
      ],
      [
        "aus",
        -8.512402836680332
      ],
      [
        "suen",
        -8.512479724934142
      ],
      [
        "fier",
        -8.519969559298138
      ],
      [
        "iretage",
        -8.521688308140535
      ],
      [
        "ign",
        -8.523925048265934
      ],
      [
        "Que",
        -8.526234299211268
      ],
      [
        "nule",
        -8.530273105774931
      ],
      [
        "vent",
        -8.533791723613234
      ],
      [
        "partir",
        -8.538780111542026
      ],
      [
        "passer",
        -8.540276745294772
      ],
      [
        "lais",
        -8.54066819296395
      ],
      [
        "vis",
        -8.540759474384993
      ],
      [
        "coveni",
        -8.547607971173509
      ],
      [
        "issi",
        -8.54775096498473
      ],
      [
        "petit",
        -8.550120508499571
      ],
      [
        "penser",
        -8.551150399773551
      ],
      [
        "Ni",
        -8.552023198378752
      ],
      [
        "volenté",
        -8.552879280555185
      ],
      [
        "vit",
        -8.553138605779015
      ],
      [
        "met",
        -8.555393663959075
      ],
      [
        "issir",
        -8.556426555852823
      ],
      [
        "bra",
        -8.556594161197818
      ],
      [
        "mant",
        -8.56061812445924
      ],
      [
        "mestier",
        -8.567276044104451
      ],
      [
        "coup",
        -8.569862948004033
      ],
      [
        "valoi",
        -8.576851928789896
      ],
      [
        "jo",
        -8.57872812770944
      ],
      [
        "lever",
        -8.5822584648479
      ],
      [
        "aveni",
        -8.582875819012676
      ],
      [
        "onc",
        -8.583145214712161
      ],
      [
        "eü",
        -8.585933417801051
      ],
      [
        "Pharien",
        -8.590208934779445
      ],
      [
        "ven",
        -8.59067469959367
      ],
      [
        "dou",
        -8.590982143446634
      ],
      [
        "ble",
        -8.595691201379887
      ],
      [
        "fin",
        -8.597563560936848
      ],
      [
        "Ma",
        -8.60213339017197
      ],
      [
        "defendre",
        -8.606958318783215
      ],
      [
        "vas",
        -8.608601719543431
      ],
      [
        "prodome",
        -8.609520878395049
      ],
      [
        "ame",
        -8.61179280615811
      ],
      [
        "conoistr",
        -8.617464306627364
      ],
      [
        "conseil",
        -8.618171057908944
      ],
      [
        "reveni",
        -8.618285625445079
      ],
      [
        "ssent",
        -8.61865687587255
      ],
      [
        "ça",
        -8.618947542811522
      ],
      [
        "for",
        -8.623340117212528
      ],
      [
        "remanoi",
        -8.634019198134208
      ],
      [
        "aventure",
        -8.637708839595149
      ],
      [
        "aire",
        -8.643965082261701
      ],
      [
        "gier",
        -8.645088765546678
      ],
      [
        "livre",
        -8.64760764055367
      ],
      [
        "fort",
        -8.649625478522854
      ],
      [
        "Dame",
        -8.652193476436462
      ],
      [
        "Franc",
        -8.655086803988588
      ],
      [
        "pour",
        -8.663963536402129
      ],
      [
        "croir",
        -8.670662245761857
      ],
      [
        "prevost",
        -8.671864096024734
      ],
      [
        "antre",
        -8.674688782402729
      ],
      [
        "honte",
        -8.680485314039949
      ],
      [
        "eur",
        -8.680523416896742
      ],
      [
        "ple",
        -8.681179313475269
      ],
      [
        "Signor",
        -8.68157145192962
      ],
      [
        "mainten",
        -8.683494216440323
      ],
      [
        "compagnie",
        -8.68456425449347
      ],
      [
        "ex",
        -8.684651954960236
      ],
      [
        "plusor",
        -8.68691083430638
      ],
      [
        "escuier",
        -8.690811917372923
      ],
      [
        "tier",
        -8.692015691382
      ],
      [
        "establir",
        -8.692576835519983
      ],
      [
        "Richier",
        -8.693605880457657
      ],
      [
        "ariere",
        -8.699994883333163
      ],
      [
        "action",
        -8.702781087976232
      ],
      [
        "ofrir",
        -8.705832908219982
      ],
      [
        "persone",
        -8.706622289280611
      ],
      [
        "Je",
        -8.715142701144888
      ],
      [
        "novele",
        -8.718453224511325
      ],
      [
        "vin",
        -8.719342143680734
      ],
      [
        "F",
        -8.721629674079772
      ],
      [
        "font",
        -8.729378113847474
      ],
      [
        "dieu",
        -8.72965926075159
      ],
      [
        "age",
        -8.730019545548576
      ],
      [
        "onor",
        -8.733155140847606
      ],
      [
        "Don",
        -8.735830562913442
      ],
      [
        "aussi",
        -8.737468912597805
      ],
      [
        "lance",
        -8.744254568574384
      ],
      [
        "Yvain",
        -8.74643622772803
      ],
      [
        "Par",
        -8.747241944230925
      ],
      [
        "Charle",
        -8.749604146205911
      ],
      [
        "bail",
        -8.750424503716719
      ],
      [
        "vel",
        -8.752092423854386
      ],
      [
        "vile",
        -8.753105986634651
      ],
      [
        "torner",
        -8.75445326378917
      ],
      [
        "valle",
        -8.75539560643347
      ],
      [
        "selon",
        -8.755988294338646
      ],
      [
        "mangier",
        -8.759262861964512
      ],
      [
        "OU",
        -8.759320227987176
      ],
      [
        "armer",
        -8.760358965051514
      ],
      [
        "mander",
        -8.76111724928608
      ],
      [
        "tout",
        -8.761875925894813
      ],
      [
        "gue",
        -8.762283462443117
      ],
      [
        "covenan",
        -8.764251178265091
      ],
      [
        "mostrer",
        -8.764970849190775
      ],
      [
        "Hestor",
        -8.765792119467122
      ],
      [
        "avue",
        -8.769208475186664
      ],
      [
        "sentence",
        -8.772392907096023
      ],
      [
        "point",
        -8.774243865110758
      ],
      [
        "ure",
        -8.776692045744703
      ],
      [
        "fai",
        -8.778762631692228
      ],
      [
        "atant",
        -8.783956597421207
      ],
      [
        "conquerr",
        -8.785147148374381
      ],
      [
        "emp",
        -8.785335436267363
      ],
      [
        "fame",
        -8.78606592432157
      ],
      [
        "vous",
        -8.787519499356312
      ],
      [
        "cler",
        -8.791552237723208
      ],
      [
        "vole",
        -8.791713529488575
      ],
      [
        "piece",
        -8.795541705529152
      ],
      [
        "jurer",
        -8.805548107096676
      ],
      [
        "establissemen",
        -8.805588659808617
      ],
      [
        "alir",
        -8.806484969711153
      ],
      [
        "plair",
        -8.806878697897623
      ],
      [
        "denier",
        -8.811487225384836
      ],
      [
        "heaume",
        -8.815742793512351
      ],
      [
        "indre",
        -8.816066949110127
      ],
      [
        "establi",
        -8.816296426743742
      ],
      [
        "Au",
        -8.820277303270466
      ],
      [
        "armes",
        -8.82129672618878
      ],
      [
        "ëag",
        -8.82312699240806
      ],
      [
        "biau",
        -8.824970319675348
      ],
      [
        "meisme",
        -8.82962388137821
      ],
      [
        "plorer",
        -8.834287923514289
      ],
      [
        "chan",
        -8.84706161533691
      ],
      [
        "meillor",
        -8.847772852480437
      ],
      [
        "povre",
        -8.848997384289763
      ],
      [
        "restituti",
        -8.850528473283681
      ],
      [
        "fere",
        -8.855422196731757
      ],
      [
        "besoigne",
        -8.856465401335045
      ],
      [
        "commen",
        -8.858097566063325
      ],
      [
        "peine",
        -8.858418302971204
      ],
      [
        "amener",
        -8.86052546034863
      ],
      [
        "titre",
        -8.860905785930232
      ],
      [
        "val",
        -8.864827433724448
      ],
      [
        "̈er",
        -8.867733032784573
      ],
      [
        "voloi",
        -8.86796686949268
      ],
      [
        "senescha",
        -8.86798158372894
      ],
      [
        "ïent",
        -8.869381357916751
      ],
      [
        "R",
        -8.869446314228693
      ],
      [
        "sage",
        -8.871971415508643
      ],
      [
        "destrier",
        -8.87202306831013
      ],
      [
        "sachie",
        -8.874616588181407
      ],
      [
        "combatr",
        -8.874779868392084
      ],
      [
        "ïon",
        -8.877195257871623
      ],
      [
        "avra",
        -8.878226988671917
      ],
      [
        "franc",
        -8.878320014816584
      ],
      [
        "Floovan",
        -8.879255682153481
      ],
      [
        "gre",
        -8.880579577711902
      ],
      [
        "maistre",
        -8.882138025329787
      ],
      [
        "restitucion",
        -8.882905315727784
      ],
      [
        "movoi",
        -8.885278061512576
      ],
      [
        "certain",
        -8.886595820583619
      ],
      [
        "esgarder",
        -8.888082705676664
      ],
      [
        "Por",
        -8.892002796187466
      ],
      [
        "né",
        -8.894668697104663
      ],
      [
        "pres",
        -8.895964708411036
      ],
      [
        "compagnon",
        -8.897638531729967
      ],
      [
        "Rollan",
        -8.897645578705088
      ],
      [
        "mar",
        -8.907351419977212
      ],
      [
        "fiert",
        -8.908728676208142
      ],
      [
        "Certe",
        -8.908850780032138
      ],
      [
        "pueple",
        -8.908999935808847
      ],
      [
        "lié",
        -8.909117204308322
      ],
      [
        "chevalerie",
        -8.91637052983705
      ],
      [
        "fille",
        -8.920833584671731
      ],
      [
        "apele",
        -8.921662725714803
      ],
      [
        "baillier",
        -8.93215556906418
      ],
      [
        "glaive",
        -8.935454632754116
      ],
      [
        "avon",
        -8.936587313074506
      ],
      [
        "mau",
        -8.937966912846719
      ],
      [
        "oser",
        -8.94661093666607
      ],
      [
        "costume",
        -8.947079013974793
      ],
      [
        "Françoi",
        -8.950985792563547
      ],
      [
        "vertu",
        -8.953778123902767
      ],
      [
        "mein",
        -8.958323860370365
      ],
      [
        "cinc",
        -8.959132782073983
      ],
      [
        "près",
        -8.959200234140393
      ],
      [
        "trenchie",
        -8.959718888804758
      ],
      [
        "jur",
        -8.961347237969495
      ],
      [
        "aage",
        -8.963898624206815
      ],
      [
        "ostel",
        -8.964310856926266
      ],
      [
        "nevo",
        -8.969440602360894
      ],
      [
        "congié",
        -8.971123537437217
      ],
      [
        "dui",
        -8.971609478317587
      ],
      [
        "H",
        -8.973037603303002
      ],
      [
        "demorer",
        -8.974815391840162
      ],
      [
        "verité",
        -8.979107713857942
      ],
      [
        "demain",
        -8.98027031149544
      ],
      [
        "ré",
        -8.982757679038617
      ],
      [
        "able",
        -8.985386396722031
      ],
      [
        "table",
        -8.986510580144643
      ],
      [
        "gar",
        -8.990217222385564
      ],
      [
        "regarder",
        -8.991243581659191
      ],
      [
        "ber",
        -8.991372713916988
      ],
      [
        "mauvais",
        -8.994995506117522
      ],
      [
        "jugemen",
        -8.996413936543831
      ],
      [
        "uis",
        -8.997763481708041
      ],
      [
        "merveille",
        -8.999314586899317
      ],
      [
        "ester",
        -9.003211802996084
      ],
      [
        "champ",
        -9.003322035312113
      ],
      [
        "aporter",
        -9.003373253524689
      ],
      [
        "errer",
        -9.004165834025478
      ],
      [
        "Mes",
        -9.010182868278052
      ],
      [
        "chevauchier",
        -9.013133420064314
      ],
      [
        "́s",
        -9.013253488550884
      ],
      [
        "rez",
        -9.013569462524677
      ],
      [
        "bran",
        -9.013870923061251
      ],
      [
        "departir",
        -9.01490179450797
      ],
      [
        "pa",
        -9.01618775626411
      ],
      [
        "sui",
        -9.016705582579132
      ],
      [
        "torne",
        -9.019575283175158
      ],
      [
        "dolor",
        -9.019582773689361
      ],
      [
        "miracle",
        -9.019837823738444
      ],
      [
        "esperon",
        -9.019910165011563
      ],
      [
        "compaignie",
        -9.028258580933784
      ],
      [
        "molt",
        -9.029173551277694
      ],
      [
        "trestot",
        -9.029450365587616
      ],
      [
        "tort",
        -9.030988690702877
      ],
      [
        "ïs",
        -9.03313046940221
      ],
      [
        "fre",
        -9.034511704737199
      ],
      [
        "solem",
        -9.039402226287951
      ],
      [
        "siecle",
        -9.041677244703752
      ],
      [
        "Huidelon",
        -9.045316498716264
      ],
      [
        "chambre",
        -9.045425905014678
      ],
      [
        "vé",
        -9.047956503289859
      ],
      [
        "tenu",
        -9.048613267204356
      ],
      [
        "defend",
        -9.048785874967939
      ],
      [
        "croi",
        -9.049271663938041
      ],
      [
        "contree",
        -9.049976574549742
      ],
      [
        "tinel",
        -9.052341304779919
      ],
      [
        "nois",
        -9.053404588749345
      ],
      [
        "ront",
        -9.05658135798261
      ],
      [
        "pöeste",
        -9.060047480142206
      ],
      [
        "jus",
        -9.060719044770053
      ],
      [
        "pran",
        -9.063555751006495
      ],
      [
        "veoir",
        -9.06399589800618
      ],
      [
        "envers",
        -9.066452445798841
      ],
      [
        "verai",
        -9.066620965360608
      ],
      [
        "nsamble",
        -9.070265141115968
      ],
      [
        "pëor",
        -9.070313201461857
      ],
      [
        "çon",
        -9.073571338269431
      ],
      [
        "oster",
        -9.075288973873416
      ],
      [
        "moine",
        -9.075733350962242
      ],
      [
        "seroi",
        -9.081465133769452
      ],
      [
        "avis",
        -9.082776281545428
      ],
      [
        "palai",
        -9.0866635999877
      ],
      [
        "comandemen",
        -9.08941870944375
      ],
      [
        "respon",
        -9.090242444891512
      ],
      [
        "arriere",
        -9.090420075768245
      ],
      [
        "forest",
        -9.095189601535807
      ],
      [
        "bre",
        -9.099388224633383
      ],
      [
        "plaidie",
        -9.099493770337908
      ],
      [
        "hiaume",
        -9.10285503537326
      ],
      [
        "Beneoit",
        -9.104156032713448
      ],
      [
        "damage",
        -9.107457926745916
      ],
      [
        "estrange",
        -9.10746407841254
      ],
      [
        "assembler",
        -9.112878086672508
      ],
      [
        "andu",
        -9.114764771757484
      ],
      [
        "prist",
        -9.115023263419928
      ],
      [
        "propre",
        -9.115199821271595
      ],
      [
        "chie",
        -9.115963996742504
      ],
      [
        "mieu",
        -9.124179056744063
      ],
      [
        "servir",
        -9.125362160717222
      ],
      [
        "Car",
        -9.125674234987821
      ],
      [
        "alez",
        -9.128217126433066
      ],
      [
        "Mar",
        -9.12866624257014
      ],
      [
        "aucune",
        -9.129371897486472
      ],
      [
        "igue",
        -9.130291214824531
      ],
      [
        "ivre",
        -9.131735956322999
      ],
      [
        "franchise",
        -9.133073465479491
      ],
      [
        "comun",
        -9.136122241928502
      ],
      [
        "crïe",
        -9.138027606690072
      ],
      [
        "requerr",
        -9.139510832980829
      ],
      [
        "corone",
        -9.141199744281403
      ],
      [
        "descendr",
        -9.144784777306487
      ],
      [
        "face",
        -9.146788214045609
      ],
      [
        "pitié",
        -9.149486657221122
      ],
      [
        "retorner",
        -9.153392326772533
      ],
      [
        "bu",
        -9.157746755049263
      ],
      [
        "Pui",
        -9.157934248257709
      ],
      [
        "eüst",
        -9.159396640484323
      ],
      [
        "nfes",
        -9.160631918114316
      ],
      [
        "preu",
        -9.16588585091578
      ],
      [
        "parti",
        -9.166500876127506
      ],
      [
        "hui",
        -9.167782912062574
      ],
      [
        "Ge",
        -9.168532090728473
      ],
      [
        "apert",
        -9.169318366827559
      ],
      [
        "ceus",
        -9.16950171064867
      ],
      [
        "atre",
        -9.17365238102327
      ],
      [
        "procur",
        -9.174101679293504
      ],
      [
        "inçoi",
        -9.174562325887589
      ],
      [
        "mur",
        -9.174845235871302
      ],
      [
        "mien",
        -9.175828599970654
      ],
      [
        "seur",
        -9.177651797613294
      ],
      [
        "naistr",
        -9.178554550548746
      ],
      [
        "hardi",
        -9.178696185778355
      ],
      [
        "iluec",
        -9.181597294899753
      ],
      [
        "damoiselle",
        -9.182674576558966
      ],
      [
        "dolent",
        -9.184018038148926
      ],
      [
        "fete",
        -9.185746932943022
      ],
      [
        "serjan",
        -9.188554510513885
      ],
      [
        "venoi",
        -9.188781980808798
      ],
      [
        "marchié",
        -9.18881073050668
      ],
      [
        "Qui",
        -9.191363071282804
      ],
      [
        "arrasin",
        -9.193392591410287
      ],
      [
        "veü",
        -9.193591504466289
      ],
      [
        "prover",
        -9.19557166002759
      ],
      [
        "ité",
        -9.198801230900692
      ],
      [
        "hauberc",
        -9.199281078037524
      ],
      [
        "ieste",
        -9.201038254667651
      ],
      [
        "eglise",
        -9.203418162448715
      ],
      [
        "livrer",
        -9.204868350559998
      ],
      [
        "träi",
        -9.205234754281545
      ],
      [
        "blanc",
        -9.207817570863913
      ],
      [
        "sovent",
        -9.2093702276593
      ],
      [
        "mande",
        -9.212621200232853
      ],
      [
        "meïsme",
        -9.213584681438734
      ],
      [
        "paz",
        -9.215125276740507
      ],
      [
        "mot",
        -9.215324563217642
      ],
      [
        "regne",
        -9.215350985297562
      ],
      [
        "pais",
        -9.216137809751741
      ],
      [
        "fei",
        -9.21667756783785
      ],
      [
        "uevre",
        -9.221026811041277
      ],
      [
        "avocat",
        -9.221433676179629
      ],
      [
        "bri",
        -9.222880385433005
      ],
      [
        "cier",
        -9.225004796744404
      ],
      [
        "pooir",
        -9.225928199821052
      ],
      [
        "navre",
        -9.227918784398181
      ],
      [
        "laien",
        -9.232436769693752
      ],
      [
        "anfan",
        -9.233458075481778
      ],
      [
        "haute",
        -9.235222573496264
      ],
      [
        "cop",
        -9.236838571052914
      ],
      [
        "eritage",
        -9.238993383009259
      ],
      [
        "quar",
        -9.240747176947732
      ],
      [
        "xx",
        -9.24373424988603
      ],
      [
        "ïable",
        -9.244973615610803
      ],
      [
        "poesté",
        -9.246234262833852
      ],
      [
        "membre",
        -9.246712121588162
      ],
      [
        "öer",
        -9.247725545688937
      ],
      [
        "empereeur",
        -9.24987896841526
      ],
      [
        "jete",
        -9.25541500946709
      ],
      [
        "äis",
        -9.257105610884746
      ],
      [
        "gré",
        -9.259156583641623
      ],
      [
        "riviere",
        -9.265779037790875
      ],
      [
        "oiier",
        -9.269466963059909
      ],
      [
        "monte",
        -9.269934493761756
      ],
      [
        "mo",
        -9.270927637228326
      ],
      [
        "colas",
        -9.275633144929397
      ],
      [
        "vivr",
        -9.275787897291625
      ],
      [
        "erre",
        -9.275974362673214
      ],
      [
        "avoca",
        -9.275999811880668
      ],
      [
        "Cis",
        -9.279525999779201
      ],
      [
        "sairemen",
        -9.279577408179696
      ],
      [
        "An",
        -9.280048707366287
      ],
      [
        "plein",
        -9.28358477333299
      ],
      [
        "cur",
        -9.284296979210623
      ],
      [
        "naturel",
        -9.284451167821825
      ],
      [
        "avroi",
        -9.28462968341195
      ],
      [
        "chol",
        -9.286259577908197
      ],
      [
        "oiz",
        -9.286537942770462
      ],
      [
        "prince",
        -9.287555150575427
      ],
      [
        "ciel",
        -9.289102968825674
      ],
      [
        "sanc",
        -9.292366526524455
      ],
      [
        "mostier",
        -9.293003408797395
      ],
      [
        "esche",
        -9.298130591381064
      ],
      [
        "Sagremor",
        -9.298475443969474
      ],
      [
        "Naime",
        -9.298500774513576
      ],
      [
        "tolir",
        -9.298515614829308
      ],
      [
        "paï",
        -9.29947771472936
      ],
      [
        "celer",
        -9.300598016903876
      ],
      [
        "gaire",
        -9.300824350609956
      ],
      [
        "devers",
        -9.303016150090226
      ],
      [
        "Ha",
        -9.305322875563231
      ],
      [
        "Atan",
        -9.30822631492287
      ],
      [
        "escri",
        -9.308954033351952
      ],
      [
        "chié",
        -9.309162601655437
      ],
      [
        "quoi",
        -9.31027172184481
      ],
      [
        "deviser",
        -9.310886473514215
      ],
      [
        "voil",
        -9.312380038683724
      ],
      [
        "entend",
        -9.313474884578797
      ],
      [
        "long",
        -9.314095055013173
      ],
      [
        "mise",
        -9.314992738838495
      ],
      [
        "porroi",
        -9.320362327952227
      ],
      [
        "oïr",
        -9.3206175565773
      ],
      [
        "äi",
        -9.32220713028076
      ],
      [
        "tion",
        -9.322725338082975
      ],
      [
        "nui",
        -9.322925818058218
      ],
      [
        "feroi",
        -9.326020531326204
      ],
      [
        "seul",
        -9.328414072352585
      ],
      [
        "rès",
        -9.329135988794459
      ],
      [
        "enseigne",
        -9.332832922554712
      ],
      [
        "covien",
        -9.33382235762988
      ],
      [
        "danz",
        -9.334198580207993
      ],
      [
        "beste",
        -9.335538688062687
      ],
      [
        "Karle",
        -9.336904354326663
      ],
      [
        "doter",
        -9.33784238193645
      ],
      [
        "commande",
        -9.338377319795118
      ],
      [
        "vendre",
        -9.33953177892733
      ],
      [
        "disoi",
        -9.340905583148192
      ],
      [
        "durer",
        -9.343859504875926
      ],
      [
        "batre",
        -9.345475300585912
      ],
      [
        "ferai",
        -9.34623897980196
      ],
      [
        "lëa",
        -9.346838051457436
      ],
      [
        "cas",
        -9.348755682324622
      ],
      [
        "grace",
        -9.349482947719215
      ],
      [
        "0",
        -9.349615880075824
      ],
      [
        "compaignon",
        -9.349622816968656
      ],
      [
        "Tant",
        -9.351396691930894
      ],
      [
        "argent",
        -9.352422822847782
      ],
      [
        "user",
        -9.353156675058901
      ],
      [
        "messe",
        -9.356027134692185
      ],
      [
        "çai",
        -9.356334099610876
      ],
      [
        "fol",
        -9.356924192169991
      ],
      [
        "jesi",
        -9.357127903536568
      ],
      [
        "çoi",
        -9.359128064598805
      ],
      [
        "mist",
        -9.36005129206021
      ],
      [
        "perdu",
        -9.36179169598906
      ],
      [
        "gui",
        -9.362128330545266
      ],
      [
        "chevauch",
        -9.362980292884309
      ],
      [
        "ocis",
        -9.363160925252176
      ],
      [
        "peres",
        -9.3639590846152
      ],
      [
        "dom",
        -9.364401476504948
      ],
      [
        "legier",
        -9.36728394059719
      ],
      [
        "evesqe",
        -9.367812284491972
      ],
      [
        "reteni",
        -9.36970089671373
      ],
      [
        "plu",
        -9.373370895418546
      ],
      [
        "avoc",
        -9.377522609346991
      ],
      [
        "anci",
        -9.379536051372751
      ],
      [
        "evesque",
        -9.382262300986897
      ],
      [
        "Bertran",
        -9.385234830892912
      ],
      [
        "menor",
        -9.386408455638655
      ],
      [
        "ambed",
        -9.386485532030513
      ],
      [
        "fon",
        -9.386796921050088
      ],
      [
        "honor",
        -9.387533904628985
      ],
      [
        "baillie",
        -9.389517352445438
      ],
      [
        "ignier",
        -9.389772889677555
      ],
      [
        "Rome",
        -9.391008800462112
      ],
      [
        "pense",
        -9.391293185914872
      ],
      [
        "escrïe",
        -9.391298134864192
      ],
      [
        "querele",
        -9.391448341925297
      ],
      [
        "mult",
        -9.391448508850914
      ],
      [
        "patron",
        -9.397397384460353
      ],
      [
        "guerre",
        -9.39743722352506
      ],
      [
        "vre",
        -9.399089257235932
      ],
      [
        "hu",
        -9.399910353452405
      ],
      [
        "salu",
        -9.400009788424253
      ],
      [
        "proi",
        -9.403585819782235
      ],
      [
        "pain",
        -9.404025418160218
      ],
      [
        "Ro",
        -9.408142375272384
      ],
      [
        "tozjor",
        -9.408866830076672
      ],
      [
        "dira",
        -9.409143034837301
      ],
      [
        "dus",
        -9.412582740416493
      ],
      [
        "her",
        -9.412932820963832
      ],
      [
        "pou",
        -9.414470554470423
      ],
      [
        "nain",
        -9.415150043633862
      ],
      [
        "bois",
        -9.415207408884239
      ],
      [
        "mai",
        -9.415748847263714
      ],
      [
        "vain",
        -9.4162496388149
      ],
      [
        "acier",
        -9.41711509602119
      ],
      [
        "enfan",
        -9.418206635432485
      ],
      [
        "escrit",
        -9.418861051373636
      ],
      [
        "amen",
        -9.42013670521457
      ],
      [
        "miau",
        -9.420458935816962
      ],
      [
        "chemin",
        -9.422324998201873
      ],
      [
        "terme",
        -9.424500358582339
      ],
      [
        "ç",
        -9.431056690726756
      ],
      [
        "apareillier",
        -9.431349110737099
      ],
      [
        "pue",
        -9.431632786929601
      ],
      [
        "malade",
        -9.432175816774638
      ],
      [
        "prestre",
        -9.433039231714403
      ],
      [
        "chevau",
        -9.434011865550048
      ],
      [
        "Ar",
        -9.434459662715422
      ],
      [
        "gentil",
        -9.436831211965863
      ],
      [
        "dur",
        -9.437028100937884
      ],
      [
        "escrire",
        -9.437286327263163
      ],
      [
        "ains",
        -9.438310368869143
      ],
      [
        "besoing",
        -9.441150305637038
      ],
      [
        "ing",
        -9.44349182999726
      ],
      [
        "deable",
        -9.44660437093522
      ],
      [
        "aise",
        -9.447301920015779
      ],
      [
        "aparteni",
        -9.45232458554791
      ],
      [
        "toute",
        -9.454191597081262
      ],
      [
        "loing",
        -9.454218789502288
      ],
      [
        "pendr",
        -9.459102989290383
      ],
      [
        "Tu",
        -9.459772526552545
      ],
      [
        "secor",
        -9.460371884644458
      ],
      [
        "pren",
        -9.460387117866116
      ],
      [
        "empereor",
        -9.461597243928722
      ],
      [
        "arester",
        -9.461770159028342
      ],
      [
        "prometr",
        -9.462756765216309
      ],
      [
        "respondi",
        -9.463542873904451
      ],
      [
        "servise",
        -9.468993891746898
      ],
      [
        "mari",
        -9.469555779897956
      ],
      [
        "plaie",
        -9.471362614467377
      ],
      [
        "aval",
        -9.473292390732585
      ],
      [
        "obligemen",
        -9.473643112080875
      ],
      [
        "couchier",
        -9.473670040167303
      ],
      [
        "contes",
        -9.474221208375344
      ],
      [
        "ici",
        -9.474734482347248
      ],
      [
        "present",
        -9.476313519000936
      ],
      [
        "mains",
        -9.484442641772098
      ],
      [
        "barbe",
        -9.486915821375135
      ],
      [
        "garir",
        -9.48774887595071
      ],
      [
        "jugier",
        -9.487903088913708
      ],
      [
        "clerc",
        -9.488084409016055
      ],
      [
        "vestir",
        -9.488654051286137
      ],
      [
        "franchi",
        -9.491903249244112
      ],
      [
        "vau",
        -9.493675547520233
      ],
      [
        "sembler",
        -9.49368466834559
      ],
      [
        "trait",
        -9.497955519720309
      ],
      [
        "Mah",
        -9.498472699766051
      ],
      [
        "bo",
        -9.501026683472762
      ],
      [
        "niece",
        -9.501107654007498
      ],
      [
        "bru",
        -9.501312596023801
      ],
      [
        "longue",
        -9.501588749189077
      ],
      [
        "chartre",
        -9.501791294357993
      ],
      [
        "feu",
        -9.501874798372368
      ],
      [
        "vant",
        -9.503132998088653
      ],
      [
        "oncle",
        -9.50391942639257
      ],
      [
        "possessi",
        -9.504546439031959
      ],
      [
        "aversaire",
        -9.507214220661957
      ],
      [
        "Ogier",
        -9.507710943856708
      ],
      [
        "fuir",
        -9.511461011897689
      ],
      [
        "felon",
        -9.512898670631554
      ],
      [
        "Apré",
        -9.51454692667317
      ],
      [
        "Garin",
        -9.520926274059423
      ],
      [
        "pur",
        -9.521879944763542
      ],
      [
        "angele",
        -9.522154733640141
      ],
      [
        "message",
        -9.522763444203026
      ],
      [
        "saut",
        -9.525189310324315
      ],
      [
        "franchir",
        -9.526026137906655
      ],
      [
        "conois",
        -9.52715386182593
      ],
      [
        "enterin",
        -9.52792583176333
      ],
      [
        "cru",
        -9.533780603076643
      ],
      [
        "mervoille",
        -9.534891507754327
      ],
      [
        "moins",
        -9.5367464181807
      ],
      [
        "issent",
        -9.537425241078235
      ],
      [
        "possession",
        -9.537583439587635
      ],
      [
        "vaillant",
        -9.537883418729713
      ],
      [
        "ieus",
        -9.538442986202547
      ],
      [
        "seignorie",
        -9.54002223342041
      ],
      [
        "crëanc",
        -9.54095353221064
      ],
      [
        "esba",
        -9.54353138939942
      ],
      [
        "tient",
        -9.546993109313732
      ],
      [
        "puisse",
        -9.547181957686567
      ],
      [
        "chëoi",
        -9.547219985331429
      ],
      [
        "desarme",
        -9.547580093559699
      ],
      [
        "feste",
        -9.548767680162484
      ],
      [
        "fais",
        -9.549064965326407
      ],
      [
        "ëure",
        -9.54960852823475
      ],
      [
        "place",
        -9.550284163332794
      ],
      [
        "amont",
        -9.553358337733037
      ],
      [
        "Est",
        -9.554179854523131
      ],
      [
        "lac",
        -9.554531667990684
      ],
      [
        "oevre",
        -9.556771567591205
      ],
      [
        "eront",
        -9.559353133105738
      ],
      [
        "laian",
        -9.562197078246578
      ],
      [
        "Un",
        -9.563498022149705
      ],
      [
        "secorre",
        -9.564784955944344
      ],
      [
        "asseoi",
        -9.565409642015322
      ],
      [
        "aide",
        -9.566484635442077
      ],
      [
        "fera",
        -9.57246526971306
      ],
      [
        "aparoi",
        -9.57811664259047
      ],
      [
        "Oliv",
        -9.578246998404817
      ],
      [
        "faus",
        -9.57876405614806
      ],
      [
        "honi",
        -9.579111701134066
      ],
      [
        "boen",
        -9.57928689153928
      ],
      [
        "fali",
        -9.581535284731137
      ],
      [
        "trespasser",
        -9.582738371352722
      ],
      [
        "Borgo",
        -9.585233682829628
      ],
      [
        "queste",
        -9.590000926976813
      ],
      [
        "droi",
        -9.590655239310319
      ],
      [
        "repairier",
        -9.592641312161343
      ],
      [
        "Saint",
        -9.592699134526674
      ],
      [
        "mené",
        -9.593228681666183
      ],
      [
        "seror",
        -9.597219076279082
      ],
      [
        "meslee",
        -9.599784874852443
      ],
      [
        "douz",
        -9.600427785971785
      ],
      [
        "fri",
        -9.601259522875047
      ],
      [
        "folie",
        -9.601666390937652
      ],
      [
        "demand",
        -9.601794069177812
      ],
      [
        "destruir",
        -9.60214987372027
      ],
      [
        "Ou",
        -9.60563982825095
      ],
      [
        "semblan",
        -9.60764251534776
      ],
      [
        "seür",
        -9.608518674383014
      ],
      [
        "gra",
        -9.609505859022224
      ],
      [
        "sale",
        -9.609567693112421
      ],
      [
        "mesfait",
        -9.609698824058427
      ],
      [
        "bor",
        -9.612472471893785
      ],
      [
        "joster",
        -9.613980729602051
      ],
      [
        "novel",
        -9.614612144688394
      ],
      [
        "pré",
        -9.615010065748056
      ],
      [
        "chacier",
        -9.615237282527147
      ],
      [
        "mire",
        -9.620793198629112
      ],
      [
        "guerpi",
        -9.62204305890705
      ],
      [
        "adopti",
        -9.622837054288546
      ],
      [
        "chatel",
        -9.62329658729724
      ],
      [
        "comman",
        -9.624040561086726
      ],
      [
        "Ban",
        -9.62679489345944
      ],
      [
        "autorité",
        -9.630525547006265
      ],
      [
        "garantir",
        -9.63172968714644
      ],
      [
        "cosin",
        -9.631751965047147
      ],
      [
        "fermer",
        -9.632023279073822
      ],
      [
        "cover",
        -9.632614074828997
      ],
      [
        "irier",
        -9.633356030400874
      ],
      [
        "joste",
        -9.633952591475534
      ],
      [
        "peser",
        -9.639784475576306
      ],
      [
        "pasme",
        -9.64006416553814
      ],
      [
        "onorer",
        -9.641128613314669
      ],
      [
        "coper",
        -9.642906480584731
      ],
      [
        "quier",
        -9.645125346918034
      ],
      [
        "dormir",
        -9.645984034223062
      ],
      [
        "‘",
        -9.646088566728245
      ],
      [
        "Lyonn",
        -9.651152371741613
      ],
      [
        "tint",
        -9.653724082161592
      ],
      [
        "Qu",
        -9.65396485156694
      ],
      [
        "Seignor",
        -9.65396531309354
      ],
      [
        "herbergier",
        -9.6552181400513
      ],
      [
        "degré",
        -9.65542757286979
      ],
      [
        "faisoi",
        -9.657426335939823
      ],
      [
        "ancor",
        -9.658536774666896
      ],
      [
        "senbl",
        -9.659085426141832
      ],
      [
        "paor",
        -9.660667452320432
      ],
      [
        "Ja",
        -9.660948850389197
      ],
      [
        "brisier",
        -9.662068284886077
      ],
      [
        "vai",
        -9.662392086969898
      ],
      [
        "merveillier",
        -9.66249474816859
      ],
      [
        "ueil",
        -9.663429441816088
      ],
      [
        "noir",
        -9.665045493568414
      ],
      [
        "abat",
        -9.665787684305114
      ],
      [
        "Mal",
        -9.66833409352661
      ],
      [
        "nié",
        -9.668624052238407
      ],
      [
        "Jhesu",
        -9.669899095059073
      ],
      [
        "eglisse",
        -9.669899152506602
      ],
      [
        "meneur",
        -9.670042783853598
      ],
      [
        "nombre",
        -9.670585952164831
      ],
      [
        "corrocier",
        -9.678033826156588
      ],
      [
        "̈ece",
        -9.680739209547092
      ],
      [
        "sëur",
        -9.681103577670012
      ],
      [
        "espaule",
        -9.686100574777232
      ],
      [
        "ço",
        -9.686861592498136
      ],
      [
        "ordre",
        -9.689844213833592
      ],
      [
        "Les",
        -9.69147315659366
      ],
      [
        "cist",
        -9.691511792243105
      ],
      [
        "forme",
        -9.692137028275296
      ],
      [
        "adon",
        -9.692700482002692
      ],
      [
        "veu",
        -9.694118472894782
      ],
      [
        "—",
        -9.694290409154107
      ],
      [
        "Gaune",
        -9.694477404132442
      ],
      [
        "espe",
        -9.695745978395866
      ],
      [
        "entier",
        -9.69651974019909
      ],
      [
        "cié",
        -9.697142629032127
      ],
      [
        "richer",
        -9.698348799372198
      ],
      [
        "gros",
        -9.702670230619681
      ],
      [
        "orisson",
        -9.702776936498259
      ],
      [
        "cortois",
        -9.703247050530969
      ],
      [
        "k",
        -9.703423053388072
      ],
      [
        "atorner",
        -9.705711600238915
      ],
      [
        "aü",
        -9.70822893428531
      ],
      [
        "corre",
        -9.708614163293163
      ],
      [
        "bes",
        -9.709637744470843
      ],
      [
        "aïst",
        -9.710731997868997
      ],
      [
        "conseillier",
        -9.711017810846572
      ],
      [
        "plain",
        -9.711305568268816
      ],
      [
        "apelé",
        -9.71535347002601
      ],
      [
        "formen",
        -9.717213407673743
      ],
      [
        "cion",
        -9.717351833069255
      ],
      [
        "jovence",
        -9.719363744475324
      ],
      [
        "ançoi",
        -9.719985397511278
      ],
      [
        "esgarde",
        -9.720005509968484
      ],
      [
        "Beno",
        -9.720434149996642
      ],
      [
        "mostre",
        -9.720752156688038
      ],
      [
        "gari",
        -9.723521777732703
      ],
      [
        "ovrir",
        -9.723890890915163
      ],
      [
        "umet",
        -9.724541630176402
      ],
      [
        "vait",
        -9.725577446101603
      ],
      [
        "espie",
        -9.727382224882671
      ],
      [
        "baisier",
        -9.727777046507494
      ],
      [
        "benëi",
        -9.728129086092745
      ],
      [
        "trova",
        -9.728483370290203
      ],
      [
        "meesme",
        -9.728808333531795
      ],
      [
        "doné",
        -9.730016196196653
      ],
      [
        "gié",
        -9.730284191084268
      ],
      [
        "prisie",
        -9.730849019722932
      ],
      [
        "fran",
        -9.730876436224088
      ],
      [
        "talent",
        -9.731657763225991
      ],
      [
        "sentir",
        -9.732071327858566
      ],
      [
        "angoisse",
        -9.736313249325548
      ],
      [
        "heritage",
        -9.736851725484186
      ],
      [
        "corage",
        -9.737456728659444
      ],
      [
        "garant",
        -9.737632498651525
      ],
      [
        "dolan",
        -9.73799692774546
      ],
      [
        "rapeler",
        -9.740052149541409
      ],
      [
        "regarde",
        -9.742660353515726
      ],
      [
        "apartien",
        -9.743749284505625
      ],
      [
        "pooi",
        -9.74443175254697
      ],
      [
        "creant",
        -9.74503320386469
      ],
      [
        "abatr",
        -9.745968393588393
      ],
      [
        "amis",
        -9.747923618208684
      ],
      [
        "nature",
        -9.749722866880035
      ],
      [
        "obligie",
        -9.752926548957443
      ],
      [
        "(",
        -9.753629493289175
      ],
      [
        "onqe",
        -9.754834979680844
      ],
      [
        "demanda",
        -9.757936316921667
      ],
      [
        "oloir",
        -9.762660099714381
      ],
      [
        "fenestre",
        -9.76757035786538
      ],
      [
        "ores",
        -9.769056459890049
      ],
      [
        ")",
        -9.77125098063586
      ],
      [
        "novelle",
        -9.77125260204317
      ],
      [
        "condici",
        -9.771265055725655
      ],
      [
        "enseignier",
        -9.771310507993123
      ],
      [
        "boche",
        -9.772094305600245
      ],
      [
        "nomer",
        -9.773877938199984
      ],
      [
        "Gal",
        -9.775273606266683
      ],
      [
        "hau",
        -9.777279506637008
      ],
      [
        "öil",
        -9.779070822683373
      ],
      [
        "poïs",
        -9.779140873555736
      ],
      [
        "sambl",
        -9.779145933643717
      ],
      [
        "mena",
        -9.779760926709752
      ],
      [
        "Bohor",
        -9.780192580744757
      ],
      [
        "preudom",
        -9.780478286012997
      ],
      [
        "garni",
        -9.781198430288402
      ],
      [
        "gran",
        -9.78498768017091
      ],
      [
        "indr",
        -9.786744282010932
      ],
      [
        "Chevalier",
        -9.78918856115995
      ],
      [
        "assemblee",
        -9.789188562541785
      ],
      [
        "dote",
        -9.78935000629262
      ],
      [
        "nviron",
        -9.789942232706538
      ],
      [
        "consoil",
        -9.790298545384182
      ],
      [
        "haste",
        -9.790380182712699
      ],
      [
        "cuidoi",
        -9.795113873554726
      ],
      [
        "auté",
        -9.796094075114246
      ],
      [
        "ban",
        -9.797232912960137
      ],
      [
        "receu",
        -9.797576827803093
      ],
      [
        "rire",
        -9.798209005907491
      ],
      [
        "mengier",
        -9.798402695996474
      ],
      [
        "graign",
        -9.798520926018007
      ],
      [
        "porra",
        -9.802482976035893
      ],
      [
        "achat",
        -9.802736375102214
      ],
      [
        "enemi",
        -9.80470906623696
      ],
      [
        "Lambe",
        -9.807472269169699
      ],
      [
        "senat",
        -9.808285586617322
      ],
      [
        "pin",
        -9.808975370709215
      ],
      [
        "espi",
        -9.810577368222681
      ],
      [
        "Ju",
        -9.820186710158856
      ],
      [
        "conquis",
        -9.821598356133624
      ],
      [
        "retorne",
        -9.823868730961582
      ],
      [
        "fïance",
        -9.826129610726781
      ],
      [
        "veint",
        -9.82619851366724
      ],
      [
        "paier",
        -9.826266428762661
      ],
      [
        "establisemen",
        -9.827577831669235
      ],
      [
        "arc",
        -9.827926322071603
      ],
      [
        "Dam",
        -9.828869607321089
      ],
      [
        "covan",
        -9.831274562449504
      ],
      [
        "dir",
        -9.831857475262575
      ],
      [
        "ofic",
        -9.833663049450767
      ],
      [
        "Y",
        -9.835408062287083
      ],
      [
        "traï",
        -9.835486765864712
      ],
      [
        "escoute",
        -9.835502433236703
      ],
      [
        "totevoie",
        -9.83638845014813
      ],
      [
        "hurte",
        -9.837418975899997
      ],
      [
        "amp",
        -9.83974259876396
      ],
      [
        "tref",
        -9.843019926046528
      ],
      [
        "blecie",
        -9.845093708992827
      ],
      [
        "derrier",
        -9.845270859337642
      ],
      [
        "maisnie",
        -9.845306139942593
      ],
      [
        "tesmoin",
        -9.845506156785532
      ],
      [
        "pand",
        -9.845609679286227
      ],
      [
        "conforter",
        -9.846071994541198
      ],
      [
        "einsi",
        -9.84649390116407
      ],
      [
        "Vos",
        -9.847190524742139
      ],
      [
        "hon",
        -9.847481006547515
      ],
      [
        "desfend",
        -9.849273092872817
      ],
      [
        "gloire",
        -9.85466332629362
      ],
      [
        "tertre",
        -9.855088897959675
      ],
      [
        "laissié",
        -9.856079239919234
      ],
      [
        "desirre",
        -9.857143916283958
      ],
      [
        "Die",
        -9.860000378653545
      ],
      [
        "palefroi",
        -9.86434113780675
      ],
      [
        "voudroi",
        -9.867334333805967
      ],
      [
        "autretel",
        -9.869324072487924
      ],
      [
        "revien",
        -9.870447059297028
      ],
      [
        "autresin",
        -9.871475602633707
      ],
      [
        "Flor",
        -9.872570159138556
      ],
      [
        "acomplir",
        -9.874116924844493
      ],
      [
        "paveillon",
        -9.874144652550562
      ],
      [
        "roche",
        -9.874505134486967
      ],
      [
        "finer",
        -9.875421624716402
      ],
      [
        "amender",
        -9.876841046307398
      ],
      [
        "ocirr",
        -9.876888255800601
      ],
      [
        "amira",
        -9.876921144836283
      ],
      [
        "isnelem",
        -9.877065897086823
      ],
      [
        "pont",
        -9.877586413343485
      ],
      [
        "K",
        -9.883518659978353
      ],
      [
        "descend",
        -9.883840188148692
      ],
      [
        "larrecin",
        -9.88404564276202
      ],
      [
        "plenier",
        -9.884120642058578
      ],
      [
        "trench",
        -9.888300180955557
      ],
      [
        "esmai",
        -9.889052833469002
      ],
      [
        "amb",
        -9.89287642683577
      ],
      [
        "servi",
        -9.893443024584704
      ],
      [
        "vend",
        -9.893541835472728
      ],
      [
        "U",
        -9.89359718622855
      ],
      [
        "excepci",
        -9.894045921475522
      ],
      [
        "debonaire",
        -9.894100584637076
      ],
      [
        "moitié",
        -9.894185284964685
      ],
      [
        "procurator",
        -9.894327896079552
      ],
      [
        "drecier",
        -9.894508537133891
      ],
      [
        "laisse",
        -9.896930381931618
      ],
      [
        "Ensi",
        -9.898599649776948
      ],
      [
        "ancien",
        -9.901019924984098
      ],
      [
        "voudr",
        -9.902370706930338
      ],
      [
        "covrir",
        -9.903181912395134
      ],
      [
        "apel",
        -9.9038584614941
      ],
      [
        "felonie",
        -9.905946217250571
      ],
      [
        "autel",
        -9.907017012068884
      ],
      [
        "poing",
        -9.90802794809076
      ],
      [
        "crëante",
        -9.914350879734384
      ],
      [
        "orfenin",
        -9.914351225707152
      ],
      [
        "vespre",
        -9.914548770368416
      ],
      [
        "conmun",
        -9.914654073893178
      ],
      [
        "repos",
        -9.9154408781696
      ],
      [
        "qoi",
        -9.919599420001038
      ],
      [
        "lande",
        -9.919995592849748
      ],
      [
        "menu",
        -9.923330331046282
      ],
      [
        "chanbre",
        -9.925006723711808
      ],
      [
        "recovrer",
        -9.92520715857689
      ],
      [
        "häi",
        -9.925340606386513
      ],
      [
        "abandon",
        -9.926480952406955
      ],
      [
        "pensé",
        -9.926955216435125
      ],
      [
        "prevo",
        -9.927116963471526
      ],
      [
        "sanble",
        -9.927301840605821
      ],
      [
        "moul",
        -9.927864620504906
      ],
      [
        "quiter",
        -9.933319452132622
      ],
      [
        "bacheler",
        -9.935078471547062
      ],
      [
        "lignage",
        -9.93509513130314
      ],
      [
        "nuire",
        -9.936108561538855
      ],
      [
        "porchacie",
        -9.936551934503154
      ],
      [
        "Bar",
        -9.937636570829682
      ],
      [
        "chargie",
        -9.940144146380463
      ],
      [
        "oci",
        -9.948993093336274
      ],
      [
        "batis",
        -9.949336558493279
      ],
      [
        "gage",
        -9.950783281837227
      ],
      [
        "acïo",
        -9.954210535673857
      ],
      [
        "misericorde",
        -9.95624129909508
      ],
      [
        "chaiti",
        -9.956445209205377
      ],
      [
        "Keu",
        -9.956775687351104
      ],
      [
        "pechié",
        -9.957138991695048
      ],
      [
        "neveu",
        -9.96330267900958
      ],
      [
        "hum",
        -9.96640922105318
      ],
      [
        "X",
        -9.966993973502204
      ],
      [
        "tesmoign",
        -9.967001714575616
      ],
      [
        "esbahi",
        -9.96701053923709
      ],
      [
        "eschaper",
        -9.96706202096701
      ],
      [
        "chanter",
        -9.967276503873713
      ],
      [
        "deffan",
        -9.967663399774354
      ],
      [
        "reve",
        -9.968892756307838
      ],
      [
        "arçon",
        -9.969346891863498
      ],
      [
        "transacti",
        -9.975335444565038
      ],
      [
        "torment",
        -9.975676685906958
      ],
      [
        "gant",
        -9.9760896145912
      ],
      [
        "prochain",
        -9.977868839942523
      ],
      [
        "flori",
        -9.978271855240457
      ],
      [
        "divers",
        -9.97869343799032
      ],
      [
        "Cris",
        -9.979706170182883
      ],
      [
        "prester",
        -9.980390587988724
      ],
      [
        "noncier",
        -9.980602850259018
      ],
      [
        "jusqu",
        -9.981261529606071
      ],
      [
        "fïe",
        -9.983751700584351
      ],
      [
        "clamer",
        -9.98947072471763
      ],
      [
        "sailli",
        -9.989656876643064
      ],
      [
        "comença",
        -9.990078202499383
      ],
      [
        "grever",
        -9.990102840352101
      ],
      [
        "iron",
        -9.992431667793882
      ],
      [
        "Beneoi",
        -9.996872403532503
      ],
      [
        "Marganor",
        -9.999963698176742
      ],
      [
        "propose",
        -10.001114729988828
      ],
      [
        "reme",
        -10.003212894050357
      ],
      [
        "reconter",
        -10.005290184145185
      ],
      [
        "commance",
        -10.009230346501395
      ],
      [
        "alé",
        -10.010367748704088
      ],
      [
        "ermite",
        -10.010917261373878
      ],
      [
        "seigneur",
        -10.011203248335207
      ],
      [
        "Tyce",
        -10.011215818224798
      ],
      [
        "Nos",
        -10.011710953332537
      ],
      [
        "orgueil",
        -10.011793509886008
      ],
      [
        "poissan",
        -10.011860608096299
      ],
      [
        "öe",
        -10.01261868386226
      ],
      [
        "desirete",
        -10.014517225798333
      ],
      [
        "rap",
        -10.017943504667006
      ],
      [
        "arbitre",
        -10.022563439173368
      ],
      [
        "creancier",
        -10.022566313794144
      ],
      [
        "Denis",
        -10.022683413646277
      ],
      [
        "barat",
        -10.022710619877257
      ],
      [
        "vermeil",
        -10.022954086483868
      ],
      [
        "blasmer",
        -10.023240444312965
      ],
      [
        "jornee",
        -10.025553747165318
      ],
      [
        "roncin",
        -10.034067364345502
      ],
      [
        "norri",
        -10.034200862091161
      ],
      [
        "boivre",
        -10.034254760344682
      ],
      [
        "pieç",
        -10.034496484679316
      ],
      [
        "Q",
        -10.03658744720836
      ],
      [
        "eschi",
        -10.037943833615934
      ],
      [
        "vout",
        -10.038323376612155
      ],
      [
        "reman",
        -10.040637011291231
      ],
      [
        "erbe",
        -10.043433168972925
      ],
      [
        "bia",
        -10.046114361354466
      ],
      [
        "vilain",
        -10.047096429660847
      ],
      [
        "achater",
        -10.047125544519487
      ],
      [
        "Jesu",
        -10.047227054235016
      ],
      [
        "croistr",
        -10.047437489739295
      ],
      [
        "Marce",
        -10.048043343801424
      ],
      [
        "tresor",
        -10.048198372984567
      ],
      [
        "donnee",
        -10.049849691973687
      ],
      [
        "Biau",
        -10.050257001146061
      ],
      [
        "large",
        -10.051143944192118
      ],
      [
        "temple",
        -10.051297741500152
      ],
      [
        "combat",
        -10.051470699921012
      ],
      [
        "Jo",
        -10.056373468972563
      ],
      [
        "reis",
        -10.058420001683771
      ],
      [
        "requier",
        -10.059522678058732
      ],
      [
        "aüst",
        -10.060709045285275
      ],
      [
        "corro",
        -10.061085395662557
      ],
      [
        "estroit",
        -10.061833743280719
      ],
      [
        "Dit",
        -10.062142860794424
      ],
      [
        "embler",
        -10.062865152363091
      ],
      [
        "Mout",
        -10.065082696844847
      ],
      [
        "mue",
        -10.065393738030588
      ],
      [
        "ompre",
        -10.066201193209196
      ],
      [
        "joindr",
        -10.068536043656902
      ],
      [
        "depecier",
        -10.069360419615206
      ],
      [
        "procurateur",
        -10.069638840030466
      ],
      [
        "mage",
        -10.070592321650267
      ],
      [
        "haitie",
        -10.071153235284427
      ],
      [
        "Bien",
        -10.071287525010277
      ],
      [
        "mandemen",
        -10.073617077915168
      ],
      [
        "piere",
        -10.074258360383956
      ],
      [
        "demora",
        -10.074922741530571
      ],
      [
        "randre",
        -10.076640688025314
      ],
      [
        "pluseur",
        -10.076841236733973
      ],
      [
        "atand",
        -10.0773044386655
      ],
      [
        "baston",
        -10.081582825199012
      ],
      [
        "Sein",
        -10.082306396380101
      ],
      [
        "engin",
        -10.082722558918615
      ],
      [
        "fendre",
        -10.085767976489823
      ],
      [
        "panse",
        -10.086325559882763
      ],
      [
        "ardi",
        -10.088334994004512
      ],
      [
        "prandr",
        -10.088644153506042
      ],
      [
        "doucem",
        -10.0940785613823
      ],
      [
        "eslir",
        -10.101891563209207
      ],
      [
        "anvoie",
        -10.103827323214635
      ],
      [
        "lieve",
        -10.103868192963724
      ],
      [
        "rollan",
        -10.105983780320985
      ],
      [
        "confess",
        -10.106221019461474
      ],
      [
        "marche",
        -10.107922097828176
      ],
      [
        "saisir",
        -10.107941543726227
      ],
      [
        "mortel",
        -10.110475602465282
      ],
      [
        "gua",
        -10.117747785753703
      ],
      [
        "Segurade",
        -10.118443880996631
      ],
      [
        "Bretai",
        -10.118451897289791
      ],
      [
        "peçoi",
        -10.118679767711509
      ],
      [
        "rive",
        -10.118890981794149
      ],
      [
        "pucelle",
        -10.118973387205326
      ],
      [
        "empire",
        -10.119815061617263
      ],
      [
        "descen",
        -10.12831826364673
      ],
      [
        "fïancier",
        -10.131102735855361
      ],
      [
        "plante",
        -10.132657545459363
      ],
      [
        "confort",
        -10.133689485987357
      ],
      [
        "armé",
        -10.138463075602218
      ],
      [
        "herberg",
        -10.141890707505272
      ],
      [
        "Comm",
        -10.143146645708207
      ],
      [
        "alüe",
        -10.143149206277794
      ],
      [
        "5",
        -10.143922621040517
      ],
      [
        "feïst",
        -10.143944156331909
      ],
      [
        "escriture",
        -10.144271756228687
      ],
      [
        "cour",
        -10.144747275493284
      ],
      [
        "vengie",
        -10.155350916795818
      ],
      [
        "orfelin",
        -10.156909733872146
      ],
      [
        "ermitage",
        -10.156917221265541
      ],
      [
        "semondre",
        -10.156969177075258
      ],
      [
        "gäaign",
        -10.156977676748895
      ],
      [
        "criembr",
        -10.157069241519503
      ],
      [
        "plaisir",
        -10.158349989862955
      ],
      [
        "chois",
        -10.15955672091399
      ],
      [
        "frui",
        -10.161964920066444
      ],
      [
        "apercevo",
        -10.163805605732808
      ],
      [
        "luec",
        -10.166636372320752
      ],
      [
        "pluiseur",
        -10.170079159404283
      ],
      [
        "brochie",
        -10.170102626127353
      ],
      [
        "juene",
        -10.170139013908848
      ],
      [
        "constrein",
        -10.170263237339505
      ],
      [
        "ciple",
        -10.170564164635845
      ],
      [
        "aprochier",
        -10.171389777860359
      ],
      [
        "empirie",
        -10.171597755159407
      ],
      [
        "mentir",
        -10.172254275264757
      ],
      [
        "conté",
        -10.17472063695881
      ],
      [
        "poign",
        -10.17527580925023
      ],
      [
        "jug",
        -10.17664470074763
      ],
      [
        "cul",
        -10.177503449163547
      ],
      [
        "oisir",
        -10.17955750580774
      ],
      [
        "lige",
        -10.182040504413685
      ],
      [
        "hasti",
        -10.182483754921225
      ],
      [
        "Hervi",
        -10.183413876627117
      ],
      [
        "trové",
        -10.183445011504265
      ],
      [
        "desfand",
        -10.183574915176957
      ],
      [
        "avec",
        -10.183968933693802
      ],
      [
        "jusq",
        -10.184268527049294
      ],
      [
        "obli",
        -10.190756596334014
      ],
      [
        "apareillie",
        -10.19087909422258
      ],
      [
        "ievre",
        -10.196471723588619
      ],
      [
        "besongne",
        -10.19691624876544
      ],
      [
        "signor",
        -10.1975505952033
      ],
      [
        "despens",
        -10.198538628552946
      ],
      [
        "clin",
        -10.201449219860914
      ],
      [
        "faut",
        -10.201641657007832
      ],
      [
        "mesure",
        -10.201729112439505
      ],
      [
        "remain",
        -10.203279507805563
      ],
      [
        "faille",
        -10.20644532484498
      ],
      [
        "govern",
        -10.208929072741782
      ],
      [
        "beneï",
        -10.210625163721517
      ],
      [
        "fosse",
        -10.211466758109417
      ],
      [
        "talant",
        -10.212851544326178
      ],
      [
        "menoi",
        -10.218661785940519
      ],
      [
        "volent",
        -10.223599347746465
      ],
      [
        "]",
        -10.224501894637093
      ],
      [
        "comanda",
        -10.224514831419022
      ],
      [
        "signeur",
        -10.22458545377615
      ],
      [
        "failli",
        -10.224696048855574
      ],
      [
        "pleige",
        -10.224738985999947
      ],
      [
        "donné",
        -10.227682902685766
      ],
      [
        "relever",
        -10.23022660393778
      ],
      [
        "Gran",
        -10.23030842327869
      ],
      [
        "ardre",
        -10.231278536800575
      ],
      [
        "esperance",
        -10.238630542785272
      ],
      [
        "travers",
        -10.238917156786808
      ],
      [
        "menc",
        -10.239173483106839
      ],
      [
        "müe",
        -10.24112499735573
      ],
      [
        "taindr",
        -10.24152453804846
      ],
      [
        "ox",
        -10.241878603385693
      ],
      [
        "presse",
        -10.250131172917532
      ],
      [
        "seulem",
        -10.253570879267517
      ],
      [
        "plore",
        -10.253616634783489
      ],
      [
        "Lui",
        -10.255272498460275
      ],
      [
        "Tot",
        -10.257690070615885
      ],
      [
        "bende",
        -10.25783708689461
      ],
      [
        "loign",
        -10.258143694038461
      ],
      [
        "aube",
        -10.25933559813562
      ],
      [
        "descovri",
        -10.260856068407046
      ],
      [
        "esprover",
        -10.261028868743061
      ],
      [
        "gal",
        -10.263064574849189
      ],
      [
        "[",
        -10.26736486958825
      ],
      [
        "condamne",
        -10.267364930510048
      ],
      [
        "fermeté",
        -10.267375702847337
      ],
      [
        "meniere",
        -10.267505881888773
      ],
      [
        "desconfi",
        -10.267603296943587
      ],
      [
        "acorder",
        -10.268772497543829
      ],
      [
        "noble",
        -10.269424192023664
      ],
      [
        "sanblan",
        -10.269497633510541
      ],
      [
        "peüs",
        -10.273158354625963
      ],
      [
        "maille",
        -10.274702496263938
      ],
      [
        "mesler",
        -10.277267633950057
      ],
      [
        "cresti",
        -10.280088141908688
      ],
      [
        "larrencin",
        -10.28207075233575
      ],
      [
        "Antonin",
        -10.282070935410813
      ],
      [
        "greignor",
        -10.282072806530008
      ],
      [
        "Emelon",
        -10.282072932501801
      ],
      [
        "plenté",
        -10.282097741698458
      ],
      [
        "Garsi",
        -10.2821260849523
      ],
      [
        "fontaine",
        -10.28216525753243
      ],
      [
        "ngignier",
        -10.282754971078912
      ],
      [
        "meime",
        -10.284846383256568
      ],
      [
        "bote",
        -10.287620204935159
      ],
      [
        "irie",
        -10.289141859267456
      ],
      [
        "Danemon",
        -10.297003669879718
      ],
      [
        "proesce",
        -10.297318067090115
      ],
      [
        "destrui",
        -10.30023552070082
      ],
      [
        "parlé",
        -10.305120195523603
      ],
      [
        "cheva",
        -10.308176536486426
      ],
      [
        "entremetr",
        -10.308869318907465
      ],
      [
        "remé",
        -10.309591010154588
      ],
      [
        "Norgal",
        -10.312148516378512
      ],
      [
        "banissemen",
        -10.312149800202352
      ],
      [
        "clarté",
        -10.312153428417439
      ],
      [
        "Blan",
        -10.31320279593086
      ],
      [
        "sü",
        -10.317884779579115
      ],
      [
        "batu",
        -10.318222983239586
      ],
      [
        "From",
        -10.319938686273996
      ],
      [
        "santé",
        -10.322216454479118
      ],
      [
        "desver",
        -10.324812351428136
      ],
      [
        "laissie",
        -10.327220161329306
      ],
      [
        "droiturier",
        -10.32753843397954
      ],
      [
        "resuscite",
        -10.327932891537976
      ],
      [
        "cheve",
        -10.332213888185986
      ],
      [
        "oblïe",
        -10.336457838524147
      ],
      [
        "suer",
        -10.336633446058814
      ],
      [
        "vestu",
        -10.340009432868438
      ],
      [
        "acord",
        -10.34248855458398
      ],
      [
        "sosteni",
        -10.342775744891448
      ],
      [
        "﻿",
        -10.34315725561165
      ],
      [
        "Sarazin",
        -10.343157255790695
      ],
      [
        "benefice",
        -10.343157346485414
      ],
      [
        "aiuel",
        -10.343930364001292
      ],
      [
        "siegle",
        -10.343933699784666
      ],
      [
        "Karl",
        -10.346282926580233
      ],
      [
        "litier",
        -10.346737223727379
      ],
      [
        "frain",
        -10.349773942688868
      ],
      [
        "raconte",
        -10.358948996621958
      ],
      [
        "pardurable",
        -10.359032286833504
      ],
      [
        "ordener",
        -10.359513151228224
      ],
      [
        "nëi",
        -10.373740497835708
      ],
      [
        "sauve",
        -10.37431678674875
      ],
      [
        "instrumen",
        -10.375159317460072
      ],
      [
        "Maugal",
        -10.37516124976585
      ],
      [
        "sejorner",
        -10.375190464001342
      ],
      [
        "Garde",
        -10.375241989824193
      ],
      [
        "larron",
        -10.37528640936399
      ],
      [
        "roiaume",
        -10.375486764822275
      ],
      [
        "virge",
        -10.375664015400066
      ],
      [
        "pierre",
        -10.375813230546713
      ],
      [
        "abei",
        -10.376178654487177
      ],
      [
        "Beau",
        -10.378347269879358
      ],
      [
        "tochier",
        -10.378818444537739
      ],
      [
        "gardoi",
        -10.378858309005555
      ],
      [
        "anemi",
        -10.380658101948878
      ],
      [
        "conman",
        -10.385134588751622
      ],
      [
        "reposer",
        -10.385635956029773
      ],
      [
        "necessaire",
        -10.391554086279921
      ],
      [
        "hardemen",
        -10.391639001691313
      ],
      [
        "espée",
        -10.39169006299072
      ],
      [
        "issu",
        -10.392366508757473
      ],
      [
        "desmesure",
        -10.392841750732057
      ],
      [
        "condui",
        -10.39333271340935
      ],
      [
        "comencemen",
        -10.39348122856647
      ],
      [
        "conduire",
        -10.393705020645152
      ],
      [
        "navré",
        -10.395312474998015
      ],
      [
        "arbre",
        -10.396594658493896
      ],
      [
        "coste",
        -10.404439603932754
      ],
      [
        "joint",
        -10.406971906238605
      ],
      [
        "doctrine",
        -10.408219436559492
      ],
      [
        "soffrir",
        -10.408219469922855
      ],
      [
        "merite",
        -10.408693160936469
      ],
      [
        "hermite",
        -10.408714011299748
      ],
      [
        "domage",
        -10.409670294689684
      ],
      [
        "giete",
        -10.411004819198967
      ],
      [
        "trespasse",
        -10.418462281979139
      ],
      [
        "citëain",
        -10.42516864211305
      ],
      [
        "messagier",
        -10.425175197992925
      ],
      [
        "esperit",
        -10.425264941786466
      ],
      [
        "abé",
        -10.425591169894513
      ],
      [
        "Oï",
        -10.428105828921602
      ],
      [
        "remest",
        -10.430412631173592
      ],
      [
        "marï",
        -10.432219431342363
      ],
      [
        "cestui",
        -10.433484624212522
      ],
      [
        "portoi",
        -10.434081795938898
      ],
      [
        "malais",
        -10.438652518818985
      ],
      [
        "Alixandre",
        -10.442409944890564
      ],
      [
        "conpaignie",
        -10.442410377661545
      ],
      [
        "Berar",
        -10.44241426063247
      ],
      [
        "Brice",
        -10.442434252836176
      ],
      [
        "arcevesque",
        -10.442573570823619
      ],
      [
        "Gallu",
        -10.442691860785455
      ],
      [
        "cite",
        -10.44298805314656
      ],
      [
        "assamble",
        -10.443714537019577
      ],
      [
        "revin",
        -10.44724641176985
      ],
      [
        "liue",
        -10.449639220379902
      ],
      [
        "Fromon",
        -10.451024966505031
      ],
      [
        "travail",
        -10.452894743945723
      ],
      [
        "Einsi",
        -10.459978061298006
      ],
      [
        "adober",
        -10.460020790267503
      ],
      [
        "vassal",
        -10.46012664774316
      ],
      [
        "doble",
        -10.464052475083136
      ],
      [
        "cum",
        -10.465526751356268
      ],
      [
        "religïo",
        -10.477811220370882
      ],
      [
        "Escorfau",
        -10.477811277249716
      ],
      [
        "office",
        -10.477812704309532
      ],
      [
        "maladie",
        -10.477813018801015
      ],
      [
        "enterigne",
        -10.477848077435377
      ],
      [
        "refuser",
        -10.477897039418725
      ],
      [
        "reçu",
        -10.47859277198792
      ],
      [
        "voisin",
        -10.479442379059174
      ],
      [
        "gisoi",
        -10.481561987281642
      ],
      [
        "aleüre",
        -10.482561886662982
      ],
      [
        "pend",
        -10.485100941348186
      ],
      [
        "plaindr",
        -10.487078834230381
      ],
      [
        "torna",
        -10.490791160722676
      ],
      [
        "voldr",
        -10.493493564016516
      ],
      [
        "chape",
        -10.495541216889979
      ],
      [
        "angoissos",
        -10.495992765880054
      ],
      [
        "Persan",
        -10.496014077988217
      ],
      [
        "defense",
        -10.496055874986274
      ],
      [
        "emporter",
        -10.497516347172754
      ],
      [
        "meinten",
        -10.498198624364058
      ],
      [
        "torbe",
        -10.514224197080987
      ],
      [
        "stipulaci",
        -10.514511328541017
      ],
      [
        "Pepin",
        -10.514547416279544
      ],
      [
        "acompli",
        -10.514565493130752
      ],
      [
        "Logre",
        -10.514785829599326
      ],
      [
        "guerroi",
        -10.514793671651116
      ],
      [
        "volon",
        -10.51586619642245
      ],
      [
        "genoil",
        -10.516704970088513
      ],
      [
        "Nostre",
        -10.51670593441991
      ],
      [
        "lignie",
        -10.518177279825629
      ],
      [
        "aimme",
        -10.520662104529915
      ],
      [
        "citeain",
        -10.520925106666317
      ],
      [
        "senefi",
        -10.52137891700606
      ],
      [
        "Lyon",
        -10.525019821829911
      ],
      [
        "üre",
        -10.528073516489275
      ],
      [
        "oblegié",
        -10.533382523912163
      ],
      [
        "jambe",
        -10.533439555271983
      ],
      [
        "Begue",
        -10.53347647463806
      ],
      [
        "alëure",
        -10.533976927127814
      ],
      [
        "difer",
        -10.534707586981838
      ],
      [
        "targe",
        -10.53500007177176
      ],
      [
        "beau",
        -10.535481305536798
      ],
      [
        "lëaute",
        -10.539864112217664
      ],
      [
        "vavassor",
        -10.552610669001107
      ],
      [
        "amenuisemen",
        -10.552621675614624
      ],
      [
        "usuaire",
        -10.552622872159464
      ],
      [
        "trebuchie",
        -10.552633938929777
      ],
      [
        "ymage",
        -10.552970760448122
      ],
      [
        "couche",
        -10.553005714515084
      ],
      [
        "difame",
        -10.553117736582962
      ],
      [
        "estrie",
        -10.553128051396097
      ],
      [
        "langue",
        -10.553374884300283
      ],
      [
        "bocle",
        -10.554482706620863
      ],
      [
        "marchi",
        -10.555306300019112
      ],
      [
        "ecien",
        -10.55726336581328
      ],
      [
        "besoig",
        -10.561327255794115
      ],
      [
        "clos",
        -10.565286542277015
      ],
      [
        "frein",
        -10.568032351673226
      ],
      [
        "orgoillos",
        -10.572217821165662
      ],
      [
        "Fromondin",
        -10.572218334584141
      ],
      [
        "Damoisel",
        -10.57222234028034
      ],
      [
        "abeïe",
        -10.57224480262512
      ],
      [
        "tornoi",
        -10.573904384496231
      ],
      [
        "gueri",
        -10.574375119265234
      ],
      [
        "cauci",
        -10.574464427022962
      ],
      [
        "mostra",
        -10.575237026191429
      ],
      [
        "aorer",
        -10.575531670169141
      ],
      [
        "haï",
        -10.579124431119943
      ],
      [
        "vendra",
        -10.580317226573818
      ],
      [
        "vivan",
        -10.58143052107335
      ],
      [
        "pechie",
        -10.582465530311904
      ],
      [
        "ensivr",
        -10.586910259146558
      ],
      [
        "blasm",
        -10.591309771449179
      ],
      [
        "Diocl",
        -10.592137552286527
      ],
      [
        "Postumien",
        -10.592217828793057
      ],
      [
        "exception",
        -10.592217829894317
      ],
      [
        "hanste",
        -10.592234736241648
      ],
      [
        "Pierre",
        -10.592264187684563
      ],
      [
        "engendre",
        -10.592266728029584
      ],
      [
        "levrier",
        -10.592356322888651
      ],
      [
        "covine",
        -10.59240786615281
      ],
      [
        "esloignie",
        -10.592753953395516
      ],
      [
        "commun",
        -10.59302665877153
      ],
      [
        "Juli",
        -10.593169488466941
      ],
      [
        "conmandemen",
        -10.594119235515542
      ],
      [
        "tytre",
        -10.59455446029934
      ],
      [
        "retrai",
        -10.595361246443531
      ],
      [
        "decevoi",
        -10.605458014236932
      ],
      [
        "curator",
        -10.612137583443426
      ],
      [
        "merveillos",
        -10.612625984677909
      ],
      [
        "esforcier",
        -10.612628151927765
      ],
      [
        "tombe",
        -10.612640726082327
      ],
      [
        "Auberi",
        -10.612641947308674
      ],
      [
        "diligen",
        -10.612809634820284
      ],
      [
        "assëure",
        -10.613139542930941
      ],
      [
        "Turc",
        -10.613141970131439
      ],
      [
        "Lanbegue",
        -10.633459318200401
      ],
      [
        "conpaignon",
        -10.633459331640697
      ],
      [
        "dignité",
        -10.63346253027171
      ],
      [
        "araisnie",
        -10.633497152879626
      ],
      [
        "creance",
        -10.63350378872311
      ],
      [
        "restorer",
        -10.63351834081555
      ],
      [
        "Estiene",
        -10.633555020152226
      ],
      [
        "Sanse",
        -10.633652576184945
      ],
      [
        "amonester",
        -10.6337535049388
      ],
      [
        "menbre",
        -10.633837518889935
      ],
      [
        "pledier",
        -10.635547524862016
      ],
      [
        "antand",
        -10.638638272501499
      ],
      [
        "travaillie",
        -10.641924945183474
      ],
      [
        "eüssie",
        -10.646000724925578
      ],
      [
        "Lyonia",
        -10.65038183178168
      ],
      [
        "IIII",
        -10.65473591431114
      ],
      [
        "jüi",
        -10.654736452464341
      ],
      [
        "sauvage",
        -10.65473892863795
      ],
      [
        "paumier",
        -10.654740584507401
      ],
      [
        "general",
        -10.654752720405169
      ],
      [
        "Dioclici",
        -10.654821485337793
      ],
      [
        "trueve",
        -10.657591022799123
      ],
      [
        "conferme",
        -10.660144757973242
      ],
      [
        "habit",
        -10.660574358730955
      ],
      [
        "avenan",
        -10.661573271786255
      ],
      [
        "jöe",
        -10.669358865840428
      ],
      [
        "achete",
        -10.67239103756153
      ],
      [
        "qanqu",
        -10.672527736994695
      ],
      [
        "hauber",
        -10.672934004997567
      ],
      [
        "mautal",
        -10.673402326205926
      ],
      [
        "recovr",
        -10.67535176931311
      ],
      [
        "Girar",
        -10.676476747298752
      ],
      [
        "Turpin",
        -10.676478418519665
      ],
      [
        "Herna",
        -10.676482393327964
      ],
      [
        "apostle",
        -10.67669577837556
      ],
      [
        "desfendeur",
        -10.676879726251297
      ],
      [
        "germain",
        -10.677791233767925
      ],
      [
        "curateur",
        -10.698166608119507
      ],
      [
        "Persi",
        -10.698839148212379
      ],
      [
        "forsener",
        -10.699273006402226
      ],
      [
        "Guen",
        -10.699734564557573
      ],
      [
        "essoigne",
        -10.700879158227712
      ],
      [
        "aproch",
        -10.708192363636767
      ],
      [
        "vïa",
        -10.710179602875364
      ],
      [
        "tierc",
        -10.71710254267173
      ],
      [
        "Valentin",
        -10.721424542254974
      ],
      [
        "adopcion",
        -10.721424610093033
      ],
      [
        "crüel",
        -10.721426093238296
      ],
      [
        "majesté",
        -10.721429676774571
      ],
      [
        "Alexi",
        -10.721435985638317
      ],
      [
        "vaissel",
        -10.721438870745118
      ],
      [
        "converti",
        -10.721444934284616
      ],
      [
        "montaigne",
        -10.72145301525253
      ],
      [
        "Espa",
        -10.721762623689102
      ],
      [
        "rendu",
        -10.72185707529928
      ],
      [
        "vermoil",
        -10.722135801708601
      ],
      [
        "Nohau",
        -10.722208546598553
      ],
      [
        "ploran",
        -10.726776428305262
      ],
      [
        "premerain",
        -10.744685359672983
      ],
      [
        "tronçon",
        -10.744688169542465
      ],
      [
        "conmença",
        -10.744694908492708
      ],
      [
        "essaucie",
        -10.744772127981259
      ],
      [
        "forbi",
        -10.74489668845986
      ],
      [
        "panre",
        -10.745162342480786
      ],
      [
        "desleiaute",
        -10.746125013146655
      ],
      [
        "dormi",
        -10.747828107714952
      ],
      [
        "döa",
        -10.750004561087625
      ],
      [
        "bëe",
        -10.756135768959814
      ],
      [
        "inture",
        -10.763350848410171
      ],
      [
        "sepouture",
        -10.768489979448148
      ],
      [
        "covenable",
        -10.768490320769423
      ],
      [
        "auferran",
        -10.768508225355946
      ],
      [
        "justice",
        -10.768536663292231
      ],
      [
        "veïst",
        -10.76855736877582
      ],
      [
        "tempeste",
        -10.768686149013874
      ],
      [
        "Ains",
        -10.768761545501944
      ],
      [
        "Euf",
        -10.768786478931233
      ],
      [
        "apostre",
        -10.768924641993719
      ],
      [
        "renomee",
        -10.769508580774366
      ],
      [
        "coucha",
        -10.770081190819763
      ],
      [
        "asemble",
        -10.771195911781543
      ],
      [
        "noian",
        -10.771838899230358
      ],
      [
        "avron",
        -10.777058531995792
      ],
      [
        "manra",
        -10.791067241049369
      ],
      [
        "umb",
        -10.792806886244334
      ],
      [
        "Berthelai",
        -10.792880120399442
      ],
      [
        "espöente",
        -10.79288016579478
      ],
      [
        "apostoile",
        -10.792880350108062
      ],
      [
        "vesteüre",
        -10.792881511616786
      ],
      [
        "engingnie",
        -10.792978107668052
      ],
      [
        "olive",
        -10.800371745044766
      ],
      [
        "barnage",
        -10.817880457491345
      ],
      [
        "privilege",
        -10.817883607668456
      ],
      [
        "baissier",
        -10.817886722211714
      ],
      [
        "flambe",
        -10.81788734585259
      ],
      [
        "crïat",
        -10.817888924299533
      ],
      [
        "clarel",
        -10.817907655930982
      ],
      [
        "hontos",
        -10.817929808406875
      ],
      [
        "estrangie",
        -10.817989953730583
      ],
      [
        "anseigne",
        -10.818022152712569
      ],
      [
        "simple",
        -10.818135140265344
      ],
      [
        "teneure",
        -10.818888992820192
      ],
      [
        "vandra",
        -10.82331220292091
      ],
      [
        "J",
        -10.833536675709071
      ],
      [
        "Dolereus",
        -10.843521157671617
      ],
      [
        "nistracion",
        -10.84352122681747
      ],
      [
        "Girfle",
        -10.843521388257587
      ],
      [
        "transaccion",
        -10.843523264472827
      ],
      [
        "reiaume",
        -10.843530356273876
      ],
      [
        "vilenie",
        -10.843680634788015
      ],
      [
        "priveem",
        -10.845259020564196
      ],
      [
        "gaitie",
        -10.847337218727686
      ],
      [
        "commencie",
        -10.859472412274096
      ],
      [
        "rescorr",
        -10.862889781748006
      ],
      [
        "manoi",
        -10.865315758303447
      ],
      [
        "gonfanon",
        -10.869836942281044
      ],
      [
        "Gordi",
        -10.869839387000997
      ],
      [
        "eritache",
        -10.869843172540554
      ],
      [
        "rivage",
        -10.869850996415806
      ],
      [
        "Thier",
        -10.869853430703184
      ],
      [
        "Richar",
        -10.869870430613002
      ],
      [
        "province",
        -10.869870821271656
      ],
      [
        "feïss",
        -10.869957515920122
      ],
      [
        "avision",
        -10.870123027246184
      ],
      [
        "offre",
        -10.870520398369347
      ],
      [
        "vëe",
        -10.871582249907295
      ],
      [
        "changie",
        -10.874901514089164
      ],
      [
        "correcie",
        -10.896388949843399
      ],
      [
        "_",
        -10.89686396252278
      ],
      [
        "guenchir",
        -10.896863966834454
      ],
      [
        "Maximien",
        -10.89686397905597
      ],
      [
        "juridici",
        -10.896864117713962
      ],
      [
        "Hardré",
        -10.896864492784989
      ],
      [
        "blanche",
        -10.896972268512654
      ],
      [
        "abbe",
        -10.897714250142261
      ],
      [
        "cheoi",
        -10.89803355982289
      ],
      [
        "tranchie",
        -10.902160440882357
      ],
      [
        "rrachie",
        -10.910593990137048
      ],
      [
        "deserite",
        -10.912809312423601
      ],
      [
        "voulo",
        -10.916699418406303
      ],
      [
        "Z",
        -10.924641740300554
      ],
      [
        "resplendi",
        -10.924641884944705
      ],
      [
        "parmanable",
        -10.924642303007898
      ],
      [
        "Daguene",
        -10.924642353552592
      ],
      [
        "sanglent",
        -10.924646284699714
      ],
      [
        "parmenable",
        -10.924647486096728
      ],
      [
        "obedi",
        -10.924662081965195
      ],
      [
        "prueve",
        -10.924669471868533
      ],
      [
        "moillier",
        -10.924677248444468
      ],
      [
        "nobi",
        -10.924694413232972
      ],
      [
        "barba",
        -10.924726859595895
      ],
      [
        "corporel",
        -10.924743005017696
      ],
      [
        "acointe",
        -10.924761253336452
      ],
      [
        "tuteur",
        -10.92478068102102
      ],
      [
        "menço",
        -10.927357849098962
      ],
      [
        "däerrain",
        -10.95321317329796
      ],
      [
        "0000",
        -10.953213265048575
      ],
      [
        "crestïente",
        -10.95322012660781
      ],
      [
        "Saisne",
        -10.953220543984482
      ],
      [
        "prëech",
        -10.953260660864952
      ],
      [
        "confond",
        -10.954120919437996
      ],
      [
        "haucie",
        -10.970352763204032
      ],
      [
        "vavasor",
        -10.982628028637519
      ],
      [
        "olivier",
        -10.98262813992414
      ],
      [
        "noviau",
        -10.98263715723067
      ],
      [
        "tranchan",
        -10.982656994748233
      ],
      [
        "chalongie",
        -10.982921226207086
      ],
      [
        "Valerie",
        -10.983311657725773
      ],
      [
        "contrava",
        -10.995048641483816
      ],
      [
        "religion",
        -11.012927965125234
      ],
      [
        "creature",
        -11.012928011978984
      ],
      [
        "pelerin",
        -11.012928336407864
      ],
      [
        "aproismier",
        -11.012928471443999
      ],
      [
        "Gerin",
        -11.012944435656742
      ],
      [
        "femme",
        -11.01298957502043
      ],
      [
        "chastiau",
        -11.012989744626726
      ],
      [
        "essempl",
        -11.013504420269822
      ],
      [
        "regarda",
        -11.013782079492433
      ],
      [
        "forterece",
        -11.044183118651663
      ],
      [
        "derrenier",
        -11.044190369126676
      ],
      [
        "veïssie",
        -11.044197852317456
      ],
      [
        "Ainz",
        -11.044222132547876
      ],
      [
        "Jehan",
        -11.04422681906906
      ],
      [
        "Entre",
        -11.044249512600533
      ],
      [
        "agenoillie",
        -11.044289203279824
      ],
      [
        "cöar",
        -11.044326096648513
      ],
      [
        "Aquilan",
        -11.044341165241278
      ],
      [
        "enchantemen",
        -11.044344913511027
      ],
      [
        "marchëan",
        -11.044827294878864
      ],
      [
        "menacie",
        -11.047241497882677
      ],
      [
        "enragie",
        -11.04812893458189
      ],
      [
        "principal",
        -11.076436028420432
      ],
      [
        "Maudaran",
        -11.076436033103981
      ],
      [
        "conmencier",
        -11.076451937359204
      ],
      [
        "Noiron",
        -11.076467185929495
      ],
      [
        "gäai",
        -11.076503794973803
      ],
      [
        "ncombrie",
        -11.076623923310045
      ],
      [
        "vaillan",
        -11.095903761613119
      ],
      [
        "Maximian",
        -11.109769362535237
      ],
      [
        "Bernar",
        -11.10976941396364
      ],
      [
        "volantier",
        -11.109770779909024
      ],
      [
        "lointain",
        -11.109771774064466
      ],
      [
        "desirrier",
        -11.109778841195821
      ],
      [
        "lumiere",
        -11.109785767389207
      ],
      [
        "gaster",
        -11.109807510765014
      ],
      [
        "regrete",
        -11.110095198481009
      ],
      [
        "vergie",
        -11.134526311804837
      ],
      [
        "Alexandr",
        -11.144252131262864
      ],
      [
        "sospeçon",
        -11.144252147689919
      ],
      [
        "Sarasin",
        -11.144252166174637
      ],
      [
        "repentir",
        -11.144252382158863
      ],
      [
        "covoitise",
        -11.144252908887616
      ],
      [
        "gypt",
        -11.144253512951025
      ],
      [
        "acointie",
        -11.144338832364129
      ],
      [
        "amenuisie",
        -11.14435018886794
      ],
      [
        "beneoi",
        -11.146599277217689
      ],
      [
        "damoisel",
        -11.161995652220064
      ],
      [
        "Sarrazin",
        -11.17996640607247
      ],
      [
        "Justinien",
        -11.179966406395875
      ],
      [
        "Guerrehe",
        -11.179966408124624
      ],
      [
        "Theodose",
        -11.179966421580655
      ],
      [
        "baptizie",
        -11.179966431308571
      ],
      [
        "Apolin",
        -11.179966662955797
      ],
      [
        "Antoine",
        -11.179968101585665
      ],
      [
        "batesme",
        -11.179972500403178
      ],
      [
        "ervagan",
        -11.179973123782027
      ],
      [
        "guerrier",
        -11.17997321618217
      ],
      [
        "amonestemen",
        -11.180337483336418
      ],
      [
        "essillie",
        -11.186914714548317
      ],
      [
        "7",
        -11.217003443102373
      ],
      [
        "Synado",
        -11.21700344372137
      ],
      [
        "Camaalo",
        -11.217003447979053
      ],
      [
        "Ganelon",
        -11.217003905339576
      ],
      [
        "patremoine",
        -11.21700554908123
      ],
      [
        "healme",
        -11.217006908475367
      ],
      [
        "embrac",
        -11.217101277795344
      ],
      [
        "delaiemen",
        -11.222578533399329
      ],
      [
        "omnipot",
        -11.255465162624441
      ],
      [
        "aconpli",
        -11.255466220325623
      ],
      [
        "enlumine",
        -11.255467886297765
      ],
      [
        "amenistre",
        -11.255468360590244
      ],
      [
        "constrain",
        -11.25550750626416
      ],
      [
        "baptesme",
        -11.29546499741909
      ],
      [
        "condempne",
        -11.295467368255888
      ],
      [
        "Trebe",
        -11.295821270622824
      ],
      [
        "enforcie",
        -11.296622400329964
      ],
      [
        "avugle",
        -11.337133612434979
      ],
      [
        "repeir",
        -11.337226854943653
      ],
      [
        "Fernagu",
        -11.380609909123063
      ],
      [
        "Justinian",
        -11.38060990930704
      ],
      [
        "XXX",
        -11.38060991836282
      ],
      [
        "sarazin",
        -11.380609970458782
      ],
      [
        "efforcie",
        -11.380615471198547
      ],
      [
        "gaaignie",
        -11.380761719306326
      ],
      [
        "w",
        -11.426064454554691
      ],
      [
        "Dragolan",
        -11.426064454573789
      ],
      [
        "darrenier",
        -11.426064529932042
      ],
      [
        "evangile",
        -11.426064664461752
      ],
      [
        "Avicien",
        -11.426064692720235
      ],
      [
        "halberc",
        -11.426064745629127
      ],
      [
        "empëech",
        -11.42606691615699
      ],
      [
        "flueve",
        -11.426073162129061
      ],
      [
        "auctorite",
        -11.426093239415083
      ],
      [
        "’",
        -11.473683502173737
      ],
      [
        "rguignon",
        -11.473686032931095
      ],
      [
        "benëoit",
        -11.52368352762637
      ],
      [
        "vigoros",
        -11.523683554059428
      ],
      [
        "especïa",
        -11.523684953335653
      ],
      [
        "vergoign",
        -11.523686957334839
      ],
      [
        "desraisnie",
        -11.523690438688726
      ],
      [
        "repondr",
        -11.523798289342828
      ],
      [
        "semblable",
        -11.57631508246865
      ],
      [
        "Merlin",
        -11.576315161568004
      ],
      [
        "Institute",
        -11.631870636687202
      ],
      [
        "Emaudra",
        -11.631870649992768
      ],
      [
        "consentemen",
        -11.63235606000935
      ],
      [
        "¶",
        -11.69069416608843
      ],
      [
        "W",
        -11.69069416608843
      ],
      [
        "anchantemen",
        -11.690747169728272
      ],
      [
        "condiction",
        -11.753194168762473
      ],
      [
        "traveillie",
        -11.753194431566595
      ],
      [
        "mescrëan",
        -11.82919951204115
      ],
      [
        "*",
        -11.96821248110682
      ],
      [
        "–",
        -12.142454905349616
      ],
      [
        "6",
        -12.242454905350389
      ],
      [
        "RICHIER",
        -12.353566016463976
      ],
      [
        "8",
        -12.788089826036849
      ],
      [
        "|",
        -14.071423159370184
      ],
      [
        "æ",
        -15.071423159370182
      ],
      [
        "̧",
        -15.071423159370182
      ],
      [
        ">",
        -15.071423159370182
      ],
      [
        "9",
        -15.071423159370182
      ],
      [
        "̃",
        -15.071423159370182
      ],
      [
        "=",
        -15.071423159370182
      ]
    ]
  }
}