{
  "version": "1.0",
  "truncation": null,
  "padding": null,
  "added_tokens": [
    {
      "id": 0,
      "content": "[UNK]",
      "single_word": false,
      "lstrip": false,
      "rstrip": false,
      "normalized": false,
      "special": true
    },
    {
      "id": 1,
      "content": "[PAD]",
      "single_word": false,
      "lstrip": false,
      "rstrip": false,
      "normalized": false,
      "special": true
    },
    {
      "id": 2,
      "content": "[EOS]",
      "single_word": false,
      "lstrip": false,
      "rstrip": false,
      "normalized": false,
      "special": true
    },
    {
      "id": 3,
      "content": "[BOS]",
      "single_word": false,
      "lstrip": false,
      "rstrip": false,
      "normalized": false,
      "special": true
    }
  ],
  "normalizer": {
    "type": "Sequence",
    "normalizers": [
      {
        "type": "NFKD"
      },
      {
        "type": "Lowercase"
      }
    ]
  },
  "pre_tokenizer": {
    "type": "Sequence",
    "pretokenizers": [
      {
        "type": "Whitespace"
      },
      {
        "type": "Digits",
        "individual_digits": false
      }
    ]
  },
  "post_processor": null,
  "decoder": {
    "type": "ByteLevel",
    "add_prefix_space": true,
    "trim_offsets": true,
    "use_regex": true
  },
  "model": {
    "type": "Unigram",
    "unk_id": null,
    "vocab": [
      [
        "[UNK]",
        0.0
      ],
      [
        "[PAD]",
        0.0
      ],
      [
        "[EOS]",
        0.0
      ],
      [
        "[BOS]",
        0.0
      ],
      [
        "s",
        -3.0484359769637113
      ],
      [
        "e",
        -3.2197699640552155
      ],
      [
        "a",
        -3.4005286673416446
      ],
      [
        "i",
        -3.440577898507909
      ],
      [
        "o",
        -3.47799683788741
      ],
      [
        "t",
        -3.5358824777026214
      ],
      [
        "m",
        -3.8171814162679976
      ],
      [
        "in",
        -3.8602782027647695
      ],
      [
        "et",
        -4.103684367362945
      ],
      [
        "u",
        -4.201652592013431
      ],
      [
        "c",
        -4.213178797666497
      ],
      [
        "us",
        -4.302237804420971
      ],
      [
        "qui",
        -4.523004350478622
      ],
      [
        "p",
        -4.5282590369896365
      ],
      [
        "is",
        -4.5820833103531715
      ],
      [
        "de",
        -4.678855049875372
      ],
      [
        "que",
        -4.724529036894481
      ],
      [
        "re",
        -4.771512444016928
      ],
      [
        "r",
        -4.791308889450349
      ],
      [
        "sum",
        -4.843426494316571
      ],
      [
        "at",
        -4.875171544932449
      ],
      [
        "um",
        -4.932148982596482
      ],
      [
        "n",
        -4.9330118090218225
      ],
      [
        "non",
        -4.945549433035202
      ],
      [
        "ad",
        -4.99977345332608
      ],
      [
        "tu",
        -5.08682125495416
      ],
      [
        "ex",
        -5.087526804260307
      ],
      [
        "ut",
        -5.1042865761387155
      ],
      [
        "per",
        -5.172869258986298
      ],
      [
        "f",
        -5.28261923635173
      ],
      [
        "cum",
        -5.304886620627681
      ],
      [
        "g",
        -5.308150861662517
      ],
      [
        "ne",
        -5.334936358413804
      ],
      [
        "界que",
        -5.446029018920678
      ],
      [
        "si",
        -5.468021924038368
      ],
      [
        "ab",
        -5.493242069672217
      ],
      [
        "quam",
        -5.495944207479191
      ],
      [
        "di",
        -5.503392751005219
      ],
      [
        "con",
        -5.523399063091961
      ],
      [
        "pro",
        -5.524946268959665
      ],
      [
        "hic",
        -5.591001903416339
      ],
      [
        "or",
        -5.626194011353238
      ],
      [
        "ac",
        -5.636074929110853
      ],
      [
        "est",
        -5.647874320100293
      ],
      [
        "d",
        -5.675009983730382
      ],
      [
        "sed",
        -5.70772763871418
      ],
      [
        "b",
        -5.718931323176504
      ],
      [
        "do",
        -5.724678123059247
      ],
      [
        "an",
        -5.761272374688749
      ],
      [
        "tum",
        -5.793489554929597
      ],
      [
        "li",
        -5.799226035636666
      ],
      [
        "ego",
        -5.810368208508612
      ],
      [
        "l",
        -5.818650206605243
      ],
      [
        "ille",
        -5.870746253256247
      ],
      [
        "quis",
        -5.914261819321856
      ],
      [
        "ita",
        -5.951799137363281
      ],
      [
        "quod",
        -5.981979866195434
      ],
      [
        "h",
        -6.002023681226296
      ],
      [
        "am",
        -6.008367869767682
      ],
      [
        "res",
        -6.045898511208966
      ],
      [
        "ar",
        -6.052375906587828
      ],
      [
        "nec",
        -6.057047788591833
      ],
      [
        "la",
        -6.069717112298179
      ],
      [
        "rum",
        -6.135253366374316
      ],
      [
        "ius",
        -6.178350183456612
      ],
      [
        "aut",
        -6.192890807089784
      ],
      [
        "er",
        -6.231580504616025
      ],
      [
        "omnis",
        -6.295508625497796
      ],
      [
        "quae",
        -6.295727986717845
      ],
      [
        "iam",
        -6.305754558213698
      ],
      [
        "ui",
        -6.3530154377373
      ],
      [
        "sui",
        -6.37606880794819
      ],
      [
        "ipse",
        -6.3977177737071
      ],
      [
        "inter",
        -6.3998881267657435
      ],
      [
        "enim",
        -6.410728137626988
      ],
      [
        "ra",
        -6.41135437025433
      ],
      [
        "no",
        -6.41573158856569
      ],
      [
        "quo",
        -6.438405222902132
      ],
      [
        "ter",
        -6.459709624518618
      ],
      [
        "le",
        -6.460028381814949
      ],
      [
        "ibus",
        -6.492062442725096
      ],
      [
        "tur",
        -6.498165425744125
      ],
      [
        "unt",
        -6.498293358123872
      ],
      [
        "possum",
        -6.504905225264773
      ],
      [
        "dis",
        -6.506396044583537
      ],
      [
        "ob",
        -6.522253434914379
      ],
      [
        "on",
        -6.52302012545602
      ],
      [
        "par",
        -6.528118989642534
      ],
      [
        "com",
        -6.541916555217032
      ],
      [
        "quid",
        -6.547324026444294
      ],
      [
        "etiam",
        -6.558781383353372
      ],
      [
        "x",
        -6.567878371837034
      ],
      [
        "dico",
        -6.572790425721305
      ],
      [
        "uis",
        -6.575934371310803
      ],
      [
        "tor",
        -6.58399079048557
      ],
      [
        "co",
        -6.587129294915762
      ],
      [
        "qua",
        -6.597322589113254
      ],
      [
        "tam",
        -6.614674262763893
      ],
      [
        "prae",
        -6.62188225247484
      ],
      [
        "al",
        -6.636657645422945
      ],
      [
        "uit",
        -6.642437792018503
      ],
      [
        "nam",
        -6.644854244801609
      ],
      [
        "facio",
        -6.658449328378751
      ],
      [
        "ent",
        -6.6849652122960315
      ],
      [
        "neque",
        -6.696925761781474
      ],
      [
        "fer",
        -6.701606204674727
      ],
      [
        "tamen",
        -6.708468141284682
      ],
      [
        "uideo",
        -6.731907370250404
      ],
      [
        "num",
        -6.743111304942994
      ],
      [
        "ere",
        -6.756651425286936
      ],
      [
        "sub",
        -6.763517574788628
      ],
      [
        "esse",
        -6.764062772520713
      ],
      [
        "nihil",
        -6.775748897336561
      ],
      [
        "suus",
        -6.791211862420505
      ],
      [
        "rem",
        -6.796008835366727
      ],
      [
        "nos",
        -6.79663326077141
      ],
      [
        "uer",
        -6.815606866460795
      ],
      [
        "ur",
        -6.822230247184043
      ],
      [
        "cur",
        -6.824853909940316
      ],
      [
        "id",
        -6.830024436673353
      ],
      [
        "quidem",
        -6.831230418670906
      ],
      [
        "tem",
        -6.835375115297438
      ],
      [
        "ante",
        -6.8446943951042964
      ],
      [
        "nus",
        -6.851824699149308
      ],
      [
        "causa",
        -6.858268567102643
      ],
      [
        "ali",
        -6.874905326719247
      ],
      [
        "nunc",
        -6.885599928873409
      ],
      [
        "y",
        -6.8878104922347045
      ],
      [
        "go",
        -6.904819240465626
      ],
      [
        "ens",
        -6.90591042850693
      ],
      [
        "idem",
        -6.919242474117679
      ],
      [
        "fi",
        -6.91959460970868
      ],
      [
        "hoc",
        -6.919745941264216
      ],
      [
        "fero",
        -6.9205264964458735
      ],
      [
        "mitto",
        -6.925656218342665
      ],
      [
        "ubi",
        -6.927299326459362
      ],
      [
        "magnus",
        -6.929915854620951
      ],
      [
        "ris",
        -6.934588732786649
      ],
      [
        "sol",
        -6.950535036760588
      ],
      [
        "orum",
        -6.950924512597494
      ],
      [
        "ant",
        -6.9598039828993254
      ],
      [
        "lo",
        -6.979391427468736
      ],
      [
        "uir",
        -7.013994602550792
      ],
      [
        "cus",
        -7.022772074862017
      ],
      [
        "habeo",
        -7.0228181434956625
      ],
      [
        "uos",
        -7.032330853244044
      ],
      [
        "post",
        -7.034421881690292
      ],
      [
        "atio",
        -7.036910018383015
      ],
      [
        "cor",
        -7.052564758332059
      ],
      [
        "dum",
        -7.052614666999105
      ],
      [
        "magis",
        -7.056544994389775
      ],
      [
        "dic",
        -7.059360686067016
      ],
      [
        "uel",
        -7.068861733712605
      ],
      [
        "ari",
        -7.0782620218628995
      ],
      [
        "meus",
        -7.088487490744429
      ],
      [
        "erat",
        -7.093147737278844
      ],
      [
        "bus",
        -7.107064726739875
      ],
      [
        "uen",
        -7.113980589735984
      ],
      [
        "sic",
        -7.144911873028841
      ],
      [
        "tuus",
        -7.148035842857908
      ],
      [
        "liber",
        -7.149868188758104
      ],
      [
        "homo",
        -7.151089607482785
      ],
      [
        "consul",
        -7.151991667701065
      ],
      [
        "tra",
        -7.155660934427514
      ],
      [
        "multus",
        -7.1583095085218
      ],
      [
        "modo",
        -7.171755514442804
      ],
      [
        "lu",
        -7.177700898218106
      ],
      [
        "caesar",
        -7.1849046234207705
      ],
      [
        "uita",
        -7.187614827051714
      ],
      [
        "alius",
        -7.193750223644177
      ],
      [
        "gra",
        -7.195680163407722
      ],
      [
        "nis",
        -7.204898896631397
      ],
      [
        "animus",
        -7.214673810123134
      ],
      [
        "sit",
        -7.2218842811430015
      ],
      [
        "uide",
        -7.232174138623579
      ],
      [
        "pa",
        -7.239406607316058
      ],
      [
        "uenio",
        -7.242115690238061
      ],
      [
        "diu",
        -7.251316184145118
      ],
      [
        "iste",
        -7.256642727131657
      ],
      [
        "quoque",
        -7.2570602298339075
      ],
      [
        "mihi",
        -7.264469690499144
      ],
      [
        "nisi",
        -7.27046183578576
      ],
      [
        "erit",
        -7.27849474863662
      ],
      [
        "uolo",
        -7.279765772276161
      ],
      [
        "sci",
        -7.318943234885605
      ],
      [
        "tibi",
        -7.31905547127314
      ],
      [
        "super",
        -7.32753612607317
      ],
      [
        "ten",
        -7.335039331219809
      ],
      [
        "duc",
        -7.345821549209534
      ],
      [
        "autem",
        -7.347142192970017
      ],
      [
        "illa",
        -7.355915653289852
      ],
      [
        "unus",
        -7.356412143581572
      ],
      [
        "hi",
        -7.360843288736003
      ],
      [
        "atus",
        -7.368238256897952
      ],
      [
        "for",
        -7.3784627638065725
      ],
      [
        "fici",
        -7.38516416560954
      ],
      [
        "lis",
        -7.395906780442855
      ],
      [
        "dies",
        -7.399170898700527
      ],
      [
        "sine",
        -7.408319443031438
      ],
      [
        "cre",
        -7.411631920283359
      ],
      [
        "arma",
        -7.417777175056015
      ],
      [
        "haec",
        -7.42580115813165
      ],
      [
        "sua",
        -7.435569884765824
      ],
      [
        "nullus",
        -7.439919530043435
      ],
      [
        "pul",
        -7.441914566681346
      ],
      [
        "alter",
        -7.444674591562542
      ],
      [
        "pater",
        -7.446083887429854
      ],
      [
        "locus",
        -7.446691596856931
      ],
      [
        "duco",
        -7.457612789463266
      ],
      [
        "atur",
        -7.457836237268788
      ],
      [
        "tempus",
        -7.469881012600647
      ],
      [
        "pono",
        -7.470402835425361
      ],
      [
        "cul",
        -7.471000366346413
      ],
      [
        "simul",
        -7.4746429019410865
      ],
      [
        "tri",
        -7.474935860663498
      ],
      [
        "fa",
        -7.481727326773417
      ],
      [
        "miser",
        -7.504533840679025
      ],
      [
        "ga",
        -7.510864011518445
      ],
      [
        "ergo",
        -7.512165701695933
      ],
      [
        "uic",
        -7.5158445264436775
      ],
      [
        "men",
        -7.517590394094341
      ],
      [
        "cae",
        -7.5215492632244345
      ],
      [
        "cit",
        -7.524530996626019
      ],
      [
        "manus",
        -7.534373333814967
      ],
      [
        "ago",
        -7.535535103223138
      ],
      [
        "uero",
        -7.535690280216553
      ],
      [
        "illi",
        -7.536532592214346
      ],
      [
        "ha",
        -7.5390423378444975
      ],
      [
        "bellum",
        -7.54326792539972
      ],
      [
        "fortuna",
        -7.554222135733763
      ],
      [
        "col",
        -7.558275195031111
      ],
      [
        "fu",
        -7.561118126686802
      ],
      [
        "pars",
        -7.563532948443687
      ],
      [
        "terra",
        -7.5647303096012735
      ],
      [
        "cio",
        -7.5711663893397825
      ],
      [
        "idus",
        -7.573112021686069
      ],
      [
        "mus",
        -7.577223284443367
      ],
      [
        "noster",
        -7.577443149330106
      ],
      [
        "anus",
        -7.5842035253698885
      ],
      [
        "isti",
        -7.595048325465413
      ],
      [
        "nomen",
        -7.5972029065358795
      ],
      [
        "labor",
        -7.597392814641689
      ],
      [
        "uol",
        -7.61150454903663
      ],
      [
        "rit",
        -7.613143494100001
      ],
      [
        "fac",
        -7.614754328493156
      ],
      [
        "natura",
        -7.6231792919087535
      ],
      [
        "licet",
        -7.624058680415309
      ],
      [
        "pl",
        -7.625909184757
      ],
      [
        "op",
        -7.628077063087569
      ],
      [
        "apud",
        -7.628206258970954
      ],
      [
        "pot",
        -7.629735712478002
      ],
      [
        "bonus",
        -7.630383266682574
      ],
      [
        "tim",
        -7.635600836756229
      ],
      [
        "tot",
        -7.638034143471504
      ],
      [
        "populus",
        -7.644858039437744
      ],
      [
        "dam",
        -7.646622028465667
      ],
      [
        "eius",
        -7.649492107792548
      ],
      [
        "aliquis",
        -7.649814487666799
      ],
      [
        "gitur",
        -7.651414224788049
      ],
      [
        "iter",
        -7.65168252315453
      ],
      [
        "contra",
        -7.6573644549895565
      ],
      [
        "ratio",
        -7.65861331324976
      ],
      [
        "car",
        -7.663565161820117
      ],
      [
        "bo",
        -7.668249668744762
      ],
      [
        "bene",
        -7.6733513165213525
      ],
      [
        "cess",
        -7.679656281841574
      ],
      [
        "corpus",
        -7.684298534886085
      ],
      [
        "rus",
        -7.694503981312573
      ],
      [
        "tantum",
        -7.70063398453869
      ],
      [
        "saepe",
        -7.701312072890852
      ],
      [
        "fl",
        -7.702219112008234
      ],
      [
        "sequor",
        -7.70282945678943
      ],
      [
        "cedo",
        -7.706912994923527
      ],
      [
        "nemo",
        -7.71684605152585
      ],
      [
        "rex",
        -7.7178007595153515
      ],
      [
        "sto",
        -7.7180584045782945
      ],
      [
        "sal",
        -7.725880956283858
      ],
      [
        "mens",
        -7.737897951123477
      ],
      [
        "mentum",
        -7.740665022801498
      ],
      [
        "romanus",
        -7.744597814986142
      ],
      [
        "por",
        -7.745013886942379
      ],
      [
        "semper",
        -7.747691557101837
      ],
      [
        "tro",
        -7.749208916493559
      ],
      [
        "sunt",
        -7.750307279421088
      ],
      [
        "luc",
        -7.755198377962628
      ],
      [
        "senatus",
        -7.755363128412746
      ],
      [
        "quibus",
        -7.759452555956979
      ],
      [
        "peto",
        -7.760442732722523
      ],
      [
        "eri",
        -7.769647058467469
      ],
      [
        "circum",
        -7.775072083688491
      ],
      [
        "puto",
        -7.777912405509446
      ],
      [
        "duo",
        -7.778042970481062
      ],
      [
        "pen",
        -7.79375473098974
      ],
      [
        "lex",
        -7.803311693883589
      ],
      [
        "cas",
        -7.807119902450004
      ],
      [
        "satis",
        -7.814830783482038
      ],
      [
        "quin",
        -7.814930805399797
      ],
      [
        "pecunia",
        -7.815904309939243
      ],
      [
        "pr",
        -7.817754026860126
      ],
      [
        "bit",
        -7.818491850246149
      ],
      [
        "deinde",
        -7.826532245207467
      ],
      [
        "isse",
        -7.8403434571520325
      ],
      [
        "domus",
        -7.840988261428899
      ],
      [
        "trans",
        -7.8414784809133815
      ],
      [
        "bat",
        -7.846735448257574
      ],
      [
        "uti",
        -7.847845570104969
      ],
      [
        "primum",
        -7.851633823843885
      ],
      [
        "pes",
        -7.858724268835037
      ],
      [
        "hostis",
        -7.860993037149557
      ],
      [
        "ulus",
        -7.867786168895434
      ],
      [
        "omnia",
        -7.870860787313563
      ],
      [
        "respublica",
        -7.872228377933437
      ],
      [
        "uni",
        -7.881381669804017
      ],
      [
        "fuit",
        -7.883410440265357
      ],
      [
        "itur",
        -7.8840804692173565
      ],
      [
        "ger",
        -7.890169309859291
      ],
      [
        "pici",
        -7.891873185599699
      ],
      [
        "are",
        -7.893442030821658
      ],
      [
        "honor",
        -7.90167227343841
      ],
      [
        "endi",
        -7.903119557587071
      ],
      [
        "pol",
        -7.906296654711348
      ],
      [
        "quidam",
        -7.907485848865009
      ],
      [
        "huc",
        -7.909054231618407
      ],
      [
        "audi",
        -7.9223837659076555
      ],
      [
        "mea",
        -7.926230455323416
      ],
      [
        "anti",
        -7.926725307543363
      ],
      [
        "hos",
        -7.928637948754334
      ],
      [
        "mos",
        -7.935000487695216
      ],
      [
        "ebat",
        -7.941389060774574
      ],
      [
        "uirtus",
        -7.9422444591775925
      ],
      [
        "ueni",
        -7.94503143799622
      ],
      [
        "prouincia",
        -7.946397713236867
      ],
      [
        "fru",
        -7.946591218696263
      ],
      [
        "imus",
        -7.947713797010302
      ],
      [
        "sibi",
        -7.949199610401877
      ],
      [
        "amor",
        -7.949707375745561
      ],
      [
        "his",
        -7.957270429569822
      ],
      [
        "numquam",
        -7.957410138942353
      ],
      [
        "erunt",
        -7.962703315252879
      ],
      [
        "totus",
        -7.966212141012764
      ],
      [
        "cap",
        -7.968385194078494
      ],
      [
        "erant",
        -7.969258693560779
      ],
      [
        "3",
        -7.969325746309508
      ],
      [
        "legio",
        -7.970876142482015
      ],
      [
        "credo",
        -7.975001448141282
      ],
      [
        "deus",
        -7.976638266820822
      ],
      [
        "illo",
        -7.979156528971419
      ],
      [
        "cura",
        -7.985080747614698
      ],
      [
        "cog",
        -7.986302586414014
      ],
      [
        "miles",
        -7.986531593577681
      ],
      [
        "tantus",
        -7.993715792916835
      ],
      [
        "quos",
        -7.995889573510705
      ],
      [
        "cal",
        -8.001482000480468
      ],
      [
        "genus",
        -8.001799733920876
      ],
      [
        "urbs",
        -8.00279173910656
      ],
      [
        "quantum",
        -8.007039337405669
      ],
      [
        "castra",
        -8.008025666652944
      ],
      [
        "iudicium",
        -8.00866313869684
      ],
      [
        "propter",
        -8.01349582430112
      ],
      [
        "cel",
        -8.01430504963502
      ],
      [
        "cui",
        -8.018024301842694
      ],
      [
        "consilium",
        -8.02561536310126
      ],
      [
        "uerum",
        -8.025650496138574
      ],
      [
        "uere",
        -8.026407467207214
      ],
      [
        "retur",
        -8.028989687594551
      ],
      [
        "the",
        -8.029413123689372
      ],
      [
        "mur",
        -8.031746100302787
      ],
      [
        "opus",
        -8.034335579560812
      ],
      [
        "tribu",
        -8.036961519233984
      ],
      [
        "lus",
        -8.036997388904986
      ],
      [
        "nimi",
        -8.0461668256145
      ],
      [
        "nda",
        -8.046920483306993
      ],
      [
        "quaero",
        -8.048059909839946
      ],
      [
        "ira",
        -8.048625573853858
      ],
      [
        "iubeo",
        -8.049387007565745
      ],
      [
        "primus",
        -8.049893800578255
      ],
      [
        "acer",
        -8.054900018638122
      ],
      [
        "cere",
        -8.05585671440815
      ],
      [
        "tempor",
        -8.057021996965123
      ],
      [
        "superus",
        -8.057892880535887
      ],
      [
        "quisque",
        -8.058913786584416
      ],
      [
        "uoco",
        -8.06002312252365
      ],
      [
        "audio",
        -8.060035368845709
      ],
      [
        "medi",
        -8.062800419368365
      ],
      [
        "undi",
        -8.063184574185662
      ],
      [
        "debeo",
        -8.071584520868782
      ],
      [
        "mors",
        -8.074666986261738
      ],
      [
        "bonum",
        -8.075530975982831
      ],
      [
        "multi",
        -8.076433897137083
      ],
      [
        "parum",
        -8.080857680678148
      ],
      [
        "secu",
        -8.08918771021866
      ],
      [
        "gratia",
        -8.090853230618936
      ],
      [
        "uolu",
        -8.101050710065884
      ],
      [
        "moueo",
        -8.102373733964173
      ],
      [
        "fio",
        -8.108085504616742
      ],
      [
        "praetor",
        -8.108793481429297
      ],
      [
        "ho",
        -8.11210374046162
      ],
      [
        "unde",
        -8.11285315576096
      ],
      [
        "ndum",
        -8.113059727979206
      ],
      [
        "untur",
        -8.115997307017166
      ],
      [
        "regi",
        -8.121163871428106
      ],
      [
        "pio",
        -8.12134394317787
      ],
      [
        "dat",
        -8.122430456040991
      ],
      [
        "exercitus",
        -8.125107904462677
      ],
      [
        "dolor",
        -8.126098677074477
      ],
      [
        "multa",
        -8.128805628453286
      ],
      [
        "spe",
        -8.1321092542312
      ],
      [
        "accipio",
        -8.132891776308156
      ],
      [
        "hin",
        -8.14051632735065
      ],
      [
        "rent",
        -8.14581177005174
      ],
      [
        "ciuitas",
        -8.150784958037864
      ],
      [
        "roma",
        -8.154554606529873
      ],
      [
        "cen",
        -8.156506368893279
      ],
      [
        "ipsa",
        -8.157945306917926
      ],
      [
        "uro",
        -8.161064420820903
      ],
      [
        "aequ",
        -8.164880346253462
      ],
      [
        "praes",
        -8.17020676919048
      ],
      [
        "dux",
        -8.170411950324413
      ],
      [
        "scribo",
        -8.172154439257
      ],
      [
        "batur",
        -8.173879953583974
      ],
      [
        "nox",
        -8.17396182757075
      ],
      [
        "culum",
        -8.178899808221521
      ],
      [
        "urus",
        -8.17957082049045
      ],
      [
        "statu",
        -8.183405920721093
      ],
      [
        "scio",
        -8.184598180434332
      ],
      [
        "omni",
        -8.186108867774301
      ],
      [
        "hort",
        -8.188845016235005
      ],
      [
        "mater",
        -8.189884445493579
      ],
      [
        "copia",
        -8.19200263332366
      ],
      [
        "amic",
        -8.192898893471703
      ],
      [
        "lit",
        -8.194485822450957
      ],
      [
        "pugna",
        -8.195364562960041
      ],
      [
        "solum",
        -8.197364426484349
      ],
      [
        "lum",
        -8.198398469819253
      ],
      [
        "cuius",
        -8.20073446184755
      ],
      [
        "iniuria",
        -8.201085660619
      ],
      [
        "arius",
        -8.201539734763713
      ],
      [
        "puer",
        -8.202415244567412
      ],
      [
        "potest",
        -8.203420754256456
      ],
      [
        "seruo",
        -8.204078679129978
      ],
      [
        "rium",
        -8.209124474395042
      ],
      [
        "cau",
        -8.210158305948688
      ],
      [
        "mil",
        -8.211790828257541
      ],
      [
        "uerit",
        -8.21351329215609
      ],
      [
        "beneficium",
        -8.213880520545288
      ],
      [
        "enda",
        -8.21504594971014
      ],
      [
        "praeter",
        -8.215086516204694
      ],
      [
        "bi",
        -8.215103969894315
      ],
      [
        "animo",
        -8.218329258462695
      ],
      [
        "ros",
        -8.21935688917167
      ],
      [
        "una",
        -8.21966426872632
      ],
      [
        "ula",
        -8.223186680807117
      ],
      [
        "quisquam",
        -8.224530985102142
      ],
      [
        "ipsi",
        -8.22835875996007
      ],
      [
        "caput",
        -8.229576623803897
      ],
      [
        "uia",
        -8.231434428452523
      ],
      [
        "minus",
        -8.233856823330273
      ],
      [
        "ignis",
        -8.23653195412825
      ],
      [
        "amicus",
        -8.23676780556411
      ],
      [
        "alia",
        -8.238217680277952
      ],
      [
        "quasi",
        -8.240253530181294
      ],
      [
        "imperium",
        -8.242387801178246
      ],
      [
        "loco",
        -8.243783543867494
      ],
      [
        "ullus",
        -8.244176209071252
      ],
      [
        "malum",
        -8.244403171798012
      ],
      [
        "serui",
        -8.24703353672218
      ],
      [
        "cito",
        -8.247907927708642
      ],
      [
        "gloria",
        -8.248711322350363
      ],
      [
        "laud",
        -8.249692951891028
      ],
      [
        "annus",
        -8.250358092996866
      ],
      [
        "modi",
        -8.250479618728317
      ],
      [
        "puta",
        -8.25150705040107
      ],
      [
        "uas",
        -8.256338549618718
      ],
      [
        "stru",
        -8.258278248044597
      ],
      [
        "omnibus",
        -8.258922388645853
      ],
      [
        "cern",
        -8.259221553331212
      ],
      [
        "fides",
        -8.260290129189766
      ],
      [
        "magna",
        -8.260653390851349
      ],
      [
        "mari",
        -8.263491514264288
      ],
      [
        "periculum",
        -8.263726800659029
      ],
      [
        "redi",
        -8.264048947659376
      ],
      [
        "omnes",
        -8.264067304348954
      ],
      [
        "uerto",
        -8.264244924037309
      ],
      [
        "entem",
        -8.264296923013031
      ],
      [
        "tionem",
        -8.271395662301089
      ],
      [
        "mini",
        -8.271443263103555
      ],
      [
        "mare",
        -8.272009207201702
      ],
      [
        "sententia",
        -8.272384659134534
      ],
      [
        "unc",
        -8.272723406505104
      ],
      [
        "fun",
        -8.279696097493538
      ],
      [
        "gen",
        -8.280911832326396
      ],
      [
        "fur",
        -8.28187710416525
      ],
      [
        "uesti",
        -8.283148425807966
      ],
      [
        "primo",
        -8.287245971857036
      ],
      [
        "modus",
        -8.287688826585049
      ],
      [
        "fama",
        -8.288341700997888
      ],
      [
        "teneo",
        -8.289682472236942
      ],
      [
        "natus",
        -8.291133019816105
      ],
      [
        "illum",
        -8.291146703895802
      ],
      [
        "unda",
        -8.291865653127976
      ],
      [
        "erro",
        -8.291906061162459
      ],
      [
        "metu",
        -8.295001680835208
      ],
      [
        "lib",
        -8.296418937028445
      ],
      [
        "adeo",
        -8.297017049425023
      ],
      [
        "multo",
        -8.297774636185931
      ],
      [
        "nulla",
        -8.29869690194038
      ],
      [
        "posse",
        -8.298962275062571
      ],
      [
        "crimen",
        -8.300158856226325
      ],
      [
        "multum",
        -8.300558659348402
      ],
      [
        "uerbum",
        -8.301671233582507
      ],
      [
        "nostri",
        -8.302728329136102
      ],
      [
        "antur",
        -8.303965355352801
      ],
      [
        "mortali",
        -8.305575592376137
      ],
      [
        "uinco",
        -8.309123375268681
      ],
      [
        "leg",
        -8.310040768506608
      ],
      [
        "hae",
        -8.310903790848544
      ],
      [
        "male",
        -8.312190340938912
      ],
      [
        "cula",
        -8.313224559444485
      ],
      [
        "leo",
        -8.315891928641495
      ],
      [
        "grauis",
        -8.316682740324852
      ],
      [
        "lati",
        -8.32180647127048
      ],
      [
        "haud",
        -8.329567958324859
      ],
      [
        "relinquo",
        -8.330893856428917
      ],
      [
        "menti",
        -8.330969192930763
      ],
      [
        "deni",
        -8.332106209875153
      ],
      [
        "capio",
        -8.332222166884797
      ],
      [
        "rep",
        -8.332564163740289
      ],
      [
        "ndus",
        -8.333966258089976
      ],
      [
        "ciuis",
        -8.33556770376782
      ],
      [
        "gener",
        -8.336409993626557
      ],
      [
        "inquio",
        -8.343700546515038
      ],
      [
        "lar",
        -8.344964848213419
      ],
      [
        "quoniam",
        -8.345607434964553
      ],
      [
        "nobis",
        -8.348130958190016
      ],
      [
        "eques",
        -8.348520926375777
      ],
      [
        "endo",
        -8.349871930900076
      ],
      [
        "gero",
        -8.35040637094382
      ],
      [
        "ria",
        -8.351914357873497
      ],
      [
        "rius",
        -8.353877468821777
      ],
      [
        "olli",
        -8.357039081717108
      ],
      [
        "hor",
        -8.357780040451935
      ],
      [
        "siue",
        -8.359482835730695
      ],
      [
        "uetus",
        -8.361547744580157
      ],
      [
        "iudex",
        -8.362672373896821
      ],
      [
        "potius",
        -8.365012102473427
      ],
      [
        "uisse",
        -8.365396328861742
      ],
      [
        "ora",
        -8.371961737166817
      ],
      [
        "firm",
        -8.373339777602581
      ],
      [
        "poena",
        -8.374230021189241
      ],
      [
        "bant",
        -8.382375357311723
      ],
      [
        "ibi",
        -8.386243592826496
      ],
      [
        "hac",
        -8.387869279133174
      ],
      [
        "auri",
        -8.388425894117606
      ],
      [
        "debe",
        -8.389187125421033
      ],
      [
        "specta",
        -8.390589760450329
      ],
      [
        "ferre",
        -8.390866002894995
      ],
      [
        "certus",
        -8.39123765869222
      ],
      [
        "fuisse",
        -8.397184767017496
      ],
      [
        "boni",
        -8.398117954067995
      ],
      [
        "ager",
        -8.404834950354086
      ],
      [
        "bantur",
        -8.405752903843668
      ],
      [
        "patria",
        -8.40717025285033
      ],
      [
        "princeps",
        -8.415691864988672
      ],
      [
        "cu",
        -8.416835715223804
      ],
      [
        "esco",
        -8.418412508239633
      ],
      [
        "ceteru",
        -8.422117463574487
      ],
      [
        "ang",
        -8.424143977001837
      ],
      [
        "erent",
        -8.425023887948134
      ],
      [
        "lice",
        -8.425512758598673
      ],
      [
        "summa",
        -8.428541168146872
      ],
      [
        "uentus",
        -8.428828858922571
      ],
      [
        "nouus",
        -8.431022058377327
      ],
      [
        "audeo",
        -8.431368889905851
      ],
      [
        "filius",
        -8.433880771089154
      ],
      [
        "fuga",
        -8.435256699286684
      ],
      [
        "scelus",
        -8.435917756550694
      ],
      [
        "界ne",
        -8.436942714328927
      ],
      [
        "uersa",
        -8.43849984348141
      ],
      [
        "uox",
        -8.439894164136227
      ],
      [
        "ista",
        -8.442310675926219
      ],
      [
        "pello",
        -8.442441987078904
      ],
      [
        "fugio",
        -8.451280067950316
      ],
      [
        "ideo",
        -8.451324628207555
      ],
      [
        "uester",
        -8.451435263227076
      ],
      [
        "rup",
        -8.452115102795979
      ],
      [
        "imperator",
        -8.452643311970192
      ],
      [
        "inde",
        -8.45397106314128
      ],
      [
        "bul",
        -8.454288100947167
      ],
      [
        "omnium",
        -8.455924183932527
      ],
      [
        "icus",
        -8.456297895348614
      ],
      [
        "mons",
        -8.457537277824139
      ],
      [
        "pect",
        -8.457931948209104
      ],
      [
        "talis",
        -8.458623022322392
      ],
      [
        "dicere",
        -8.46020381184416
      ],
      [
        "endum",
        -8.460345238830476
      ],
      [
        "littera",
        -8.460686691577747
      ],
      [
        "spes",
        -8.461532361113917
      ],
      [
        "illud",
        -8.462684902122191
      ],
      [
        "gem",
        -8.46285376313499
      ],
      [
        "traho",
        -8.463379659463243
      ],
      [
        "uiuo",
        -8.463868369884672
      ],
      [
        "turba",
        -8.465427166747867
      ],
      [
        "rebus",
        -8.465510426600131
      ],
      [
        "late",
        -8.466098092114578
      ],
      [
        "uix",
        -8.469897236732752
      ],
      [
        "entis",
        -8.473751339442286
      ],
      [
        "ly",
        -8.474145379409151
      ],
      [
        "romani",
        -8.474259144829473
      ],
      [
        "ratione",
        -8.475774123765799
      ],
      [
        "ciui",
        -8.476019266767732
      ],
      [
        "ilia",
        -8.47631784049722
      ],
      [
        "patr",
        -8.482420302407409
      ],
      [
        "pati",
        -8.484629535771226
      ],
      [
        "uenit",
        -8.485606045983364
      ],
      [
        "genti",
        -8.48664159029051
      ],
      [
        "forte",
        -8.487774129171436
      ],
      [
        "rig",
        -8.488277199952677
      ],
      [
        "cy",
        -8.488542460253786
      ],
      [
        "domi",
        -8.490221681081556
      ],
      [
        "esset",
        -8.490571749504507
      ],
      [
        "lege",
        -8.490731111282418
      ],
      [
        "menta",
        -8.492110019387042
      ],
      [
        "mina",
        -8.493438246934113
      ],
      [
        "maior",
        -8.495425970382367
      ],
      [
        "1",
        -8.498008967457004
      ],
      [
        "bilis",
        -8.499708759648248
      ],
      [
        "uiri",
        -8.502837921138433
      ],
      [
        "alis",
        -8.503494301476396
      ],
      [
        "facie",
        -8.504084567714003
      ],
      [
        "paruus",
        -8.506439621054387
      ],
      [
        "lla",
        -8.507260571261414
      ],
      [
        "muni",
        -8.508910322276492
      ],
      [
        "parti",
        -8.510544259183561
      ],
      [
        "hanc",
        -8.510985523174774
      ],
      [
        "hunc",
        -8.51236913329408
      ],
      [
        "fortis",
        -8.515301776573155
      ],
      [
        "caelum",
        -8.515328039784842
      ],
      [
        "ntur",
        -8.515428152058206
      ],
      [
        "uoca",
        -8.517724281124353
      ],
      [
        "pectus",
        -8.521329500834906
      ],
      [
        "dare",
        -8.52568197780116
      ],
      [
        "const",
        -8.526590511229102
      ],
      [
        "umquam",
        -8.526714141731446
      ],
      [
        "exter",
        -8.526753837853903
      ],
      [
        "nibus",
        -8.530173748329245
      ],
      [
        "pler",
        -8.530776288262054
      ],
      [
        "frater",
        -8.531239841474722
      ],
      [
        "orti",
        -8.537730205742928
      ],
      [
        "nostra",
        -8.540798740422726
      ],
      [
        "loquor",
        -8.541301078760947
      ],
      [
        "fugi",
        -8.542403796117068
      ],
      [
        "usque",
        -8.544257467527306
      ],
      [
        "ceteri",
        -8.544281040232729
      ],
      [
        "memoria",
        -8.545189956602641
      ],
      [
        "llus",
        -8.545204295951443
      ],
      [
        "manu",
        -8.545216516812392
      ],
      [
        "imperi",
        -8.549654092062326
      ],
      [
        "aetas",
        -8.550747291885553
      ],
      [
        "eni",
        -8.55197307170931
      ],
      [
        "aduersus",
        -8.553439120304319
      ],
      [
        "auctor",
        -8.554372529410148
      ],
      [
        "gens",
        -8.55757367195916
      ],
      [
        "amicitia",
        -8.559966629173344
      ],
      [
        "ilium",
        -8.560233123508208
      ],
      [
        "facere",
        -8.561144084650653
      ],
      [
        "occup",
        -8.562756928844989
      ],
      [
        "accus",
        -8.562923914000244
      ],
      [
        "uxor",
        -8.564077998484745
      ],
      [
        "dignus",
        -8.566483429216012
      ],
      [
        "tollo",
        -8.567291983850078
      ],
      [
        "ebant",
        -8.567846513411705
      ],
      [
        "uerunt",
        -8.5686411298755
      ],
      [
        "certe",
        -8.568673573220856
      ],
      [
        "ndam",
        -8.569918032138716
      ],
      [
        "facile",
        -8.572038756539353
      ],
      [
        "uterque",
        -8.572758122429807
      ],
      [
        "dens",
        -8.573313374329626
      ],
      [
        "refero",
        -8.573359335396587
      ],
      [
        "mora",
        -8.573610880666184
      ],
      [
        "fide",
        -8.57373275493238
      ],
      [
        "reddo",
        -8.574270123186622
      ],
      [
        "equus",
        -8.57450632720067
      ],
      [
        "iudici",
        -8.57483293200848
      ],
      [
        "sentio",
        -8.57497115565041
      ],
      [
        "prope",
        -8.575505424273226
      ],
      [
        "ilius",
        -8.57628157605136
      ],
      [
        "soleo",
        -8.576720036581174
      ],
      [
        "uari",
        -8.581250300525795
      ],
      [
        "cumque",
        -8.58258641358192
      ],
      [
        "ente",
        -8.584369655178822
      ],
      [
        "ulum",
        -8.584820009459314
      ],
      [
        "rogo",
        -8.585726151436308
      ],
      [
        "uert",
        -8.586689912205193
      ],
      [
        "uale",
        -8.58677534806214
      ],
      [
        "credi",
        -8.587722542591187
      ],
      [
        "oculus",
        -8.589412946908485
      ],
      [
        "ntibus",
        -8.590305524711805
      ],
      [
        "clam",
        -8.590926014424333
      ],
      [
        "animi",
        -8.591454437955775
      ],
      [
        "factum",
        -8.591634334277671
      ],
      [
        "belli",
        -8.59727332561729
      ],
      [
        "aqua",
        -8.605788602815439
      ],
      [
        "metus",
        -8.606705745998703
      ],
      [
        "consili",
        -8.60741937741391
      ],
      [
        "immo",
        -8.608053354931783
      ],
      [
        "quorum",
        -8.608472568166743
      ],
      [
        "utor",
        -8.611870741983747
      ],
      [
        "mul",
        -8.61327684721242
      ],
      [
        "circ",
        -8.613472131350441
      ],
      [
        "patri",
        -8.614320206031405
      ],
      [
        "solus",
        -8.615615316394404
      ],
      [
        "senti",
        -8.615906525883984
      ],
      [
        "conci",
        -8.616434502065253
      ],
      [
        "gul",
        -8.616580972832132
      ],
      [
        "tunc",
        -8.619183544507287
      ],
      [
        "auit",
        -8.619743787663058
      ],
      [
        "hercule",
        -8.623058447815335
      ],
      [
        "tanta",
        -8.623991351382411
      ],
      [
        "habet",
        -8.624415174847146
      ],
      [
        "rentur",
        -8.625781911147975
      ],
      [
        "longe",
        -8.625991698876978
      ],
      [
        "pha",
        -8.629195347958966
      ],
      [
        "praeterea",
        -8.630143740933036
      ],
      [
        "habere",
        -8.630826319339082
      ],
      [
        "sceler",
        -8.631919580072267
      ],
      [
        "portet",
        -8.633396192444039
      ],
      [
        "gredior",
        -8.634826070226367
      ],
      [
        "regnum",
        -8.637066885519776
      ],
      [
        "bile",
        -8.638019266570332
      ],
      [
        "cognosco",
        -8.63961397559898
      ],
      [
        "soluo",
        -8.641680923390988
      ],
      [
        "uidi",
        -8.641861062107125
      ],
      [
        "inquit",
        -8.642337600666526
      ],
      [
        "prius",
        -8.644178284014584
      ],
      [
        "ulla",
        -8.644931972466722
      ],
      [
        "latus",
        -8.646389321721866
      ],
      [
        "cunct",
        -8.646390136844943
      ],
      [
        "ulti",
        -8.64809387334501
      ],
      [
        "lux",
        -8.653426310151433
      ],
      [
        "issima",
        -8.656173200475848
      ],
      [
        "sermo",
        -8.656176117668334
      ],
      [
        "religio",
        -8.656694580663899
      ],
      [
        "rerum",
        -8.656793438213015
      ],
      [
        "tulit",
        -8.656856474353837
      ],
      [
        "ribus",
        -8.657386168945981
      ],
      [
        "rap",
        -8.658744966743786
      ],
      [
        "omne",
        -8.660751441346122
      ],
      [
        "studium",
        -8.663972999050134
      ],
      [
        "finis",
        -8.66561468008625
      ],
      [
        "entibus",
        -8.669040676623462
      ],
      [
        "eris",
        -8.6703517097375
      ],
      [
        "rumpo",
        -8.671470945906675
      ],
      [
        "gratus",
        -8.67212509718589
      ],
      [
        "nauis",
        -8.672303246791875
      ],
      [
        "flu",
        -8.672856932117142
      ],
      [
        "puella",
        -8.675083302113602
      ],
      [
        "pond",
        -8.67525384053613
      ],
      [
        "patior",
        -8.676040511910776
      ],
      [
        "rog",
        -8.676156312379259
      ],
      [
        "gaius",
        -8.67742060886992
      ],
      [
        "scipio",
        -8.67833777895334
      ],
      [
        "ox",
        -8.68046806455991
      ],
      [
        "q",
        -8.681659040001232
      ],
      [
        "signum",
        -8.686478203620545
      ],
      [
        "quare",
        -8.688081258731717
      ],
      [
        "pedi",
        -8.689508430471609
      ],
      [
        "qualis",
        -8.690534904146991
      ],
      [
        "age",
        -8.690857925319353
      ],
      [
        "laudo",
        -8.691196002184789
      ],
      [
        "cius",
        -8.693163533091344
      ],
      [
        "opera",
        -8.693445482814692
      ],
      [
        "posc",
        -8.695196681671408
      ],
      [
        "uber",
        -8.696990981509916
      ],
      [
        "dent",
        -8.697830810428862
      ],
      [
        "umque",
        -8.69847301397678
      ],
      [
        "necesse",
        -8.699290926354184
      ],
      [
        "entes",
        -8.699766621704672
      ],
      [
        "anima",
        -8.70054281112914
      ],
      [
        "seru",
        -8.701178146536376
      ],
      [
        "uener",
        -8.701918178539625
      ],
      [
        "uictor",
        -8.703158826526742
      ],
      [
        "mone",
        -8.706648590898423
      ],
      [
        "iudico",
        -8.709609527277529
      ],
      [
        "paro",
        -8.709656471939319
      ],
      [
        "oppidum",
        -8.710380479880891
      ],
      [
        "dixi",
        -8.710848741464904
      ],
      [
        "italia",
        -8.711420887543845
      ],
      [
        "sisto",
        -8.711769955591599
      ],
      [
        "quemadmodum",
        -8.712503457416851
      ],
      [
        "timeo",
        -8.71308478946302
      ],
      [
        "germani",
        -8.71346270786038
      ],
      [
        "cessit",
        -8.713922044663898
      ],
      [
        "longus",
        -8.714636550304895
      ],
      [
        "postea",
        -8.716482038538683
      ],
      [
        "plan",
        -8.71774920182376
      ],
      [
        "iube",
        -8.71984776664392
      ],
      [
        "natio",
        -8.72100336535798
      ],
      [
        "agit",
        -8.72195080324077
      ],
      [
        "memor",
        -8.724101343495178
      ],
      [
        "forma",
        -8.724746576030329
      ],
      [
        "graui",
        -8.725068129500148
      ],
      [
        "populi",
        -8.725400493482788
      ],
      [
        "dubi",
        -8.726728874834851
      ],
      [
        "illis",
        -8.727819981824616
      ],
      [
        "serua",
        -8.7313188853402
      ],
      [
        "uall",
        -8.735666322000469
      ],
      [
        "laus",
        -8.736346872846813
      ],
      [
        "ges",
        -8.736837256485128
      ],
      [
        "similis",
        -8.739385186188091
      ],
      [
        "ueter",
        -8.741135619120264
      ],
      [
        "fall",
        -8.74125576688737
      ],
      [
        "ipso",
        -8.745883111461996
      ],
      [
        "ingens",
        -8.747280691404574
      ],
      [
        "iuppiter",
        -8.749323559689065
      ],
      [
        "unum",
        -8.753651116952863
      ],
      [
        "ictus",
        -8.75528620683653
      ],
      [
        "assum",
        -8.757078885153526
      ],
      [
        "malus",
        -8.759355161822326
      ],
      [
        "utrum",
        -8.759982070606917
      ],
      [
        "hominum",
        -8.76042722969188
      ],
      [
        "arbitr",
        -8.764203366224722
      ],
      [
        "optim",
        -8.764760737912274
      ],
      [
        "homini",
        -8.766360969805792
      ],
      [
        "praeda",
        -8.767783187251407
      ],
      [
        "litus",
        -8.768437751510067
      ],
      [
        "malo",
        -8.768607489576798
      ],
      [
        "molli",
        -8.769093727811764
      ],
      [
        "salus",
        -8.770103613498629
      ],
      [
        "felix",
        -8.770511597239743
      ],
      [
        "legatus",
        -8.771762124690623
      ],
      [
        "uerat",
        -8.772704342255967
      ],
      [
        "pompeius",
        -8.774987895932135
      ],
      [
        "coepio",
        -8.775170428899344
      ],
      [
        "homines",
        -8.775268837999583
      ],
      [
        "dedit",
        -8.775591101823935
      ],
      [
        "huius",
        -8.777696238921502
      ],
      [
        "quando",
        -8.778607033904162
      ],
      [
        "tract",
        -8.780231050033446
      ],
      [
        "eorum",
        -8.78171630420028
      ],
      [
        "senatu",
        -8.78391006264047
      ],
      [
        "arti",
        -8.784069691593245
      ],
      [
        "ordo",
        -8.78427566057777
      ],
      [
        "ingenium",
        -8.784287245277362
      ],
      [
        "extra",
        -8.785797590052878
      ],
      [
        "pax",
        -8.786033481861736
      ],
      [
        "seruus",
        -8.78725290419995
      ],
      [
        "parte",
        -8.788783052560124
      ],
      [
        "interim",
        -8.789435693330233
      ],
      [
        "mane",
        -8.789919769343552
      ],
      [
        "prehend",
        -8.791017298596543
      ],
      [
        "retine",
        -8.791802989818024
      ],
      [
        "dictum",
        -8.792143553523307
      ],
      [
        "leuis",
        -8.792333647925597
      ],
      [
        "quas",
        -8.79290896079369
      ],
      [
        "cogo",
        -8.794151887270573
      ],
      [
        "principi",
        -8.797141166899817
      ],
      [
        "pauci",
        -8.79924022236952
      ],
      [
        "ipsum",
        -8.802855593983804
      ],
      [
        "pluri",
        -8.805017746898091
      ],
      [
        "fera",
        -8.805463574119784
      ],
      [
        "officium",
        -8.806186904734275
      ],
      [
        "familia",
        -8.806513496366751
      ],
      [
        "numerus",
        -8.807649598997777
      ],
      [
        "itium",
        -8.80914099647138
      ],
      [
        "fundo",
        -8.809183169933238
      ],
      [
        "acies",
        -8.809762412253214
      ],
      [
        "ensis",
        -8.810102983575756
      ],
      [
        "nescio",
        -8.811349626493028
      ],
      [
        "bello",
        -8.811935091494725
      ],
      [
        "uulg",
        -8.813189867577597
      ],
      [
        "acta",
        -8.814248186818528
      ],
      [
        "reipublicae",
        -8.816629993175312
      ],
      [
        "uersus",
        -8.817472732431876
      ],
      [
        "cupid",
        -8.81890420579419
      ],
      [
        "moue",
        -8.81958841132073
      ],
      [
        "alio",
        -8.820936014844516
      ],
      [
        "bili",
        -8.821448883982885
      ],
      [
        "breui",
        -8.821803551724704
      ],
      [
        "proelium",
        -8.822566616258362
      ],
      [
        "merc",
        -8.82346210829786
      ],
      [
        "uitium",
        -8.825989805126135
      ],
      [
        "onem",
        -8.82726928833139
      ],
      [
        "aure",
        -8.82743077947972
      ],
      [
        "oratio",
        -8.828065232218538
      ],
      [
        "abilis",
        -8.830362929223181
      ],
      [
        "geni",
        -8.831402818055327
      ],
      [
        "ordin",
        -8.831884644667433
      ],
      [
        "uobis",
        -8.83199848744076
      ],
      [
        "igne",
        -8.832638405475183
      ],
      [
        "procul",
        -8.832696079349986
      ],
      [
        "liquid",
        -8.832933006197731
      ],
      [
        "niti",
        -8.833529846049966
      ],
      [
        "decim",
        -8.83392807770117
      ],
      [
        "argu",
        -8.834102669490719
      ],
      [
        "contine",
        -8.834107279018657
      ],
      [
        "entur",
        -8.83413869571394
      ],
      [
        "z",
        -8.834481174631609
      ],
      [
        "auctoritas",
        -8.834646617143212
      ],
      [
        "altus",
        -8.835397718540964
      ],
      [
        "ced",
        -8.835785558486787
      ],
      [
        "parens",
        -8.836709584301428
      ],
      [
        "lecto",
        -8.837671052622806
      ],
      [
        "acto",
        -8.838481472156367
      ],
      [
        "edit",
        -8.839068195764987
      ],
      [
        "fecer",
        -8.839957259179108
      ],
      [
        "sapiens",
        -8.841718288552512
      ],
      [
        "priu",
        -8.842323067448527
      ],
      [
        "defendo",
        -8.842974861154758
      ],
      [
        "prior",
        -8.844616567834414
      ],
      [
        "ilio",
        -8.845082596714715
      ],
      [
        "mille",
        -8.845171805225599
      ],
      [
        "eadem",
        -8.845263463744026
      ],
      [
        "statim",
        -8.845561593959957
      ],
      [
        "nosco",
        -8.846146904572478
      ],
      [
        "alexand",
        -8.847793327103131
      ],
      [
        "suum",
        -8.848542002214256
      ],
      [
        "occul",
        -8.85043337376364
      ],
      [
        "anni",
        -8.850774535079191
      ],
      [
        "iudices",
        -8.854746849934525
      ],
      [
        "intelligo",
        -8.855112973712092
      ],
      [
        "prima",
        -8.85517921217577
      ],
      [
        "medius",
        -8.857714855437251
      ],
      [
        "cetera",
        -8.858093490289473
      ],
      [
        "ops",
        -8.858334030160837
      ],
      [
        "magno",
        -8.858910017343497
      ],
      [
        "uictoria",
        -8.859116383811319
      ],
      [
        "tandem",
        -8.860173786366342
      ],
      [
        "aurum",
        -8.861425407749714
      ],
      [
        "deser",
        -8.86389397738303
      ],
      [
        "flamma",
        -8.863906228607952
      ],
      [
        "lacrima",
        -8.864998619168976
      ],
      [
        "ruo",
        -8.86596996439723
      ],
      [
        "quantus",
        -8.866259913140894
      ],
      [
        "certa",
        -8.867013800882752
      ],
      [
        "quomodo",
        -8.867510981713036
      ],
      [
        "uirtute",
        -8.87074160385824
      ],
      [
        "porta",
        -8.870767313150491
      ],
      [
        "surg",
        -8.871009215883186
      ],
      [
        "ualeo",
        -8.872493887561866
      ],
      [
        "nero",
        -8.87292688332408
      ],
      [
        "iudica",
        -8.874010716288453
      ],
      [
        "probo",
        -8.874461357911695
      ],
      [
        "sanguis",
        -8.880077963393937
      ],
      [
        "titi",
        -8.88220743136905
      ],
      [
        "silua",
        -8.883590957130085
      ],
      [
        "aliquando",
        -8.888818468560181
      ],
      [
        "pate",
        -8.890136627003574
      ],
      [
        "uelut",
        -8.890464974723637
      ],
      [
        "telum",
        -8.891230251826872
      ],
      [
        "ntium",
        -8.893908017335542
      ],
      [
        "uoce",
        -8.89477402268788
      ],
      [
        "institu",
        -8.89779730326984
      ],
      [
        "morte",
        -8.898552618761276
      ],
      [
        "praesidium",
        -8.898986246655461
      ],
      [
        "rursus",
        -8.900315324762847
      ],
      [
        "impedi",
        -8.901177578480958
      ],
      [
        "quanto",
        -8.901609905444403
      ],
      [
        "pecu",
        -8.902217172752676
      ],
      [
        "flagit",
        -8.903630301773521
      ],
      [
        "facta",
        -8.903836072605435
      ],
      [
        "item",
        -8.90578156276192
      ],
      [
        "constitu",
        -8.906233059984547
      ],
      [
        "nota",
        -8.906732349127797
      ],
      [
        "inuidia",
        -8.907098413371905
      ],
      [
        "existimo",
        -8.908012902615159
      ],
      [
        "pertine",
        -8.909163640033364
      ],
      [
        "uoluptas",
        -8.909283507955465
      ],
      [
        "sup",
        -8.909471759839866
      ],
      [
        "tendo",
        -8.91012594859904
      ],
      [
        "recipio",
        -8.910897375024602
      ],
      [
        "ludo",
        -8.912041363101121
      ],
      [
        "classi",
        -8.912134671850897
      ],
      [
        "agi",
        -8.912777664614376
      ],
      [
        "gallia",
        -8.914011685841963
      ],
      [
        "socius",
        -8.914108459668245
      ],
      [
        "cant",
        -8.914369883373478
      ],
      [
        "flumen",
        -8.915116729746092
      ],
      [
        "lucius",
        -8.918628571765122
      ],
      [
        "numero",
        -8.921007178225896
      ],
      [
        "acri",
        -8.92130473620752
      ],
      [
        "exit",
        -8.921402847922478
      ],
      [
        "uelle",
        -8.921447330352953
      ],
      [
        "bona",
        -8.921794128613126
      ],
      [
        "maiores",
        -8.922603896917735
      ],
      [
        "colo",
        -8.924809236306078
      ],
      [
        "quipp",
        -8.927825928956402
      ],
      [
        "capit",
        -8.929382819891327
      ],
      [
        "ntem",
        -8.930088254605241
      ],
      [
        "mand",
        -8.930120497450794
      ],
      [
        "potestas",
        -8.930846545948551
      ],
      [
        "orna",
        -8.931189625653442
      ],
      [
        "cursus",
        -8.933284851749718
      ],
      [
        "magni",
        -8.935577000779897
      ],
      [
        "iungo",
        -8.935610172997679
      ],
      [
        "iura",
        -8.936731441579738
      ],
      [
        "issimo",
        -8.939944926988986
      ],
      [
        "issimum",
        -8.942861576631145
      ],
      [
        "uultus",
        -8.94291047154297
      ],
      [
        "casus",
        -8.943892154645468
      ],
      [
        "signa",
        -8.945100882888152
      ],
      [
        "defend",
        -8.946171602793868
      ],
      [
        "more",
        -8.946421216146316
      ],
      [
        "fieri",
        -8.946536954582093
      ],
      [
        "eodem",
        -8.948164438752844
      ],
      [
        "ferrum",
        -8.950022443732475
      ],
      [
        "urbi",
        -8.950562581784618
      ],
      [
        "issimi",
        -8.95067457677728
      ],
      [
        "nobilis",
        -8.952000560360789
      ],
      [
        "fug",
        -8.95272362977131
      ],
      [
        "propior",
        -8.956026982859392
      ],
      [
        "pudor",
        -8.956240575794094
      ],
      [
        "moles",
        -8.958516689863226
      ],
      [
        "accid",
        -8.959851683672369
      ],
      [
        "quicumque",
        -8.963194752639401
      ],
      [
        "igni",
        -8.964596847660992
      ],
      [
        "auge",
        -8.964834118190549
      ],
      [
        "missi",
        -8.965444661102712
      ],
      [
        "asper",
        -8.965867714608278
      ],
      [
        "reliqui",
        -8.96588456713053
      ],
      [
        "maxime",
        -8.970676121356682
      ],
      [
        "crimin",
        -8.970793043374698
      ],
      [
        "impl",
        -8.970984283528166
      ],
      [
        "nascor",
        -8.972227853713047
      ],
      [
        "tiberi",
        -8.973472233618772
      ],
      [
        "actus",
        -8.974815631845514
      ],
      [
        "timor",
        -8.97535497570377
      ],
      [
        "uigil",
        -8.975440758491441
      ],
      [
        "illic",
        -8.976071971402158
      ],
      [
        "populo",
        -8.976324476894725
      ],
      [
        "amus",
        -8.978345204215536
      ],
      [
        "lego",
        -8.978659003169081
      ],
      [
        "placeo",
        -8.979146902635733
      ],
      [
        "auxilium",
        -8.979664066857188
      ],
      [
        "nego",
        -8.980022998056715
      ],
      [
        "umbra",
        -8.980233726275785
      ],
      [
        "dignitas",
        -8.980358154529988
      ],
      [
        "aeque",
        -8.980427540795636
      ],
      [
        "existima",
        -8.980704331664263
      ],
      [
        "mira",
        -8.98081902925415
      ],
      [
        "tyr",
        -8.980959615048477
      ],
      [
        "tento",
        -8.981427459919052
      ],
      [
        "rigo",
        -8.981541192959472
      ],
      [
        "maneo",
        -8.981564541858749
      ],
      [
        "arbitror",
        -8.982378347500276
      ],
      [
        "possit",
        -8.9832541538425
      ],
      [
        "nolo",
        -8.984340167847538
      ],
      [
        "libertas",
        -8.984821936346588
      ],
      [
        "pan",
        -8.98503704409287
      ],
      [
        "formi",
        -8.985893491738315
      ],
      [
        "testis",
        -8.988862923785788
      ],
      [
        "mulier",
        -8.989532224050697
      ],
      [
        "motus",
        -8.990892872120314
      ],
      [
        "nondum",
        -8.990995160805818
      ],
      [
        "fecit",
        -8.99174974841246
      ],
      [
        "paulo",
        -8.993079228456125
      ],
      [
        "aura",
        -8.995970263756163
      ],
      [
        "tener",
        -8.998106367639622
      ],
      [
        "curro",
        -8.999306635387358
      ],
      [
        "animum",
        -9.000908575735139
      ],
      [
        "bella",
        -9.001213699926552
      ],
      [
        "senex",
        -9.002213811417148
      ],
      [
        "intro",
        -9.003250693546068
      ],
      [
        "facit",
        -9.005199462305802
      ],
      [
        "clarus",
        -9.005258238467885
      ],
      [
        "publicus",
        -9.005693490055055
      ],
      [
        "marcus",
        -9.006218123117224
      ],
      [
        "nostro",
        -9.006566411019163
      ],
      [
        "nocte",
        -9.007508835424392
      ],
      [
        "dominus",
        -9.00944730080181
      ],
      [
        "intelleg",
        -9.009981366902398
      ],
      [
        "prohibe",
        -9.01004947010619
      ],
      [
        "andi",
        -9.011092324415785
      ],
      [
        "muto",
        -9.011278811091382
      ],
      [
        "clamor",
        -9.011384331108458
      ],
      [
        "proba",
        -9.011991549504582
      ],
      [
        "soror",
        -9.01266578017401
      ],
      [
        "alienus",
        -9.013287791266794
      ],
      [
        "exercitu",
        -9.013480786188762
      ],
      [
        "agmen",
        -9.016905493187464
      ],
      [
        "rix",
        -9.017297677377082
      ],
      [
        "nium",
        -9.023512940864645
      ],
      [
        "nuntio",
        -9.02448924219794
      ],
      [
        "etiamsi",
        -9.026793012923022
      ],
      [
        "tanto",
        -9.030001900361164
      ],
      [
        "honestus",
        -9.030228938458738
      ],
      [
        "pugno",
        -9.035416901226123
      ],
      [
        "tabula",
        -9.03553621727918
      ],
      [
        "cogito",
        -9.037640903131337
      ],
      [
        "affero",
        -9.039017184677
      ],
      [
        "morior",
        -9.04166592051582
      ],
      [
        "ntis",
        -9.043911039136308
      ],
      [
        "turpis",
        -9.044144736947654
      ],
      [
        "sicilia",
        -9.045050544477872
      ],
      [
        "longi",
        -9.050230343038663
      ],
      [
        "exemplum",
        -9.055375305749035
      ],
      [
        "acced",
        -9.057578119251115
      ],
      [
        "seque",
        -9.057842655983622
      ],
      [
        "sicut",
        -9.058399375551986
      ],
      [
        "offici",
        -9.05906197752108
      ],
      [
        "noua",
        -9.059898022010238
      ],
      [
        "odium",
        -9.06014889711595
      ],
      [
        "redeo",
        -9.060764514353075
      ],
      [
        "mori",
        -9.061994951880605
      ],
      [
        "pecc",
        -9.063764186914174
      ],
      [
        "familiari",
        -9.063884042166265
      ],
      [
        "bas",
        -9.067094781887093
      ],
      [
        "celer",
        -9.070333703593386
      ],
      [
        "memini",
        -9.070971959978486
      ],
      [
        "rege",
        -9.071516648509617
      ],
      [
        "incipi",
        -9.0720749103441
      ],
      [
        "femina",
        -9.073962324512369
      ],
      [
        "uocat",
        -9.074609752360391
      ],
      [
        "minor",
        -9.074864734752719
      ],
      [
        "ilitas",
        -9.075783659659791
      ],
      [
        "romano",
        -9.076338758584203
      ],
      [
        "inimicus",
        -9.076704584739254
      ],
      [
        "finit",
        -9.077290117823534
      ],
      [
        "luctus",
        -9.078054780128168
      ],
      [
        "sensus",
        -9.078180504398286
      ],
      [
        "excipi",
        -9.079834537216442
      ],
      [
        "asse",
        -9.084439279416102
      ],
      [
        "constituo",
        -9.085942212617525
      ],
      [
        "trado",
        -9.088099607198572
      ],
      [
        "custodi",
        -9.09049730436377
      ],
      [
        "hodie",
        -9.090586993983013
      ],
      [
        "sustine",
        -9.092078316914261
      ],
      [
        "pauper",
        -9.092823508709275
      ],
      [
        "dilig",
        -9.096717013295951
      ],
      [
        "iuuenis",
        -9.096779650527566
      ],
      [
        "mali",
        -9.097293684175344
      ],
      [
        "tale",
        -9.102005589168108
      ],
      [
        "armis",
        -9.102731168129795
      ],
      [
        "suspicio",
        -9.103523009457792
      ],
      [
        "aliter",
        -9.104478070767101
      ],
      [
        "nub",
        -9.105572821558223
      ],
      [
        "nata",
        -9.106064804305676
      ],
      [
        "proxim",
        -9.106288421452788
      ],
      [
        "cena",
        -9.107183407590894
      ],
      [
        "uenti",
        -9.107815028901678
      ],
      [
        "hel",
        -9.10869901676365
      ],
      [
        "pompei",
        -9.110867096982616
      ],
      [
        "ciuitate",
        -9.11091093019658
      ],
      [
        "arbor",
        -9.111416816008777
      ],
      [
        "auus",
        -9.114008150153051
      ],
      [
        "aliud",
        -9.116118761680402
      ],
      [
        "furor",
        -9.116606808249106
      ],
      [
        "orbis",
        -9.117958138841697
      ],
      [
        "condicio",
        -9.118120914800173
      ],
      [
        "tristis",
        -9.118256675022852
      ],
      [
        "iuuo",
        -9.11947848078743
      ],
      [
        "uerba",
        -9.12148420122442
      ],
      [
        "cani",
        -9.12183329277623
      ],
      [
        "pereo",
        -9.12185365761955
      ],
      [
        "libet",
        -9.122709908101605
      ],
      [
        "cub",
        -9.123886110177384
      ],
      [
        "urbe",
        -9.12594167877511
      ],
      [
        "cato",
        -9.128453003422683
      ],
      [
        "locum",
        -9.129507536899407
      ],
      [
        "haben",
        -9.129551202534381
      ],
      [
        "respondeo",
        -9.133236787985915
      ],
      [
        "appar",
        -9.13454463827199
      ],
      [
        "cupio",
        -9.13472015606295
      ],
      [
        "miror",
        -9.135064735828722
      ],
      [
        "missa",
        -9.135587436196037
      ],
      [
        "ambi",
        -9.135808048983673
      ],
      [
        "界sum",
        -9.136053846132047
      ],
      [
        "iaceo",
        -9.138026518327225
      ],
      [
        "poni",
        -9.13838366499645
      ],
      [
        "supra",
        -9.139095650065222
      ],
      [
        "clau",
        -9.139389793786297
      ],
      [
        "ueh",
        -9.146627415757237
      ],
      [
        "mittere",
        -9.14948942033585
      ],
      [
        "primi",
        -9.149577067549963
      ],
      [
        "contemn",
        -9.150754064048279
      ],
      [
        "aestu",
        -9.151428440692492
      ],
      [
        "centi",
        -9.153045384173486
      ],
      [
        "iure",
        -9.15557317472523
      ],
      [
        "cado",
        -9.156159938640942
      ],
      [
        "loca",
        -9.157036521161025
      ],
      [
        "contend",
        -9.157092509254095
      ],
      [
        "tuler",
        -9.158363190348433
      ],
      [
        "occurr",
        -9.158842927582917
      ],
      [
        "quotiens",
        -9.159503414573233
      ],
      [
        "praesto",
        -9.159828962807293
      ],
      [
        "crudeli",
        -9.161131138129862
      ],
      [
        "antonius",
        -9.161688548741193
      ],
      [
        "continu",
        -9.165159349850144
      ],
      [
        "nomine",
        -9.166652789959496
      ],
      [
        "doceo",
        -9.166746583859222
      ],
      [
        "petit",
        -9.167694700635536
      ],
      [
        "precor",
        -9.170509190753657
      ],
      [
        "paucus",
        -9.171368533413032
      ],
      [
        "stud",
        -9.17161186286446
      ],
      [
        "cogita",
        -9.17327686304364
      ],
      [
        "templum",
        -9.174639884554802
      ],
      [
        "eripio",
        -9.175729751579102
      ],
      [
        "ministr",
        -9.177255816225452
      ],
      [
        "loqu",
        -9.178506148261542
      ],
      [
        "medium",
        -9.178838527522451
      ],
      [
        "uulnus",
        -9.179647010050228
      ],
      [
        "periculo",
        -9.17971094979643
      ],
      [
        "specto",
        -9.179861049662122
      ],
      [
        "tribunus",
        -9.179871193368498
      ],
      [
        "spatium",
        -9.182095240547255
      ],
      [
        "quadr",
        -9.18222928048996
      ],
      [
        "alb",
        -9.182748948555911
      ],
      [
        "fatum",
        -9.183227354406363
      ],
      [
        "paen",
        -9.185397846048449
      ],
      [
        "laetus",
        -9.185896328721856
      ],
      [
        "publius",
        -9.186448411293414
      ],
      [
        "equitatu",
        -9.187932643571502
      ],
      [
        "uoluntas",
        -9.18817005912966
      ],
      [
        "gust",
        -9.191226592075349
      ],
      [
        "multitudo",
        -9.191654569973625
      ],
      [
        "consulatu",
        -9.19240961120189
      ],
      [
        "subito",
        -9.194123993157017
      ],
      [
        "africa",
        -9.19503926005704
      ],
      [
        "leni",
        -9.195419279425204
      ],
      [
        "galli",
        -9.195666193098885
      ],
      [
        "scientia",
        -9.196862445998029
      ],
      [
        "cunctus",
        -9.197202398419856
      ],
      [
        "uinci",
        -9.198058030685885
      ],
      [
        "asia",
        -9.198425117353363
      ],
      [
        "imit",
        -9.1990408493416
      ],
      [
        "olim",
        -9.199128988736497
      ],
      [
        "legati",
        -9.199471311836183
      ],
      [
        "trepid",
        -9.20167100107539
      ],
      [
        "praebe",
        -9.20267498341824
      ],
      [
        "dubito",
        -9.203415508493489
      ],
      [
        "hominem",
        -9.204050867991352
      ],
      [
        "domum",
        -9.204305512073443
      ],
      [
        "obsid",
        -9.204454188127265
      ],
      [
        "lumen",
        -9.2059831235108
      ],
      [
        "issime",
        -9.206485366404578
      ],
      [
        "domo",
        -9.206793630536701
      ],
      [
        "cohors",
        -9.207370741071736
      ],
      [
        "erint",
        -9.207978594634922
      ],
      [
        "filia",
        -9.209713883870693
      ],
      [
        "certo",
        -9.21107353914934
      ],
      [
        "lata",
        -9.211441820126993
      ],
      [
        "agri",
        -9.214612363355743
      ],
      [
        "lenti",
        -9.214623985951794
      ],
      [
        "stip",
        -9.217582903964335
      ],
      [
        "habeb",
        -9.218042750841311
      ],
      [
        "muta",
        -9.218816696623051
      ],
      [
        "misceo",
        -9.21948669811827
      ],
      [
        "ostendo",
        -9.219804777377576
      ],
      [
        "bib",
        -9.221208237673395
      ],
      [
        "senator",
        -9.221721047522298
      ],
      [
        "pariter",
        -9.22219080656344
      ],
      [
        "macedon",
        -9.22326159761528
      ],
      [
        "doct",
        -9.22617280533192
      ],
      [
        "caedes",
        -9.226222626592374
      ],
      [
        "sacra",
        -9.227763906693646
      ],
      [
        "incid",
        -9.228752649236387
      ],
      [
        "tela",
        -9.22917695012864
      ],
      [
        "peti",
        -9.231294912020171
      ],
      [
        "pretium",
        -9.23189981747424
      ],
      [
        "nauig",
        -9.231945361595145
      ],
      [
        "animal",
        -9.234156534115389
      ],
      [
        "uinum",
        -9.234314742386115
      ],
      [
        "dicam",
        -9.234381637962652
      ],
      [
        "semel",
        -9.235532962691671
      ],
      [
        "humanus",
        -9.235769386903915
      ],
      [
        "alli",
        -9.23680857273386
      ],
      [
        "culpa",
        -9.23822710990268
      ],
      [
        "place",
        -9.23875711377625
      ],
      [
        "potens",
        -9.240750747281574
      ],
      [
        "cornu",
        -9.24115519994816
      ],
      [
        "horre",
        -9.241476049773667
      ],
      [
        "diem",
        -9.241738550320273
      ],
      [
        "iucund",
        -9.242820540491119
      ],
      [
        "orior",
        -9.245975180808678
      ],
      [
        "otium",
        -9.246233031762324
      ],
      [
        "exspecto",
        -9.251162072122614
      ],
      [
        "tueor",
        -9.251489514469537
      ],
      [
        "frumentum",
        -9.251522093321684
      ],
      [
        "pedes",
        -9.25379389354903
      ],
      [
        "supplic",
        -9.255159288609498
      ],
      [
        "triumph",
        -9.257276966060711
      ],
      [
        "carmen",
        -9.257677668456157
      ],
      [
        "contio",
        -9.257684054757238
      ],
      [
        "restitu",
        -9.25779236922505
      ],
      [
        "domina",
        -9.260213105572426
      ],
      [
        "reliquus",
        -9.26088461935791
      ],
      [
        "sanguine",
        -9.260887512184059
      ],
      [
        "dicta",
        -9.26098718674713
      ],
      [
        "nomina",
        -9.262588905894521
      ],
      [
        "aequor",
        -9.262891360672896
      ],
      [
        "habitu",
        -9.263716842489238
      ],
      [
        "ample",
        -9.26401064210465
      ],
      [
        "tellus",
        -9.264218141737729
      ],
      [
        "enni",
        -9.266044088465133
      ],
      [
        "leui",
        -9.267305382125485
      ],
      [
        "mala",
        -9.267564650869144
      ],
      [
        "compl",
        -9.267649790247916
      ],
      [
        "barba",
        -9.267977663484544
      ],
      [
        "opto",
        -9.271182341906469
      ],
      [
        "queror",
        -9.271308330583498
      ],
      [
        "capti",
        -9.271821538290485
      ],
      [
        "accusator",
        -9.272385389598792
      ],
      [
        "graeci",
        -9.272469947580145
      ],
      [
        "undo",
        -9.272520589966408
      ],
      [
        "fortass",
        -9.272559151695184
      ],
      [
        "palam",
        -9.275160293776697
      ],
      [
        "ntes",
        -9.275493989037873
      ],
      [
        "senectu",
        -9.276396871185867
      ],
      [
        "insidia",
        -9.276441646604024
      ],
      [
        "plures",
        -9.278148627873342
      ],
      [
        "ioni",
        -9.27843680671513
      ],
      [
        "opta",
        -9.278773991921604
      ],
      [
        "rapio",
        -9.28046187643522
      ],
      [
        "enses",
        -9.281175706507646
      ],
      [
        "posteri",
        -9.28258745032101
      ],
      [
        "aufero",
        -9.283059518710212
      ],
      [
        "iones",
        -9.284178900020038
      ],
      [
        "mittit",
        -9.2856101285643
      ],
      [
        "lecta",
        -9.287510907335802
      ],
      [
        "nulli",
        -9.28836796152498
      ],
      [
        "uestra",
        -9.288411710173332
      ],
      [
        "ampli",
        -9.288588834586317
      ],
      [
        "lingua",
        -9.288874787744643
      ],
      [
        "species",
        -9.290768484683905
      ],
      [
        "egregi",
        -9.291357207843848
      ],
      [
        "界u",
        -9.291845493888879
      ],
      [
        "terreo",
        -9.293258078541493
      ],
      [
        "corpore",
        -9.294785802972655
      ],
      [
        "opinio",
        -9.29548395375424
      ],
      [
        "nullo",
        -9.296316314236265
      ],
      [
        "ertim",
        -9.297925185339924
      ],
      [
        "facinus",
        -9.298385891742452
      ],
      [
        "singulus",
        -9.298428313204926
      ],
      [
        "singula",
        -9.299448377754434
      ],
      [
        "appell",
        -9.302051023288492
      ],
      [
        "hostium",
        -9.302234777597572
      ],
      [
        "premo",
        -9.302960722604329
      ],
      [
        "exerce",
        -9.303158824184962
      ],
      [
        "cedere",
        -9.303553556811835
      ],
      [
        "lecti",
        -9.307602645215715
      ],
      [
        "dulci",
        -9.308296523413704
      ],
      [
        "pice",
        -9.30913423365929
      ],
      [
        "durus",
        -9.313706705314967
      ],
      [
        "nullum",
        -9.31377810357084
      ],
      [
        "bono",
        -9.31576954275388
      ],
      [
        "didit",
        -9.31614019077493
      ],
      [
        "utilis",
        -9.317992150083082
      ],
      [
        "concedo",
        -9.318711845717694
      ],
      [
        "lectus",
        -9.318930881890626
      ],
      [
        "nuper",
        -9.320524890634548
      ],
      [
        "noctu",
        -9.321244407381187
      ],
      [
        "gesta",
        -9.323500225621407
      ],
      [
        "flor",
        -9.324551605755182
      ],
      [
        "impero",
        -9.324958878281635
      ],
      [
        "ultra",
        -9.327868672116471
      ],
      [
        "mento",
        -9.32794016734642
      ],
      [
        "recte",
        -9.328030641684158
      ],
      [
        "negotium",
        -9.330195672838702
      ],
      [
        "bland",
        -9.330214927439208
      ],
      [
        "turpi",
        -9.330463781378441
      ],
      [
        "uerber",
        -9.338079161878335
      ],
      [
        "posita",
        -9.338181805289096
      ],
      [
        "rempublicam",
        -9.339346672884627
      ],
      [
        "idae",
        -9.33934835071772
      ],
      [
        "communi",
        -9.341342188843374
      ],
      [
        "uenisse",
        -9.341899320412065
      ],
      [
        "centurio",
        -9.343735728961352
      ],
      [
        "nil",
        -9.346144926679386
      ],
      [
        "accipi",
        -9.346564908100554
      ],
      [
        "arce",
        -9.348504233421668
      ],
      [
        "domiti",
        -9.35021438737251
      ],
      [
        "asti",
        -9.351290816793803
      ],
      [
        "nitor",
        -9.352186913423377
      ],
      [
        "ultro",
        -9.352755972793922
      ],
      [
        "foedus",
        -9.353350477339031
      ],
      [
        "impera",
        -9.355737011306498
      ],
      [
        "censeo",
        -9.356391283950526
      ],
      [
        "quintus",
        -9.357306992090503
      ],
      [
        "scripti",
        -9.35739436909136
      ],
      [
        "castris",
        -9.361742388507082
      ],
      [
        "toler",
        -9.36233395627181
      ],
      [
        "materia",
        -9.36336834138643
      ],
      [
        "uulner",
        -9.363501277207703
      ],
      [
        "cupi",
        -9.36402587753589
      ],
      [
        "humani",
        -9.364140980186452
      ],
      [
        "herba",
        -9.365565695142449
      ],
      [
        "reuert",
        -9.36580867128976
      ],
      [
        "notus",
        -9.366505519071108
      ],
      [
        "plenus",
        -9.36808313936265
      ],
      [
        "artus",
        -9.369346218441244
      ],
      [
        "publica",
        -9.370321580898251
      ],
      [
        "stult",
        -9.370903595576825
      ],
      [
        "postulo",
        -9.371836090524717
      ],
      [
        "icta",
        -9.375198269824814
      ],
      [
        "modum",
        -9.375248803456035
      ],
      [
        "troia",
        -9.37883000616133
      ],
      [
        "profecto",
        -9.379933483616417
      ],
      [
        "adolescen",
        -9.379941952527373
      ],
      [
        "interficio",
        -9.380331091798745
      ],
      [
        "adulescen",
        -9.386174233049685
      ],
      [
        "urge",
        -9.386362516387297
      ],
      [
        "gente",
        -9.388679055795107
      ],
      [
        "praeclar",
        -9.389839597158502
      ],
      [
        "supplicium",
        -9.390625960804332
      ],
      [
        "nati",
        -9.391391328134036
      ],
      [
        "tacit",
        -9.39593773495611
      ],
      [
        "hiem",
        -9.396061391999648
      ],
      [
        "proficiscor",
        -9.398613666990238
      ],
      [
        "plebs",
        -9.398832891512509
      ],
      [
        "repente",
        -9.400086672310618
      ],
      [
        "magnum",
        -9.403049744149115
      ],
      [
        "potentia",
        -9.403106656609465
      ],
      [
        "sumpt",
        -9.403312802207548
      ],
      [
        "misit",
        -9.404352840113567
      ],
      [
        "facilis",
        -9.40527986533613
      ],
      [
        "mitte",
        -9.40590985337694
      ],
      [
        "argentum",
        -9.407275102638335
      ],
      [
        "saxum",
        -9.407454431926029
      ],
      [
        "praesens",
        -9.407547073027725
      ],
      [
        "ecce",
        -9.408804393274638
      ],
      [
        "occid",
        -9.409403171248657
      ],
      [
        "positum",
        -9.409483648452078
      ],
      [
        "priuatus",
        -9.410730810665726
      ],
      [
        "uotum",
        -9.411393920571761
      ],
      [
        "posside",
        -9.411591581668247
      ],
      [
        "nato",
        -9.412288753449422
      ],
      [
        "decem",
        -9.413011384641901
      ],
      [
        "dixer",
        -9.416049165501377
      ],
      [
        "reperio",
        -9.420776521960363
      ],
      [
        "fateor",
        -9.42238276120321
      ],
      [
        "libido",
        -9.422787674625397
      ],
      [
        "frustra",
        -9.422935809131207
      ],
      [
        "praemium",
        -9.424519869828957
      ],
      [
        "sidera",
        -9.42480010192536
      ],
      [
        "arator",
        -9.42568494918731
      ],
      [
        "tutus",
        -9.42664627194626
      ],
      [
        "tertius",
        -9.427157620625557
      ],
      [
        "signo",
        -9.427339515136733
      ],
      [
        "magnitudo",
        -9.42881212091759
      ],
      [
        "noui",
        -9.428993298042261
      ],
      [
        "secundus",
        -9.434067339809701
      ],
      [
        "studio",
        -9.435722002884273
      ],
      [
        "differ",
        -9.436766032806549
      ],
      [
        "uult",
        -9.437000880267622
      ],
      [
        "auaritia",
        -9.437551516227346
      ],
      [
        "moenia",
        -9.437576420770213
      ],
      [
        "exigu",
        -9.440667519198684
      ],
      [
        "principe",
        -9.441919205029961
      ],
      [
        "auxili",
        -9.443054784139285
      ],
      [
        "coniux",
        -9.448590365439795
      ],
      [
        "campus",
        -9.448646916057555
      ],
      [
        "numen",
        -9.448886135626749
      ],
      [
        "oculos",
        -9.453377434947935
      ],
      [
        "somnus",
        -9.453596647925451
      ],
      [
        "tionibus",
        -9.454100240602791
      ],
      [
        "negoti",
        -9.456504494357084
      ],
      [
        "impono",
        -9.458132822097506
      ],
      [
        "pelle",
        -9.45842227039838
      ],
      [
        "transeo",
        -9.459204547035576
      ],
      [
        "conuiui",
        -9.460141812475447
      ],
      [
        "consid",
        -9.46416982221374
      ],
      [
        "sacerdo",
        -9.466451827007894
      ],
      [
        "pernici",
        -9.466987434946551
      ],
      [
        "maxima",
        -9.468736763378924
      ],
      [
        "uitelli",
        -9.469454428845127
      ],
      [
        "moror",
        -9.47108687167286
      ],
      [
        "aduentu",
        -9.472453454303736
      ],
      [
        "ciuilis",
        -9.473177418660368
      ],
      [
        "rimo",
        -9.473469868000661
      ],
      [
        "stare",
        -9.47517043258182
      ],
      [
        "auctoritate",
        -9.475692493709511
      ],
      [
        "insula",
        -9.477344302181988
      ],
      [
        "corpora",
        -9.47872886107777
      ],
      [
        "dextera",
        -9.480513722699104
      ],
      [
        "agro",
        -9.48577774041945
      ],
      [
        "rudi",
        -9.485971385523179
      ],
      [
        "positi",
        -9.486188593678328
      ],
      [
        "condemn",
        -9.494792751239917
      ],
      [
        "defensio",
        -9.496329481897344
      ],
      [
        "frequent",
        -9.49634072779088
      ],
      [
        "cupiditas",
        -9.496539414978276
      ],
      [
        "gressus",
        -9.49875290478164
      ],
      [
        "festi",
        -9.499883504045169
      ],
      [
        "frons",
        -9.501004854430988
      ],
      [
        "digna",
        -9.502148331022763
      ],
      [
        "porro",
        -9.502669829006862
      ],
      [
        "longa",
        -9.503423975251458
      ],
      [
        "dubita",
        -9.503587680437331
      ],
      [
        "ripa",
        -9.508332689893221
      ],
      [
        "exigo",
        -9.511041522126394
      ],
      [
        "fecisse",
        -9.514187291592899
      ],
      [
        "catilina",
        -9.515095919336154
      ],
      [
        "saeuus",
        -9.51527523640315
      ],
      [
        "consist",
        -9.515572494279894
      ],
      [
        "tectum",
        -9.515885518713155
      ],
      [
        "flumin",
        -9.51926508255723
      ],
      [
        "conspectu",
        -9.523604005237756
      ],
      [
        "commodum",
        -9.523971755160494
      ],
      [
        "ectis",
        -9.524420683596649
      ],
      [
        "oppugn",
        -9.52453099504818
      ],
      [
        "habea",
        -9.524944294543456
      ],
      [
        "gnaeu",
        -9.527221354012564
      ],
      [
        "militum",
        -9.529961775392064
      ],
      [
        "obtine",
        -9.532117517277856
      ],
      [
        "iugum",
        -9.532196597225179
      ],
      [
        "simili",
        -9.53261761956334
      ],
      [
        "oculis",
        -9.532920454976608
      ],
      [
        "honesta",
        -9.534288322908377
      ],
      [
        "inuitus",
        -9.537773275816825
      ],
      [
        "apta",
        -9.539619753764777
      ],
      [
        "torqueo",
        -9.543463755219717
      ],
      [
        "porto",
        -9.545483106836812
      ],
      [
        "consuetudo",
        -9.546422361442268
      ],
      [
        "cognosc",
        -9.546481517019284
      ],
      [
        "quirite",
        -9.547093077736946
      ],
      [
        "nocens",
        -9.547167656284657
      ],
      [
        "ungu",
        -9.548420116824893
      ],
      [
        "descend",
        -9.549546174769194
      ],
      [
        "otio",
        -9.55362511308204
      ],
      [
        "contentus",
        -9.55384960299239
      ],
      [
        "ambitio",
        -9.555041208285035
      ],
      [
        "irasc",
        -9.555898429114556
      ],
      [
        "cidit",
        -9.559712941910654
      ],
      [
        "hui",
        -9.560073618708389
      ],
      [
        "opprim",
        -9.561856049294784
      ],
      [
        "censu",
        -9.563002045463078
      ],
      [
        "tempta",
        -9.563920085711862
      ],
      [
        "integer",
        -9.566336023687498
      ],
      [
        "otho",
        -9.56841436126036
      ],
      [
        "obici",
        -9.572890560643255
      ],
      [
        "constantia",
        -9.573831589903008
      ],
      [
        "quaestor",
        -9.577518106205334
      ],
      [
        "ulta",
        -9.578256591703553
      ],
      [
        "imago",
        -9.579557278443001
      ],
      [
        "contumelia",
        -9.581296546857175
      ],
      [
        "passu",
        -9.583768959265988
      ],
      [
        "diligentia",
        -9.58386352544644
      ],
      [
        "recens",
        -9.584268273618939
      ],
      [
        "melior",
        -9.584602963600222
      ],
      [
        "barbarus",
        -9.584623024430153
      ],
      [
        "redde",
        -9.584743528088563
      ],
      [
        "improbus",
        -9.586413593753988
      ],
      [
        "adhibe",
        -9.589000535333236
      ],
      [
        "sacrum",
        -9.590130021079938
      ],
      [
        "incendi",
        -9.591158723931592
      ],
      [
        "aspicio",
        -9.591756355797846
      ],
      [
        "custos",
        -9.592318622709936
      ],
      [
        "uect",
        -9.594463844750713
      ],
      [
        "pulcher",
        -9.599009284730307
      ],
      [
        "habui",
        -9.599328507661294
      ],
      [
        "adulter",
        -9.600091378978519
      ],
      [
        "corporis",
        -9.60186422394623
      ],
      [
        "lentus",
        -9.603187059518277
      ],
      [
        "benign",
        -9.604398207617853
      ],
      [
        "uideri",
        -9.60665445228404
      ],
      [
        "numera",
        -9.608035306185323
      ],
      [
        "regna",
        -9.609598391150964
      ],
      [
        "superior",
        -9.609972796227815
      ],
      [
        "sord",
        -9.611830885507583
      ],
      [
        "seditio",
        -9.61580061254482
      ],
      [
        "quanta",
        -9.616743162380413
      ],
      [
        "ulli",
        -9.616745315456178
      ],
      [
        "augustu",
        -9.620307147479222
      ],
      [
        "orbe",
        -9.621247405547315
      ],
      [
        "mundus",
        -9.621251348714754
      ],
      [
        "celeriter",
        -9.623635303129841
      ],
      [
        "securi",
        -9.626101430860595
      ],
      [
        "felicita",
        -9.62739101877756
      ],
      [
        "publice",
        -9.627998239431031
      ],
      [
        "effer",
        -9.628814119665504
      ],
      [
        "tulisse",
        -9.629129375681847
      ],
      [
        "tergum",
        -9.629286377150674
      ],
      [
        "scind",
        -9.631789359933164
      ],
      [
        "ignosc",
        -9.63305902408616
      ],
      [
        "uerbis",
        -9.633624512540619
      ],
      [
        "equites",
        -9.633684709352263
      ],
      [
        "incolumi",
        -9.634141822023883
      ],
      [
        "facti",
        -9.636478162161229
      ],
      [
        "antoni",
        -9.63868239123634
      ],
      [
        "manibus",
        -9.644075368018735
      ],
      [
        "exercit",
        -9.645117529509422
      ],
      [
        "legiones",
        -9.645741169556928
      ],
      [
        "itiner",
        -9.652135560267444
      ],
      [
        "noceo",
        -9.65271800110029
      ],
      [
        "palla",
        -9.65455644561289
      ],
      [
        "cotidie",
        -9.654921226655025
      ],
      [
        "perfect",
        -9.655076693002467
      ],
      [
        "expedit",
        -9.655180629137915
      ],
      [
        "syracus",
        -9.657649793586161
      ],
      [
        "membrum",
        -9.65765007836147
      ],
      [
        "cresco",
        -9.662841746547308
      ],
      [
        "pietas",
        -9.663285679727936
      ],
      [
        "potestate",
        -9.665450024738618
      ],
      [
        "possunt",
        -9.666015193258046
      ],
      [
        "gaudium",
        -9.666113377792492
      ],
      [
        "colonia",
        -9.666228523239546
      ],
      [
        "poeta",
        -9.673244134674702
      ],
      [
        "fingo",
        -9.673493210970012
      ],
      [
        "coepit",
        -9.67421166099124
      ],
      [
        "sagitta",
        -9.674634316432893
      ],
      [
        "morbus",
        -9.675383510095322
      ],
      [
        "britanni",
        -9.67698934850021
      ],
      [
        "melius",
        -9.68051238856879
      ],
      [
        "responde",
        -9.682409724106503
      ],
      [
        "nefas",
        -9.682925744863166
      ],
      [
        "protinus",
        -9.683219508595212
      ],
      [
        "commend",
        -9.685622672991666
      ],
      [
        "uehementer",
        -9.688205848369135
      ],
      [
        "uirtuti",
        -9.688284755905425
      ],
      [
        "implic",
        -9.688337659387358
      ],
      [
        "diligenter",
        -9.693872690905335
      ],
      [
        "militia",
        -9.693940403667312
      ],
      [
        "rectus",
        -9.696381606558482
      ],
      [
        "tempestas",
        -9.696705808212464
      ],
      [
        "manifest",
        -9.696707929124699
      ],
      [
        "impetr",
        -9.696839077598124
      ],
      [
        "egit",
        -9.70155714784695
      ],
      [
        "munitio",
        -9.702248638279316
      ],
      [
        "prudentia",
        -9.702410790160673
      ],
      [
        "libenter",
        -9.702431535025497
      ],
      [
        "demonstr",
        -9.703104333227127
      ],
      [
        "ualidus",
        -9.703117058092655
      ],
      [
        "sylla",
        -9.705662597396888
      ],
      [
        "conficio",
        -9.706584994225988
      ],
      [
        "uestri",
        -9.709429693940297
      ],
      [
        "beatus",
        -9.709801079595229
      ],
      [
        "trahe",
        -9.710548542752452
      ],
      [
        "futurum",
        -9.711318658477978
      ],
      [
        "falsus",
        -9.71401995998804
      ],
      [
        "ponte",
        -9.714157784546863
      ],
      [
        "aptus",
        -9.71807414662721
      ],
      [
        "animaduert",
        -9.719776416253168
      ],
      [
        "quaestio",
        -9.720172194590559
      ],
      [
        "dura",
        -9.720380943519595
      ],
      [
        "corona",
        -9.725913242230009
      ],
      [
        "possessio",
        -9.72614521304369
      ],
      [
        "aether",
        -9.726415547846118
      ],
      [
        "locis",
        -9.728370057962596
      ],
      [
        "pulchr",
        -9.731476354249558
      ],
      [
        "cogitatio",
        -9.732100201287945
      ],
      [
        "paulatim",
        -9.737352918048249
      ],
      [
        "necessarius",
        -9.737361708464427
      ],
      [
        "ciue",
        -9.739259339035279
      ],
      [
        "effugi",
        -9.743140027696771
      ],
      [
        "necessitas",
        -9.743320320107408
      ],
      [
        "suspic",
        -9.74519975750194
      ],
      [
        "modera",
        -9.745841824280701
      ],
      [
        "praeceps",
        -9.746284071118122
      ],
      [
        "greg",
        -9.747368372314948
      ],
      [
        "adicio",
        -9.749976383672614
      ],
      [
        "fatig",
        -9.750003189874896
      ],
      [
        "explic",
        -9.75018003564072
      ],
      [
        "tolle",
        -9.752446381636958
      ],
      [
        "praecipit",
        -9.755290480504524
      ],
      [
        "iustitia",
        -9.755587388247411
      ],
      [
        "posterus",
        -9.756065920247572
      ],
      [
        "impetu",
        -9.757176813980088
      ],
      [
        "mitta",
        -9.75848772103734
      ],
      [
        "sestertiu",
        -9.759621113444624
      ],
      [
        "hasta",
        -9.760076142223081
      ],
      [
        "ianua",
        -9.762936650561175
      ],
      [
        "cepit",
        -9.766247733662809
      ],
      [
        "assid",
        -9.769453179064577
      ],
      [
        "dignitate",
        -9.770484519372708
      ],
      [
        "nudus",
        -9.770625070273494
      ],
      [
        "inopia",
        -9.77147600172464
      ],
      [
        "dimic",
        -9.771561818108335
      ],
      [
        "ciuitatis",
        -9.773565797747167
      ],
      [
        "metellus",
        -9.778152038891463
      ],
      [
        "eloquentia",
        -9.77971611461897
      ],
      [
        "syria",
        -9.780014861466789
      ],
      [
        "fratre",
        -9.780213859666908
      ],
      [
        "posuit",
        -9.780408797010411
      ],
      [
        "offend",
        -9.782923717860882
      ],
      [
        "argi",
        -9.787117436467494
      ],
      [
        "ruina",
        -9.792896550118432
      ],
      [
        "fraud",
        -9.793177907221574
      ],
      [
        "perturb",
        -9.794864356617701
      ],
      [
        "disciplina",
        -9.79529163253771
      ],
      [
        "brutus",
        -9.795362557862695
      ],
      [
        "aditus",
        -9.797657332137439
      ],
      [
        "scribe",
        -9.79846250896195
      ],
      [
        "sanctus",
        -9.798498157260582
      ],
      [
        "licentia",
        -9.798815578641374
      ],
      [
        "certi",
        -9.799683799589472
      ],
      [
        "ego界cum",
        -9.801606219713479
      ],
      [
        "rustic",
        -9.801851025547569
      ],
      [
        "aestima",
        -9.803555478656795
      ],
      [
        "luxuria",
        -9.804833329703147
      ],
      [
        "occasio",
        -9.804865353435623
      ],
      [
        "societas",
        -9.807930307683591
      ],
      [
        "thra",
        -9.807974623447224
      ],
      [
        "effund",
        -9.808079934591559
      ],
      [
        "libertate",
        -9.808494252666092
      ],
      [
        "界",
        -9.808802331483209
      ],
      [
        "diuido",
        -9.810378186341296
      ],
      [
        "confid",
        -9.810621759763006
      ],
      [
        "iugurtha",
        -9.811114674924003
      ],
      [
        "antiquus",
        -9.811114930688948
      ],
      [
        "pelli",
        -9.811379034787546
      ],
      [
        "illuc",
        -9.811880557024768
      ],
      [
        "fulge",
        -9.812658982698721
      ],
      [
        "minister",
        -9.813888949654082
      ],
      [
        "pretio",
        -9.814515750202506
      ],
      [
        "uespasian",
        -9.817514823393086
      ],
      [
        "indulge",
        -9.818169605353802
      ],
      [
        "uenenum",
        -9.818306181525024
      ],
      [
        "cruci",
        -9.824101975001142
      ],
      [
        "aliena",
        -9.825404883028124
      ],
      [
        "comiti",
        -9.827186854564506
      ],
      [
        "otiens",
        -9.828048948038894
      ],
      [
        "uectigal",
        -9.836975860167957
      ],
      [
        "capitoli",
        -9.837225520070682
      ],
      [
        "saeui",
        -9.837531997522323
      ],
      [
        "philosophia",
        -9.83851463921205
      ],
      [
        "contentio",
        -9.83964851737844
      ],
      [
        "accipe",
        -9.84166771304875
      ],
      [
        "misericordia",
        -9.843532477635533
      ],
      [
        "proelio",
        -9.844641203318545
      ],
      [
        "honesti",
        -9.844749754442265
      ],
      [
        "humana",
        -9.846919675658764
      ],
      [
        "immani",
        -9.848371309212375
      ],
      [
        "fessus",
        -9.85026740839859
      ],
      [
        "neminem",
        -9.853513675558247
      ],
      [
        "preca",
        -9.853569721148022
      ],
      [
        "possent",
        -9.854465811345438
      ],
      [
        "tu界cum",
        -9.856835171127148
      ],
      [
        "iuuentu",
        -9.861685940089693
      ],
      [
        "censor",
        -9.862457586138568
      ],
      [
        "amplu",
        -9.86660456836841
      ],
      [
        "ecundum",
        -9.866650930854917
      ],
      [
        "penitus",
        -9.867088168970842
      ],
      [
        "accend",
        -9.869369543106993
      ],
      [
        "diuitiae",
        -9.87025079220526
      ],
      [
        "clementia",
        -9.870251185613075
      ],
      [
        "sui界cum",
        -9.870254954380378
      ],
      [
        "lepid",
        -9.873739091258276
      ],
      [
        "feci",
        -9.876065813201363
      ],
      [
        "fiducia",
        -9.877222445209085
      ],
      [
        "hispania",
        -9.880467541108239
      ],
      [
        "honestum",
        -9.883884038376088
      ],
      [
        "caecina",
        -9.884072034853169
      ],
      [
        "corneli",
        -9.884194994218351
      ],
      [
        "accepi",
        -9.885582961179253
      ],
      [
        "reliqua",
        -9.885663786054511
      ],
      [
        "disput",
        -9.885974125455855
      ],
      [
        "frequens",
        -9.89076131626274
      ],
      [
        "desidero",
        -9.89422508935128
      ],
      [
        "ualetud",
        -9.896262492198453
      ],
      [
        "praefectus",
        -9.897691148349937
      ],
      [
        "membra",
        -9.897693821322294
      ],
      [
        "uoluntate",
        -9.901190160855945
      ],
      [
        "felici",
        -9.903483651033547
      ],
      [
        "facultas",
        -9.908215639162323
      ],
      [
        "carcer",
        -9.910710466568801
      ],
      [
        "philipp",
        -9.911701872630694
      ],
      [
        "ludus",
        -9.923142132286154
      ],
      [
        "epistola",
        -9.925912156869076
      ],
      [
        "commune",
        -9.925962612055589
      ],
      [
        "laetitia",
        -9.933112528941095
      ],
      [
        "galba",
        -9.933597814396492
      ],
      [
        "suffrag",
        -9.936703105481802
      ],
      [
        "phryg",
        -9.936703196043197
      ],
      [
        "exsul",
        -9.936846270247239
      ],
      [
        "philo",
        -9.9368703631657
      ],
      [
        "claudius",
        -9.937135126950654
      ],
      [
        "reddit",
        -9.937555132271143
      ],
      [
        "chrys",
        -9.940331562435638
      ],
      [
        "gladiator",
        -9.947612558326867
      ],
      [
        "iniquus",
        -9.947612788609487
      ],
      [
        "kalend",
        -9.94761405466339
      ],
      [
        "industria",
        -9.947618488670363
      ],
      [
        "copiis",
        -9.955167680073108
      ],
      [
        "augur",
        -9.955237634665362
      ],
      [
        "suffici",
        -9.958690035471905
      ],
      [
        "silentium",
        -9.958761874463834
      ],
      [
        "apollo",
        -9.958973049291913
      ],
      [
        "phoebus",
        -9.962348525020488
      ],
      [
        "fastidi",
        -9.96240336533268
      ],
      [
        "cruor",
        -9.962962289201474
      ],
      [
        "monumentum",
        -9.966072228414374
      ],
      [
        "concordia",
        -9.96608303664128
      ],
      [
        "prudens",
        -9.966093899153964
      ],
      [
        "ignotus",
        -9.96635626755676
      ],
      [
        "plura",
        -9.967596643256122
      ],
      [
        "fabula",
        -9.967894786999747
      ],
      [
        "ignarus",
        -9.969795578332235
      ],
      [
        "pontus",
        -9.970070062044567
      ],
      [
        "hospiti",
        -9.970721978970627
      ],
      [
        "templo",
        -9.975235058076809
      ],
      [
        "ignora",
        -9.976684695669803
      ],
      [
        "discordia",
        -9.977306166537627
      ],
      [
        "indicium",
        -9.977403055090491
      ],
      [
        "positus",
        -9.977408265778365
      ],
      [
        "sapienti",
        -9.979631701086884
      ],
      [
        "spolia",
        -9.980243026042181
      ],
      [
        "flagr",
        -9.98090842638777
      ],
      [
        "adfect",
        -9.985514997902996
      ],
      [
        "robur",
        -9.9890116155174
      ],
      [
        "sapiente",
        -9.992543829447566
      ],
      [
        "periculi",
        -9.992873123650114
      ],
      [
        "improbi",
        -9.993402463548275
      ],
      [
        "iracund",
        -9.99340517123321
      ],
      [
        "gladius",
        -10.000189166144711
      ],
      [
        "classe",
        -10.004199157649577
      ],
      [
        "litteris",
        -10.004232246875437
      ],
      [
        "figura",
        -10.007912123464358
      ],
      [
        "cicero",
        -10.008003598581858
      ],
      [
        "propinqui",
        -10.010255362855304
      ],
      [
        "foeder",
        -10.011940953188578
      ],
      [
        "abstine",
        -10.012479188113426
      ],
      [
        "patientia",
        -10.015779607299065
      ],
      [
        "idcirco",
        -10.015843400931281
      ],
      [
        "multitudine",
        -10.019614118715165
      ],
      [
        "segni",
        -10.022810684609958
      ],
      [
        "publicum",
        -10.023550176451025
      ],
      [
        "fortiter",
        -10.023809512230542
      ],
      [
        "superbia",
        -10.024645915727135
      ],
      [
        "rosciu",
        -10.02616494696732
      ],
      [
        "crudelitas",
        -10.031579902517588
      ],
      [
        "oportere",
        -10.031594210438346
      ],
      [
        "bellu",
        -10.0317136636863
      ],
      [
        "dicend",
        -10.033543638246222
      ],
      [
        "popularis",
        -10.035455406119732
      ],
      [
        "beneficio",
        -10.036206662315138
      ],
      [
        "tenebrae",
        -10.039455058948134
      ],
      [
        "confiteor",
        -10.039455343451689
      ],
      [
        "liberalita",
        -10.03960026469311
      ],
      [
        "calamitas",
        -10.043474259543935
      ],
      [
        "exempla",
        -10.04350229970522
      ],
      [
        "commoda",
        -10.043586889221999
      ],
      [
        "magnitudine",
        -10.047503685151463
      ],
      [
        "aestimo",
        -10.05163341485364
      ],
      [
        "extremum",
        -10.055658920136374
      ],
      [
        "praesidio",
        -10.059764093452033
      ],
      [
        "oppida",
        -10.063866163442858
      ],
      [
        "imagin",
        -10.064125306551102
      ],
      [
        "posito",
        -10.064779017876019
      ],
      [
        "possis",
        -10.06819404935922
      ],
      [
        "candida",
        -10.076459311964108
      ],
      [
        "proficisc",
        -10.077152591529266
      ],
      [
        "cepisse",
        -10.084784724589401
      ],
      [
        "nobilitas",
        -10.088792299109652
      ],
      [
        "saeuitia",
        -10.089461744118084
      ],
      [
        "immine",
        -10.08961108641186
      ],
      [
        "succed",
        -10.093051200790107
      ],
      [
        "fratri",
        -10.094417970319224
      ],
      [
        "audax",
        -10.097204711916806
      ],
      [
        "epistula",
        -10.097205804253395
      ],
      [
        "modestia",
        -10.097328885934907
      ],
      [
        "lentulu",
        -10.098164984246987
      ],
      [
        "recipi",
        -10.100508536067931
      ],
      [
        "afficio",
        -10.10153952295656
      ],
      [
        "agrippina",
        -10.105731950215128
      ],
      [
        "fossa",
        -10.106167266842366
      ],
      [
        "impend",
        -10.107616718233478
      ],
      [
        "difficult",
        -10.110023512204673
      ],
      [
        "obliuiscor",
        -10.114333993819692
      ],
      [
        "praeceptum",
        -10.114334520273085
      ],
      [
        "dolabella",
        -10.114359612206496
      ],
      [
        "coniugi",
        -10.114400848762363
      ],
      [
        "atrimonium",
        -10.118686155058061
      ],
      [
        "relinque",
        -10.118827931609143
      ],
      [
        "ignoro",
        -10.123015655526926
      ],
      [
        "ulcisc",
        -10.12304351728684
      ],
      [
        "passim",
        -10.123174563056576
      ],
      [
        "plebis",
        -10.131929302717552
      ],
      [
        "mediocri",
        -10.136274499577507
      ],
      [
        "philosoph",
        -10.13849801369765
      ],
      [
        "praecipue",
        -10.140593580649666
      ],
      [
        "defensor",
        -10.140631752842308
      ],
      [
        "utrimque",
        -10.140644096357036
      ],
      [
        "nupta",
        -10.140746586369115
      ],
      [
        "excutio",
        -10.14508502299865
      ],
      [
        "legatos",
        -10.145120526515381
      ],
      [
        "quominu",
        -10.15307003187783
      ],
      [
        "aproniu",
        -10.153567461497342
      ],
      [
        "subsidium",
        -10.158499619087202
      ],
      [
        "iuxta",
        -10.15850764774995
      ],
      [
        "puppi",
        -10.16316288541632
      ],
      [
        "consuetudine",
        -10.16756136030657
      ],
      [
        "publico",
        -10.172127679386326
      ],
      [
        "militibus",
        -10.172148053630952
      ],
      [
        "plebe",
        -10.172364653405412
      ],
      [
        "glorio",
        -10.1736418781731
      ],
      [
        "nauibus",
        -10.176866895131294
      ],
      [
        "inimicitia",
        -10.190634834594436
      ],
      [
        "aeternus",
        -10.190709174774513
      ],
      [
        "possint",
        -10.19998430431744
      ],
      [
        "supplex",
        -10.200001179069119
      ],
      [
        "ignominia",
        -10.20468868454627
      ],
      [
        "profectu",
        -10.214204430468914
      ],
      [
        "uiolen",
        -10.214213198481005
      ],
      [
        "aduersarius",
        -10.223795789647696
      ],
      [
        "destitu",
        -10.224203433331498
      ],
      [
        "propinquus",
        -10.228613068008347
      ],
      [
        "carthag",
        -10.22862452359443
      ],
      [
        "oppido",
        -10.228657487623575
      ],
      [
        "fastigi",
        -10.233469537086869
      ],
      [
        "uiginti",
        -10.238351556695
      ],
      [
        "impune",
        -10.238363786381822
      ],
      [
        "cupiditate",
        -10.243419395088553
      ],
      [
        "fulmen",
        -10.248307333998703
      ],
      [
        "publici",
        -10.253124216705618
      ],
      [
        "concupisc",
        -10.25318238118195
      ],
      [
        "taberna",
        -10.258115936733912
      ],
      [
        "scriba",
        -10.263272797901301
      ],
      [
        "infamia",
        -10.2633246672293
      ],
      [
        "persequ",
        -10.265277551823369
      ],
      [
        "contrariu",
        -10.276953315515186
      ],
      [
        "hiberna",
        -10.278251083979034
      ],
      [
        "fronte",
        -10.278385440200012
      ],
      [
        "lacrimis",
        -10.283356101063053
      ],
      [
        "celebra",
        -10.283750015309572
      ],
      [
        "largitio",
        -10.284473658071818
      ],
      [
        "maximi",
        -10.288487537571932
      ],
      [
        "coniunx",
        -10.293636401078544
      ],
      [
        "iuuenta",
        -10.293725417500173
      ],
      [
        "marcellus",
        -10.298828909325358
      ],
      [
        "candidus",
        -10.309266683936755
      ],
      [
        "pertimesc",
        -10.30978723087743
      ],
      [
        "caelesti",
        -10.319876159192027
      ],
      [
        "domesticus",
        -10.325136456170672
      ],
      [
        "sollicitus",
        -10.325137889626184
      ],
      [
        "rhenus",
        -10.325163143667833
      ],
      [
        "corripi",
        -10.325188176816116
      ],
      [
        "pulcherrim",
        -10.32552672262836
      ],
      [
        "celebro",
        -10.33048238483865
      ],
      [
        "controuersia",
        -10.335858401344009
      ],
      [
        "negligo",
        -10.335861131219865
      ],
      [
        "altitud",
        -10.33587861867473
      ],
      [
        "octaui",
        -10.335941567927263
      ],
      [
        "frond",
        -10.336243403504561
      ],
      [
        "audaci",
        -10.342333616604684
      ],
      [
        "hercle",
        -10.352167532615585
      ],
      [
        "langue",
        -10.35455107690052
      ],
      [
        "consequ",
        -10.35697462218057
      ],
      [
        "reliquum",
        -10.357657554570913
      ],
      [
        "pudicitia",
        -10.357657794212269
      ],
      [
        "testimoni",
        -10.361157767100213
      ],
      [
        "necessario",
        -10.363186032904123
      ],
      [
        "dulce",
        -10.36335332521348
      ],
      [
        "praecipuu",
        -10.374325547327519
      ],
      [
        "consuesc",
        -10.374948171106343
      ],
      [
        "obsecro",
        -10.391274427508
      ],
      [
        "scripta",
        -10.39698899426493
      ],
      [
        "2",
        -10.402735473056335
      ],
      [
        "languid",
        -10.402794579940682
      ],
      [
        "splendor",
        -10.414377601125608
      ],
      [
        "succurr",
        -10.415083921861603
      ],
      [
        "detriment",
        -10.42115863489709
      ],
      [
        "bacchus",
        -10.426060311542795
      ],
      [
        "coniunctus",
        -10.426060869284182
      ],
      [
        "locuples",
        -10.431977267000516
      ],
      [
        "municipium",
        -10.44391765302392
      ],
      [
        "maximum",
        -10.449941937420462
      ],
      [
        "nympha",
        -10.449942832103108
      ],
      [
        "impudentia",
        -10.456002358434421
      ],
      [
        "maiestas",
        -10.456006931310222
      ],
      [
        "castellum",
        -10.46209992400697
      ],
      [
        "integri",
        -10.46834573715514
      ],
      [
        "uoluptati",
        -10.47443032557957
      ],
      [
        "mancipi",
        -10.480620583187076
      ],
      [
        "superuacuu",
        -10.486165975768001
      ],
      [
        "fortitud",
        -10.48690204675421
      ],
      [
        "trimalchio",
        -10.493158205155623
      ],
      [
        "brachium",
        -10.499487356379667
      ],
      [
        "dignitati",
        -10.499488175231825
      ],
      [
        "imbecill",
        -10.518718871850448
      ],
      [
        "dardani",
        -10.544958221375223
      ],
      [
        "principatu",
        -10.551616231241098
      ],
      [
        "muliebri",
        -10.551617207145082
      ],
      [
        "significa",
        -10.551673269286258
      ],
      [
        "paenitentia",
        -10.565090722909886
      ],
      [
        "locuplet",
        -10.571887380521044
      ],
      [
        "beneuolentia",
        -10.57873652458606
      ],
      [
        "purpura",
        -10.6066137843777
      ],
      [
        "tranquilli",
        -10.613705359785467
      ],
      [
        "pyrrh",
        -10.642587979780444
      ],
      [
        "sollicitudo",
        -10.649940569247835
      ],
      [
        "gracchu",
        -10.649945861497653
      ],
      [
        "mithridate",
        -10.657347954342058
      ],
      [
        "uoluptatem",
        -10.664810821035658
      ],
      [
        "defectio",
        -10.69555771447111
      ],
      [
        "effigies",
        -10.710795532027582
      ],
      [
        "cynthia",
        -10.718669594078296
      ],
      [
        "unusquisqu",
        -10.794340591901634
      ],
      [
        "aegyptus",
        -10.809640805843138
      ],
      [
        "parricida",
        -10.827108489345175
      ],
      [
        "quinquaginta",
        -10.835957946258077
      ],
      [
        "lacedaemon",
        -10.84488652175694
      ],
      [
        "compell",
        -10.896149480803722
      ],
      [
        "bracchia",
        -10.909723573367412
      ],
      [
        "amphitryon",
        -11.24810782428897
      ],
      [
        "k",
        -11.677322926359354
      ],
      [
        ".",
        -14.63613012156067
      ],
      [
        "0",
        -15.136130121560672
      ]
    ]
  }
}